<unk>	0
<s>	0
</s>	0
[start]	0
[end]	0
[PAD]	0
[UNK]	0
<hi2>	0
▁क	-0
▁ह	-1
▁स	-2
▁म	-3
▁प	-4
्र	-5
▁व	-6
▁है	-7
▁ज	-8
▁र	-9
ने	-10
▁द	-11
▁के	-12
▁ब	-13
ों	-14
▁औ	-15
▁और	-16
ार	-17
ें	-18
▁त	-19
▁अ	-20
▁न	-21
ान	-22
▁भ	-23
▁उ	-24
▁श	-25
▁को	-26
या	-27
कर	-28
▁ल	-29
जी	-30
ता	-31
▁हैं	-32
▁में	-33
▁कर	-34
▁से	-35
▁प्र	-36
▁आ	-37
▁रा	-38
▁ग	-39
▁की	-40
ते	-41
▁सु	-42
▁हो	-43
र्	-44
▁का	-45
ड़	-46
न्	-47
ही	-48
्री	-49
▁च	-50
▁दे	-51
ना	-52
ित	-53
▁ने	-54
▁श्री	-55
ाल	-56
्य	-57
▁य	-58
▁पर	-59
▁कि	-60
▁सम	-61
के	-62
्व	-63
हा	-64
▁वि	-65
क्	-66
▁राम	-67
हीं	-68
▁ही	-69
ंद	-70
▁उस	-71
▁नहीं	-72
िए	-73
▁हे	-74
▁इ	-75
ति	-76
▁सब	-77
▁जा	-78
रा	-79
▁मु	-80
▁अप	-81
ती	-82
▁भी	-83
▁ध	-84
▁हु	-85
▁वे	-86
िर	-87
से	-88
्म	-89
▁जो	-90
॥1	-91
क्ष	-92
ुम	-93
त्र	-94
▁देख	-95
▁उन	-96
▁थ	-97
ाथ	-98
॥2	-99
जा	-100
▁आप	-101
▁रह	-102
▁जि	-103
▁फ	-104
िया	-105
का	-106
▁मन	-107
्या	-108
▁मै	-109
री	-110
कार	-111
▁कह	-112
॥3	-113
गा	-114
▁मैं	-115
▁तो	-116
▁वाल	-117
▁पा	-118
ला	-119
▁सुन	-120
4॥	-121
्त	-122
वा	-123
द्र	-124
िय	-125
▁इस	-126
ाम	-127
॥2॥	-128
॥1॥	-129
▁मे	-130
॥3॥	-131
ूप	-132
ुर	-133
▁वह	-134
॥4॥	-135
ले	-136
▁छ	-137
▁लिए	-138
न्ह	-139
रण	-140
▁कु	-141
हु	-142
ुष	-143
▁यह	-144
सा	-145
की	-146
▁तुम	-147
ंदर	-148
गे	-149
रे	-150
द्	-151
ंत	-152
▁ए	-153
▁स्व	-154
▁रामजी	-155
▁रूप	-156
नी	-157
▁नि	-158
▁रामच	-159
▁करने	-160
▁हुए	-161
▁जान	-162
▁भा	-163
▁अपने	-164
भी	-165
▁प्रभ	-166
▁सुंदर	-167
ूँ	-168
ोग	-169
नि	-170
▁बा	-171
▁गए	-172
▁एक	-173
▁प्रकार	-174
▁मा	-175
द्ध	-176
हाँ	-177
▁बहु	-178
▁उन्ह	-179
को	-180
▁सी	-181
▁भर	-182
▁बहुत	-183
ूर्	-184
▁किया	-185
▁फिर	-186
▁राजा	-187
न्द्र	-188
ंग	-189
▁ख	-190
▁ऐ	-191
त्	-192
▁प्रे	-193
दय	-194
▁रहे	-195
था	-196
▁तब	-197
▁बड़	-198
▁मुझ	-199
घु	-200
▁करके	-201
▁देखकर	-202
ओं	-203
नों	-204
्ञ	-205
▁करते	-206
▁हृ	-207
▁हृदय	-208
त्य	-209
▁वाले	-210
▁दो	-211
▁गया	-212
▁प्रेम	-213
सी	-214
भा	-215
▁प्रभु	-216
ियों	-217
ुण	-218
ष्	-219
▁घ	-220
▁रघु	-221
▁सक	-222
▁साथ	-223
▁जिस	-224
्मण	-225
ाह	-226
▁मान	-227
ारा	-228
▁देव	-229
▁जी	-230
▁समान	-231
ित्र	-232
▁चरण	-233
ोड़	-234
मल	-235
ुल	-236
ारे	-237
▁था	-238
मा	-239
▁रामचन्द्र	-240
ारी	-241
▁स्	-242
▁ले	-243
▁रामचन्द्रजी	-244
थजी	-245
▁ब्र	-246
वान	-247
▁कहा	-248
▁सीता	-249
▁वच	-250
▁दु	-251
▁दिया	-252
▁मुनि	-253
▁मुझे	-254
स्	-255
▁सुख	-256
पा	-257
▁सुनकर	-258
▁उनके	-259
हित	-260
▁हूँ	-261
▁हम	-262
ैसे	-263
▁भरत	-264
ढ़	-265
▁सं	-266
च्	-267
▁वचन	-268
▁ड	-269
▁शि	-270
दा	-271
न्त	-272
▁दू	-273
ारण	-274
दि	-275
ोंने	-276
▁देवता	-277
▁कृ	-278
रीर	-279
▁पु	-280
▁शरीर	-281
▁रूपी	-282
▁कोई	-283
▁दि	-284
▁रघुना	-285
ाण	-286
▁थे	-287
ुद्ध	-288
▁उसे	-289
ीर	-290
▁कुछ	-291
▁रघुनाथजी	-292
ोध	-293
▁अत्य	-294
▁बि	-295
▁लोग	-296
▁होकर	-297
ज्ञ	-298
▁सभी	-299
▁मि	-300
ंद्र	-301
▁लक्ष	-302
▁जल	-303
▁हाथ	-304
▁सीताजी	-305
▁सा	-306
्ह	-307
▁तर	-308
ली	-309
न्न	-310
▁मेरे	-311
▁लगे	-312
▁ऐसा	-313
▁अन	-314
▁गई	-315
▁मानो	-316
गी	-317
ूल	-318
▁तुम्ह	-319
▁उन्हें	-320
र्ष	-321
▁हुआ	-322
▁विश	-323
▁जिन	-324
▁भाई	-325
▁उन्होंने	-326
▁जब	-327
▁मह	-328
क्ति	-329
▁दी	-330
ड़े	-331
वजी	-332
▁लिया	-333
▁लक्ष्मण	-334
दे	-335
कों	-336
▁अब	-337
▁बल	-338
▁दोनों	-339
▁सो	-340
▁भरतजी	-341
▁तथा	-342
▁माता	-343
▁बो	-344
▁समझ	-345
ष्ठ	-346
▁सिर	-347
▁सहित	-348
वण	-349
र्व	-350
▁दुः	-351
▁पू	-352
▁चरणों	-353
च्छ	-354
▁तरह	-355
▁लगा	-356
▁रावण	-357
▁गुण	-358
▁राज	-359
▁अपनी	-360
्वी	-361
▁॥	-362
एँ	-363
▁सकता	-364
▁जग	-365
वक	-366
▁वन	-367
▁चाह	-368
▁जैसे	-369
▁चले	-370
▁दुःख	-371
▁मार	-372
▁काम	-373
▁छोड़	-374
ह्म	-375
▁शिवजी	-376
्यों	-377
कि	-378
▁समय	-379
▁रहा	-380
▁ना	-381
चार	-382
▁बिना	-383
र्ण	-384
▁शो	-385
ुद्धि	-386
▁ब्रह्म	-387
ानर	-388
▁पव	-389
▁करता	-390
▁कौ	-391
▁वही	-392
स्त	-393
▁भग	-394
▁वानर	-395
▁धन	-396
▁रही	-397
खा	-398
राज	-399
कुल	-400
▁बड़ा	-401
▁घर	-402
▁हुई	-403
▁मेरा	-404
गर	-405
चा	-406
ान्	-407
▁भगवान	-408
▁कल	-409
5॥	-410
िता	-411
▁वश	-412
▁कृपा	-413
▁नेत्र	-414
▁क्र	-415
▁स्त	-416
▁उसके	-417
▁हर	-418
ियाँ	-419
▁क्या	-420
▁अव	-421
जिए	-422
पूर्	-423
▁हर्ष	-424
▁आन	-425
▁पुत्र	-426
ंड	-427
ानी	-428
क्त	-429
▁परम	-430
▁भय	-431
र्म	-432
ुद्र	-433
▁स्वाम	-434
जन	-435
ृथ	-436
▁(	-437
▁ओ	-438
▁उठ	-439
िक	-440
▁जाते	-441
▁बात	-442
▁अनु	-443
▁पृथ	-444
▁प्रस	-445
▁आनंद	-446
ाप	-447
▁मनुष	-448
▁देने	-449
▁पृथ्वी	-450
▁स्वामी	-451
▁वहाँ	-452
नुम	-453
▁बार	-454
▁श्र	-455
▁वर्ण	-456
▁हनुम	-457
▁पह	-458
▁कहते	-459
▁धारण	-460
ोह	-461
ंद्रजी	-462
ुरु	-463
▁जहाँ	-464
षण	-465
▁ज्ञ	-466
▁समुद्र	-467
ड़ा	-468
▁नी	-469
▁पास	-470
▁रामचंद्रजी	-471
ात	-472
▁अने	-473
▁पवित्र	-474
भाव	-475
▁तक	-476
▁वेद	-477
▁क्रोध	-478
▁मैंने	-479
▁मेरी	-480
▁होता	-481
ग्	-482
टे	-483
ाणी	-484
▁बना	-485
▁गुरु	-486
▁जाता	-487
ास	-488
▁वर्णन	-489
▁अत्यंत	-490
ुरुष	-491
▁बुद्धि	-492
ड़कर	-493
▁जाए	-494
▁स्त्री	-495
▁थी	-496
▁व्या	-497
ाह्मण	-498
▁जानकर	-499
▁हनुमान्	-500
में	-501
▁या	-502
ाकर	-503
▁लो	-504
▁ब्राह्मण	-505
▁लक्ष्मणजी	-506
▁उसने	-507
▁मनुष्य	-508
▁गा	-509
▁आपके	-510
▁आश	-511
▁दश	-512
▁दूस	-513
▁बै	-514
▁धर्म	-515
ंगल	-516
▁रख	-517
▁कमल	-518
▁राक्ष	-519
▁ते	-520
▁ये	-521
ंध	-522
सार	-523
▁उत्	-524
▁विचार	-525
▁देखा	-526
▁वाणी	-527
▁उत	-528
▁सि	-529
▁प्रिय	-530
ूह	-531
ज्ञा	-532
▁,	-533
▁ती	-534
▁जीव	-535
▁राक्षस	-536
टा	-537
काश	-538
▁समा	-539
▁धनुष	-540
▁वाली	-541
▁देवताओं	-542
ाला	-543
▁जन	-544
न्तु	-545
▁कथा	-546
▁नाथ	-547
▁अपना	-548
▁।	-549
▁हों	-550
▁उनका	-551
▁वै	-552
यों	-553
ेष्ठ	-554
▁किसी	-555
▁क्यों	-556
वे	-557
▁'	-558
▁आए	-559
त्रु	-560
▁निर्	-561
▁पिता	-562
ेंगे	-563
▁कहकर	-564
▁बड़े	-565
्ड	-566
▁उनकी	-567
▁आज्ञा	-568
▁बु	-569
कट	-570
ोर	-571
ष्ट	-572
▁तू	-573
▁पार	-574
ुष्	-575
▁ला	-576
मान	-577
▁आद	-578
▁कारण	-579
▁शत्रु	-580
▁विश्व	-581
▁लग	-582
▁समूह	-583
▁हर्षित	-584
▁प्रसन्न	-585
▁विन	-586
▁नगर	-587
▁वाला	-588
▁ओर	-589
▁मिल	-590
▁यदि	-591
▁पाकर	-592
दी	-593
िन	-594
▁चल	-595
▁अच्छ	-596
्रम	-597
▁पर्व	-598
धा	-599
▁बाल	-600
▁सुना	-601
▁पर्वत	-602
▁द्व	-603
▁होने	-604
वास	-605
▁इन	-606
▁ऐसे	-607
▁पाप	-608
▁बाण	-609
▁बैठ	-610
॥5॥	-611
▁ब्रह्मा	-612
▁संत	-613
▁सूर्	-614
▁भक्ति	-615
न्म	-616
▁अध	-617
▁नाम	-618
▁अत्यन्त	-619
▁भे	-620
▁जाकर	-621
6॥	-622
▁पक्ष	-623
▁ज्ञान	-624
पूर्वक	-625
▁बी	-626
▁सूर्य	-627
्वती	-628
▁जनक	-629
▁नेत्रों	-630
▁क्	-631
▁श्रेष्ठ	-632
▁किस	-633
▁योग	-634
▁शी	-635
▁पी	-636
▁झ	-637
▁शोभा	-638
▁कीजिए	-639
▁कभी	-640
▁बड़ी	-641
बार	-642
र्श	-643
▁फल	-644
ड़ी	-645
▁स्वभाव	-646
▁व्याकुल	-647
▁पक	-648
▁कौन	-649
▁तात	-650
▁आपकी	-651
▁भु	-652
ारों	-653
▁अनेकों	-654
▁छोड़कर	-655
रों	-656
ाया	-657
▁दौ	-658
▁जगत	-659
▁जन्म	-660
देव	-661
▁कै	-662
ुष्ट	-663
▁लगी	-664
▁माया	-665
▁मूर्	-666
▁छो	-667
▁पुरुष	-668
कु	-669
▁अंग	-670
▁आदि	-671
▁होते	-672
ाप्त	-673
▁किए	-674
▁सदा	-675
▁सेना	-676
वि	-677
्न	-678
▁सुग	-679
▁लौ	-680
चे	-681
यी	-682
▁विष	-683
▁नवा	-684
ग्य	-685
्वर	-686
द्धा	-687
▁दिन	-688
▁सकते	-689
▁स्ने	-690
भि	-691
मु	-692
रु	-693
ेष	-694
▁वृ	-695
क्षा	-696
▁कोमल	-697
ाना	-698
▁यो	-699
ीति	-700
▁आकाश	-701
▁बोले	-702
▁उप	-703
▁आदर	-704
▁परि	-705
▁उसका	-706
▁मंगल	-707
ार्	-708
▁कठ	-709
▁पूछ	-710
▁प्राप्त	-711
▁ऋ	-712
ग्नि	-713
▁दशर	-714
▁मुख	-715
▁प्रण	-716
▁परन्तु	-717
▁हरि	-718
▁करना	-719
7॥	-720
▁कृप	-721
▁सुनो	-722
▁तुम्हारे	-723
पन्न	-724
▁चढ़	-725
▁स्नेह	-726
ाद	-727
िल	-728
▁तप	-729
▁बढ़	-730
▁प्राण	-731
▁द्वारा	-732
▁देते	-733
▁होगा	-734
▁उसकी	-735
▁उत्त	-736
▁उसी	-737
▁सोच	-738
ँग	-739
▁ली	-740
▁बुला	-741
▁गुणों	-742
▁जिन्ह	-743
शु	-744
सल	-745
▁काल	-746
▁जाने	-747
▁जानकी	-748
्प	-749
▁पक्षी	-750
▁छा	-751
▁सर	-752
▁हित	-753
▁उनको	-754
▁चाहिए	-755
▁सुनते	-756
▁त्या	-757
▁अग्नि	-758
धाता	-759
▁विधाता	-760
शा	-761
▁डाल	-762
▁मोह	-763
▁अम	-764
नियों	-765
स्त्र	-766
▁त्याग	-767
▁हमारे	-768
र्थ	-769
▁बे	-770
▁सह	-771
▁उत्पन्न	-772
▁पै	-773
▁नाश	-774
▁दुष्ट	-775
णि	-776
योध	-777
▁वर	-778
▁ऐसी	-779
भित	-780
▁स्थ	-781
▁जाती	-782
▁सेवक	-783
धान	-784
वीर	-785
ंत्र	-786
ोड़ों	-787
▁अयोध	-788
▁जिनके	-789
▁क्योंकि	-790
ँस	-791
चित	-792
▁चर	-793
▁जय	-794
▁गिर	-795
▁सेवा	-796
ँति	-797
राम	-798
श्वर	-799
▁आया	-800
▁करो	-801
▁कहता	-802
पि	-803
पति	-804
▁डर	-805
▁रथ	-806
▁सुनिए	-807
▁धीर	-808
▁वीर	-809
▁वृक्ष	-810
▁योद्धा	-811
▁रो	-812
्रीव	-813
▁कहीं	-814
▁सबको	-815
▁अयोध्या	-816
कित	-817
र्शन	-818
▁चला	-819
▁साम	-820
▁जनकजी	-821
तु	-822
ण्ड	-823
▁सौ	-824
▁व्य	-825
▁आपको	-826
▁लोगों	-827
▁भगवान्	-828
8॥	-829
न्य	-830
▁दिए	-831
▁पाल	-832
▁प्य	-833
▁जिससे	-834
▁प्रणाम	-835
पु	-836
ंगा	-837
वाद	-838
ार्थ	-839
▁कर्म	-840
▁स्त्र	-841
▁मुनियों	-842
कमल	-843
▁दोष	-844
▁महा	-845
▁पार्वती	-846
वार	-847
िष्ठ	-848
▁पड़	-849
पट	-850
दान	-851
▁धर	-852
ूँगा	-853
▁लौट	-854
▁समाज	-855
▁मूर्ख	-856
▁संसार	-857
▁वानरों	-858
मी	-859
▁इसी	-860
▁विर	-861
▁रहते	-862
▁सत्य	-863
ृत	-864
लिए	-865
▁कान	-866
▁दर्शन	-867
▁कामदेव	-868
▁वशिष्ठ	-869
▁सुग्रीव	-870
र्ग	-871
हार	-872
ानि	-873
▁चरित्र	-874
न्द	-875
ालु	-876
त्ति	-877
▁फूल	-878
▁भुजा	-879
▁पति	-880
▁कहने	-881
▁छोटे	-882
▁प्रकट	-883
ताप	-884
▁गरु	-885
▁साध	-886
▁स्म	-887
▁पहले	-888
▁विनती	-889
▁!	-890
▁पुल	-891
▁भारी	-892
▁गरुड़	-893
यु	-894
गुण	-895
▁आज	-896
▁जै	-897
▁पत्	-898
▁भक्त	-899
▁निवास	-900
▁स्मरण	-901
ंदे	-902
▁तु	-903
▁भू	-904
चल	-905
्ब	-906
इयों	-907
वान्	-908
▁सुश	-909
▁चारों	-910
▁ब्राह्मणों	-911
वश	-912
▁लं	-913
▁आपका	-914
▁जिसके	-915
▁जानकीजी	-916
ज्	-917
र्य	-918
ुरंत	-919
▁अरे	-920
▁जगत्	-921
▁लेकर	-922
▁प्रीति	-923
▁वशिष्ठजी	-924
ऊँ	-925
▁यश	-926
▁क्ष	-927
▁महि	-928
पूर्ण	-929
▁अंगद	-930
▁सबके	-931
▁सम्म	-932
▁दशरथजी	-933
ाव	-934
▁ठ	-935
▁गु	-936
▁सारी	-937
▁तुरंत	-938
▁भाइयों	-939
9॥	-940
▁गो	-941
▁करें	-942
▁कैसे	-943
▁पूर्	-944
▁चन्द्र	-945
▁चि	-946
▁अभि	-947
▁कुश	-948
▁कैके	-949
▁होती	-950
▁जोड़कर	-951
▁निर्मल	-952
▁तुम्हारा	-953
भू	-954
▁बह	-955
▁कुल	-956
▁दया	-957
▁पहु	-958
▁बाद	-959
▁भाग	-960
▁संदे	-961
▁सुहा	-962
▁कैकेयी	-963
▁रघुवीर	-964
▁करोड़ों	-965
▁यु	-966
▁दूर	-967
▁जिसे	-968
▁मार्	-969
▁कृपालु	-970
वन	-971
▁शु	-972
▁नदी	-973
▁करती	-974
▁यहाँ	-975
▁प्रति	-976
▁राज्य	-977
1॥	-978
यं	-979
ंकर	-980
▁अस	-981
▁आगे	-982
▁स्वयं	-983
0॥	-984
वं	-985
द्य	-986
▁भो	-987
▁सू	-988
▁कुट	-989
▁आपने	-990
▁महान	-991
▁इंद्र	-992
▁जानता	-993
▁जानते	-994
▁देखते	-995
▁शक्ति	-996
▁आशी	-997
▁यही	-998
▁जाना	-999
▁जिनका	-1000
2॥	-1001
3॥	-1002
सु	-1003
▁ट	-1004
ारद	-1005
्याण	-1006
▁गईं	-1007
▁बोल	-1008
▁पड़े	-1009
▁तीनों	-1010
▁कल्याण	-1011
अप	-1012
धि	-1013
▁उपा	-1014
▁सबसे	-1015
▁सर्व	-1016
▁चन्द्रमा	-1017
हर	-1018
▁ऋष	-1019
▁सजा	-1020
▁रक्षा	-1021
▁अनुसार	-1022
▁चरणकमल	-1023
ब्	-1024
▁बर	-1025
▁शील	-1026
▁नवाकर	-1027
▁मार्ग	-1028
▁राक्षसों	-1029
ंस	-1030
ंतु	-1031
र्प	-1032
॥6॥	-1033
▁रस	-1034
▁समझकर	-1035
कल	-1036
तुर	-1037
नान	-1038
▁खा	-1039
▁दा	-1040
▁बन	-1041
▁रात	-1042
▁इसलिए	-1043
ूट	-1044
योग	-1045
ाली	-1046
▁आँ	-1047
▁खो	-1048
ोड़े	-1049
▁गति	-1050
▁त्र	-1051
▁शुभ	-1052
▁अधिक	-1053
▁नारद	-1054
▁सुशो	-1055
▁हाथी	-1056
▁प्रभो	-1057
▁योग्य	-1058
▁विशेष	-1059
▁स्नान	-1060
▁पुलकित	-1061
वी	-1062
▁ढ	-1063
कुम	-1064
मुख	-1065
▁आकर	-1066
▁मंद	-1067
▁प्रताप	-1068
ंह	-1069
जे	-1070
▁अत	-1071
▁मत	-1072
भीषण	-1073
▁कही	-1074
▁सुम	-1075
राग्य	-1076
▁अनेक	-1077
▁कुशल	-1078
▁पालन	-1079
▁विभीषण	-1080
▁सुशोभित	-1081
ँव	-1082
चर	-1083
▁बस	-1084
▁सख	-1085
▁समस्त	-1086
वाह	-1087
र्वाद	-1088
▁कठोर	-1089
▁पाया	-1090
▁भोजन	-1091
▁माँग	-1092
▁विश्वास	-1093
▁आशीर्वाद	-1094
ूं	-1095
ग्न	-1096
▁अग	-1097
▁मो	-1098
▁धाम	-1099
▁बता	-1100
▁मूल	-1101
▁सकती	-1102
▁सारा	-1103
▁संदेह	-1104
▁स्थान	-1105
▁अमृत	-1106
▁धीरज	-1107
▁मारे	-1108
▁लगीं	-1109
▁सारे	-1110
▁अच्छा	-1111
▁दीजिए	-1112
▁युद्ध	-1113
ंख	-1114
▁मद	-1115
▁हि	-1116
▁हँस	-1117
▁डाला	-1118
▁नीति	-1119
▁हमें	-1120
▁स्वर्ग	-1121
▁वैराग्य	-1122
ेत	-1123
▁रच	-1124
▁शा	-1125
▁तपस	-1126
▁चतुर	-1127
▁दूसरे	-1128
▁पकड़कर	-1129
वल	-1130
रूप	-1131
▁देता	-1132
▁पकड़	-1133
▁सामने	-1134
ंच	-1135
च्च	-1136
राह	-1137
▁कपट	-1138
▁दीन	-1139
▁भला	-1140
▁शोक	-1141
सल्या	-1142
▁नष्ट	-1143
▁मनोह	-1144
▁उत्तम	-1145
▁देखने	-1146
▁सिद्ध	-1147
▁तुम्हें	-1148
▁स्त्रियाँ	-1149
दार	-1150
ानक	-1151
▁इसे	-1152
▁करे	-1153
▁चली	-1154
▁मंत	-1155
पत्ति	-1156
पुरुष	-1157
▁इच्छ	-1158
▁उपाय	-1159
▁मनोहर	-1160
▁मंत्री	-1161
▁कौसल्या	-1162
▁ब्रह्माजी	-1163
भर	-1164
▁कार	-1165
▁नित	-1166
▁बीत	-1167
द्यपि	-1168
▁उसको	-1169
▁दिखा	-1170
▁हाथों	-1171
▁यद्यपि	-1172
▁गरुड़जी	-1173
▁जिन्होंने	-1174
ईं	-1175
किन	-1176
▁रण	-1177
▁आँख	-1178
▁ऋषि	-1179
▁कहाँ	-1180
▁प्रश	-1181
▁लेते	-1182
▁कमलों	-1183
▁तुमने	-1184
▁भयानक	-1185
हे	-1186
ुक	-1187
दास	-1188
▁मर	-1189
ड़ों	-1190
▁पुण	-1191
▁शरण	-1192
▁सकु	-1193
▁कहिए	-1194
▁बड़ाई	-1195
▁तुम्हारी	-1196
ब्द	-1197
▁इत	-1198
तहाँ	-1199
▁उठा	-1200
▁कुम	-1201
▁गंगा	-1202
▁पूजा	-1203
▁जिनकी	-1204
▁चरणकमलों	-1205
पक	-1206
यक	-1207
व्य	-1208
▁वा	-1209
▁तुझ	-1210
▁तुल	-1211
▁परा	-1212
▁बीच	-1213
▁लोक	-1214
▁हूं	-1215
▁दुर्	-1216
▁यज्ञ	-1217
▁शब्द	-1218
णी	-1219
धर	-1220
शि	-1221
्मी	-1222
▁जीत	-1223
▁दिख	-1224
▁वंद	-1225
▁सती	-1226
▁कल्प	-1227
▁पहुँ	-1228
▁बरसा	-1229
▁रहने	-1230
ुग	-1231
जार	-1232
तार	-1233
देश	-1234
्रह	-1235
▁कम	-1236
▁रखा	-1237
▁जीवन	-1238
▁पुरा	-1239
▁वर्ष	-1240
बुद्धि	-1241
▁दुःखी	-1242
▁नित्य	-1243
▁इन्द्र	-1244
▁रघुकुल	-1245
।।	-1246
कारी	-1247
▁दूत	-1248
▁निर	-1249
▁नीच	-1250
▁उनसे	-1251
▁भरकर	-1252
▁रहता	-1253
▁सराह	-1254
▁लेकिन	-1255
▁विशाल	-1256
▁सकुचा	-1257
▁गुरुजी	-1258
▁वस्त्र	-1259
▁आदरपूर्वक	-1260
शी	-1261
ेल	-1262
्च	-1263
प्र	-1264
▁भज	-1265
▁आते	-1266
▁सभा	-1267
▁अपार	-1268
▁रास्	-1269
ामित्र	-1270
▁घोड़े	-1271
▁दूसरा	-1272
▁भाँति	-1273
▁मित्र	-1274
॥4	-1275
त्म	-1276
षाद	-1277
▁पे	-1278
ृष्ट	-1279
▁काट	-1280
▁भजन	-1281
▁सहा	-1282
स्कार	-1283
▁जैसा	-1284
▁वैसे	-1285
▁सुखी	-1286
▁सम्मान	-1287
▁विश्वामित्र	-1288
सर	-1289
ूर	-1290
प्न	-1291
▁नर	-1292
▁मध	-1293
त्रि	-1294
▁तेज	-1295
▁महल	-1296
ज्ञान	-1297
▁स्वा	-1298
▁महिमा	-1299
▁वेदों	-1300
▁स्वप्न	-1301
टी	-1302
मय	-1303
वर	-1304
▁ई	-1305
ुति	-1306
▁अल	-1307
▁चौ	-1308
▁मृ	-1309
▁कानों	-1310
▁चंद्र	-1311
▁निषाद	-1312
▁लोकों	-1313
ँप	-1314
पर	-1315
▁कहे	-1316
▁रंग	-1317
▁वेष	-1318
▁त्रि	-1319
▁धन्य	-1320
▁धरकर	-1321
▁बंदर	-1322
▁भ्रम	-1323
▁अच्छी	-1324
▁वंदना	-1325
▁आनंदित	-1326
▁जिन्हें	-1327
भु	-1328
मि	-1329
द्व	-1330
स्थ	-1331
▁चम	-1332
▁हा	-1333
▁तुलसी	-1334
▁परंतु	-1335
▁ज्ञानी	-1336
▁प्रभाव	-1337
गत	-1338
मणि	-1339
ष्ण	-1340
▁आग	-1341
▁जड़	-1342
▁ध्व	-1343
▁पहा	-1344
▁भूल	-1345
▁लाल	-1346
▁लंका	-1347
▁पूर्ण	-1348
▁गंगाजी	-1349
▁भुजाओं	-1350
▁सराहना	-1351
▁चंद्रमा	-1352
ँह	-1353
ोक	-1354
ंसा	-1355
▁आस	-1356
▁खु	-1357
▁छि	-1358
▁नम	-1359
▁भौ	-1360
अपने	-1361
िद्ध	-1362
▁जाओ	-1363
▁इससे	-1364
▁कठिन	-1365
▁बालि	-1366
▁इसमें	-1367
▁दौड़े	-1368
▁विवाह	-1369
▁करेंगे	-1370
ंतर	-1371
कोच	-1372
ालू	-1373
▁चु	-1374
▁जप	-1375
ियुग	-1376
▁अंध	-1377
▁थीं	-1378
▁दशा	-1379
▁दान	-1380
▁दास	-1381
▁मिले	-1382
▁साधु	-1383
▁सुहाव	-1384
▁कलियुग	-1385
▁पुरुषों	-1386
गण	-1387
बल	-1388
यण	-1389
काल	-1390
घ्न	-1391
लों	-1392
▁ता	-1393
▁रु	-1394
▁बलि	-1395
▁मेघ	-1396
▁शेष	-1397
रामजी	-1398
▁रहती	-1399
▁सिंह	-1400
▁आश्रम	-1401
▁उत्तर	-1402
▁जाएगा	-1403
▁संकोच	-1404
लभ	-1405
॥10	-1406
॥11	-1407
॥7॥	-1408
▁झु	-1409
▁कवि	-1410
▁पवन	-1411
▁सरस	-1412
▁चाहे	-1413
▁पुराण	-1414
▁किन्तु	-1415
▁नारदजी	-1416
▁पार्वतीजी	-1417
इए	-1418
तल	-1419
ूठ	-1420
ूब	-1421
▁ऊ	-1422
कूल	-1423
धार	-1424
▁पशु	-1425
▁जाएँ	-1426
▁दिशा	-1427
▁मग्न	-1428
▁मारा	-1429
▁लीला	-1430
▁सोने	-1431
▁हरने	-1432
▁इच्छा	-1433
▁कार्य	-1434
▁चाहते	-1435
▁जिसका	-1436
▁विषाद	-1437
▁प्यारे	-1438
▁प्रकाश	-1439
ँध	-1440
जान	-1441
त्त	-1442
राध	-1443
▁गह	-1444
▁एवं	-1445
▁जला	-1446
▁निय	-1447
▁मिट	-1448
▁करनी	-1449
▁केवल	-1450
▁विनय	-1451
▁पापों	-1452
▁समझाया	-1453
बर	-1454
बा	-1455
मन	-1456
वेक	-1457
पुरी	-1458
ष्णु	-1459
▁चित	-1460
▁॥2॥	-1461
भाँति	-1462
▁पाते	-1463
▁बालक	-1464
▁मुँह	-1465
▁भक्तों	-1466
▁राजकुम	-1467
▁समझाकर	-1468
▁सरस्वती	-1469
ंक	-1470
तर	-1471
दन	-1472
ज्ज	-1473
म्ब	-1474
ाले	-1475
ूढ़	-1476
▁कहो	-1477
▁लाभ	-1478
▁संग	-1479
▁जाति	-1480
▁पानी	-1481
▁शंकर	-1482
▁जिसने	-1483
▁वचनों	-1484
▁विष्णु	-1485
फल	-1486
प्त	-1487
िनी	-1488
त्यु	-1489
▁पहच	-1490
▁॥3॥	-1491
▁अनुप	-1492
▁भेजा	-1493
▁राजाओं	-1494
▁प्रशंसा	-1495
ोष	-1496
॥6	-1497
▁दस	-1498
▁बख	-1499
ाराज	-1500
▁अवध	-1501
▁खान	-1502
▁चमक	-1503
▁भाव	-1504
▁॥4॥	-1505
▁बोली	-1506
▁रहित	-1507
ानिधान	-1508
▁हँसकर	-1509
▁तुलसीदास	-1510
▁पक्षीराज	-1511
दू	-1512
्ण	-1513
॥5	-1514
▁"	-1515
वेश	-1516
▁दै	-1517
▁मण	-1518
▁वज	-1519
?॥4॥	-1520
त्मा	-1521
न्या	-1522
देवजी	-1523
▁उससे	-1524
▁करूँ	-1525
▁झुंड	-1526
▁तेरा	-1527
▁लगते	-1528
▁मुझसे	-1529
▁जिसमें	-1530
▁रास्ते	-1531
॥9	-1532
▁पुर	-1533
▁माँ	-1534
▁लड़	-1535
▁श्या	-1536
▁सर्प	-1537
▁भाग्य	-1538
बि	-1539
ेर	-1540
नाथ	-1541
श्य	-1542
▁लि	-1543
-॥3॥	-1544
पिता	-1545
वानी	-1546
▁भेज	-1547
▁भेद	-1548
▁रोग	-1549
ृष्टि	-1550
▁करुण	-1551
▁छाती	-1552
▁तेरे	-1553
▁मुस्	-1554
▁रानी	-1555
▁रीति	-1556
▁अच्छे	-1557
▁अनुपम	-1558
▁चित्त	-1559
▁नवाया	-1560
▁लगाकर	-1561
▁सुजान	-1562
▁दूसरों	-1563
▁महाराज	-1564
▁विचारकर	-1565
▁प्रसिद्ध	-1566
॥8	-1567
भीत	-1568
श्र	-1569
्रत	-1570
॥12	-1571
▁गी	-1572
भूषण	-1573
▁खेल	-1574
▁तीन	-1575
▁पीछ	-1576
▁सार	-1577
न्हीं	-1578
▁इसके	-1579
▁तुझे	-1580
▁नाना	-1581
▁बारा	-1582
▁विरह	-1583
▁पुकार	-1584
▁पुण्य	-1585
▁भयभीत	-1586
▁समाचार	-1587
▁प्राणों	-1588
जय	-1589
यश	-1590
ौर	-1591
हास	-1592
िला	-1593
▁पद	-1594
▁बज	-1595
▁भव	-1596
्राम	-1597
▁अंत	-1598
▁उठे	-1599
▁दें	-1600
▁भले	-1601
▁मणि	-1602
▁विच	-1603
▁सम्	-1604
▁जंगल	-1605
▁दशरथ	-1606
▁प्रच	-1607
▁बखान	-1608
▁बैठे	-1609
▁कुटिल	-1610
▁तुमको	-1611
▁पत्नी	-1612
▁पहाड़	-1613
▁मारकर	-1614
▁श्याम	-1615
▁सुनने	-1616
▁हमारी	-1617
खे	-1618
सम	-1619
ेश	-1620
्ल	-1621
पुर	-1622
-॥2॥	-1623
लाकर	-1624
▁सखा	-1625
युक्त	-1626
▁ताला	-1627
▁देकर	-1628
▁मस्त	-1629
▁वज्र	-1630
▁शीतल	-1631
▁साँप	-1632
▁उनमें	-1633
▁बनाकर	-1634
▁विवेक	-1635
▁मणियों	-1636
▁स्वाभाव	-1637
▁विश्वामित्रजी	-1638
ंज	-1639
रि	-1640
ंगे	-1641
ागत	-1642
िरा	-1643
▁छल	-1644
▁फै	-1645
▁मल	-1646
▁हठ	-1647
?॥2॥	-1648
▁चार	-1649
▁जल्	-1650
▁भरे	-1651
▁भोग	-1652
▁भौं	-1653
▁सेव	-1654
▁उचित	-1655
▁खड़े	-1656
▁पड़ा	-1657
▁बनाए	-1658
▁लेने	-1659
▁समेत	-1660
▁ईश्वर	-1661
▁चाहता	-1662
▁दिखाई	-1663
▁सुनाई	-1664
▁तपस्वी	-1665
▁शरणागत	-1666
▁महादेवजी	-1667
▁स्वाभाविक	-1668
बू	-1669
नीय	-1670
कुरा	-1671
रहित	-1672
सागर	-1673
▁अतः	-1674
▁खोज	-1675
▁द्र	-1676
▁पैर	-1677
▁क्षण	-1678
▁चलने	-1679
▁तोड़	-1680
▁निकल	-1681
▁तालाब	-1682
▁पहचान	-1683
▁मंत्र	-1684
▁मिलकर	-1685
▁अभिमान	-1686
▁प्रवेश	-1687
▁बलवान्	-1688
▁कृपानिधान	-1689
ंभ	-1690
हल	-1691
ेक	-1692
▁आई	-1693
▁आर	-1694
▁तै	-1695
▁पछ	-1696
▁मछ	-1697
-॥1॥	-1698
क्षक	-1699
ुम्ब	-1700
्यान	-1701
▁उमा	-1702
▁ऋतु	-1703
▁गान	-1704
▁नाग	-1705
▁नियम	-1706
▁मधुर	-1707
▁रचना	-1708
▁राशि	-1709
▁आँखों	-1710
▁तीर्थ	-1711
▁निरंतर	-1712
▁स्तुति	-1713
▁कुटुम्ब	-1714
▁मुस्कुरा	-1715
लक	-1716
ीन	-1717
घ्र	-1718
पाल	-1719
स्तु	-1720
ुण्ड	-1721
▁गर्	-1722
▁बच्	-1723
▁शाप	-1724
▁इन्ह	-1725
▁दण्ड	-1726
▁रखकर	-1727
▁लगता	-1728
▁सहाय	-1729
▁सीमा	-1730
▁होगी	-1731
▁मस्तक	-1732
▁वर्षा	-1733
▁संतों	-1734
▁उन्हीं	-1735
▁परिवार	-1736
▁बुलाकर	-1737
▁बुलाया	-1738
▁व्यर्थ	-1739
▁शंकरजी	-1740
ंति	-1741
कुन	-1742
न्ध	-1743
हीन	-1744
ोवर	-1745
▁गण	-1746
▁भि	-1747
▁सच	-1748
शाली	-1749
▁अलग	-1750
▁जटा	-1751
▁झूठ	-1752
▁निश	-1753
▁याद	-1754
▁सखी	-1755
▁हवा	-1756
▁पीछे	-1757
▁करेगा	-1758
▁मुझको	-1759
▁शीघ्र	-1760
▁शत्रुघ्न	-1761
▁कौसल्याजी	-1762
▁स्त्रियों	-1763
बाण	-1764
हां	-1765
ेरा	-1766
▁उल	-1767
▁कव	-1768
▁गर	-1769
?॥1॥	-1770
न्तर	-1771
र्या	-1772
▁अवि	-1773
▁छबि	-1774
▁नगा	-1775
▁लोभ	-1776
▁जैसी	-1777
▁दौड़	-1778
▁नीचे	-1779
▁उपदेश	-1780
▁जिसकी	-1781
▁भवानी	-1782
▁शोभित	-1783
▁अनुकूल	-1784
▁लक्ष्मी	-1785
▁सुमंत्र	-1786
वट	-1787
याँ	-1788
लास	-1789
िरो	-1790
▁दृ	-1791
श्रम	-1792
▁पता	-1793
▁बहा	-1794
▁मंड	-1795
▁सहज	-1796
▁स्प	-1797
▁गाते	-1798
▁छोटा	-1799
▁व्रत	-1800
▁सम्प	-1801
▁अवतार	-1802
▁उत्सा	-1803
▁उसमें	-1804
▁सेवकों	-1805
▁पुत्रों	-1806
▁विपत्ति	-1807
टक	-1808
वृ	-1809
लेश	-1810
▁मज	-1811
,॥1॥	-1812
▁आता	-1813
▁उतर	-1814
▁रान	-1815
▁॥1॥	-1816
▁अन्य	-1817
▁देती	-1818
▁पैदा	-1819
▁मुनी	-1820
▁हजार	-1821
▁अपराध	-1822
▁अवश्य	-1823
▁दिखला	-1824
▁महान्	-1825
▁वियोग	-1826
▁सुखों	-1827
▁निषादराज	-1828
कस	-1829
तम	-1830
बी	-1831
त्स	-1832
बंध	-1833
मता	-1834
लाप	-1835
वंश	-1836
वती	-1837
▁छु	-1838
▁री	-1839
,॥3॥	-1840
ंडार	-1841
▁गाय	-1842
▁दूध	-1843
▁हिर	-1844
पुत्र	-1845
▁आदमी	-1846
▁पाता	-1847
▁पूरा	-1848
▁मानस	-1849
▁विदा	-1850
िरोमणि	-1851
▁आभूषण	-1852
▁कथाएँ	-1853
▁भंडार	-1854
▁मानकर	-1855
▁मारने	-1856
▁पिताजी	-1857
लु	-1858
ोद	-1859
्ठ	-1860
▁धो	-1861
▁शर	-1862
▁हँ	-1863
वाले	-1864
▁नाच	-1865
▁कहना	-1866
▁सबका	-1867
▁जल्दी	-1868
▁ध्यान	-1869
▁प्रजा	-1870
▁भयंकर	-1871
▁शेषजी	-1872
▁सतीजी	-1873
▁करूँगा	-1874
▁शिक्षा	-1875
▁नमस्कार	-1876
दल	-1877
म्	-1878
लोक	-1879
▁नद	-1880
▁लल	-1881
वासी	-1882
▁अति	-1883
▁आसन	-1884
▁तदन	-1885
▁तैय	-1886
▁शिव	-1887
▁हंस	-1888
▁इनके	-1889
▁ग्रह	-1890
▁दृढ़	-1891
▁निंद	-1892
▁पछता	-1893
▁बाहर	-1894
▁बैठा	-1895
▁वहीं	-1896
▁होना	-1897
▁दूसरी	-1898
▁ध्वनि	-1899
▁मोहित	-1900
▁वरदान	-1901
▁विमान	-1902
▁विरोध	-1903
▁दुर्लभ	-1904
▁परिश्रम	-1905
▁प्रभुता	-1906
▁विचित्र	-1907
▁विज्ञान	-1908
▁सुंदरता	-1909
▁मनुष्यों	-1910
▁सम्पूर्ण	-1911
ून	-1912
नाद	-1913
सरे	-1914
▁आच	-1915
▁वध	-1916
र्ति	-1917
▁उड़	-1918
▁ऊपर	-1919
▁देह	-1920
▁सफल	-1921
स्तार	-1922
्चर्य	-1923
▁जाऊँ	-1924
▁तरकस	-1925
▁तूने	-1926
▁देखे	-1927
▁बाँध	-1928
▁मनोर	-1929
▁लेता	-1930
▁विषय	-1931
▁कन्या	-1932
▁तुमसे	-1933
▁बनाया	-1934
▁महिला	-1935
▁मिलने	-1936
▁राजन्	-1937
▁होंगे	-1938
▁उत्साह	-1939
▁रात्रि	-1940
▁स्वरूप	-1941
▁आश्चर्य	-1942
▁व्यक्ति	-1943
▁पक्षियों	-1944
▁बुद्धिमान	-1945
▁शक्तिशाली	-1946
एक	-1947
पन	-1948
भव	-1949
ीशु	-1950
॥8॥	-1951
▁कई	-1952
▁चक	-1953
▁धु	-1954
निया	-1955
स्था	-1956
▁इधर	-1957
▁गीत	-1958
▁धूल	-1959
शुण्ड	-1960
▁तेरी	-1961
▁निष्	-1962
▁यीशु	-1963
शुण्डि	-1964
▁उठाकर	-1965
▁क्षमा	-1966
▁जिसको	-1967
▁बातें	-1968
▁बारात	-1969
▁वस्तु	-1970
▁माताएँ	-1971
▁मृत्यु	-1972
▁समूहों	-1973
▁सहायता	-1974
चि	-1975
ाज	-1976
॥7	-1977
पुण	-1978
बूत	-1979
वली	-1980
िति	-1981
्वल	-1982
▁उम	-1983
▁खर	-1984
▁टे	-1985
▁तृ	-1986
-॥4॥	-1987
▁अभा	-1988
▁जमी	-1989
▁ताक	-1990
▁देश	-1991
▁बचा	-1992
▁वैर	-1993
▁सके	-1994
▁अनुम	-1995
▁आपसे	-1996
▁कहती	-1997
▁चलते	-1998
▁परशु	-1999
▁समझा	-2000
▁हानि	-2001
▁क्लेश	-2002
▁जाम्ब	-2003
▁तथापि	-2004
▁बाणों	-2005
▁मनोरथ	-2006
▁नगाड़े	-2007
▁प्रत्य	-2008
▁सुनाया	-2009
▁तदनन्तर	-2010
▁त्यागकर	-2011
▁पर्वतों	-2012
▁विस्तार	-2013
▁सुहावनी	-2014
▁सम्पत्ति	-2015
ंश	-2016
थी	-2017
ीं	-2018
काम	-2019
श्व	-2020
ुरे	-2021
▁घु	-2022
▁नए	-2023
▁पि	-2024
▁मी	-2025
▁मौ	-2026
▁रे	-2027
▁हथ	-2028
,॥2॥	-2029
ज्जन	-2030
▁बजा	-2031
▁रोक	-2032
▁सरल	-2033
▁इतने	-2034
▁छाया	-2035
▁जमीन	-2036
▁बुरा	-2037
▁बोला	-2038
▁ममता	-2039
▁लाकर	-2040
▁शकुन	-2041
▁करुणा	-2042
▁छुड़ा	-2043
▁जानने	-2044
▁जिनको	-2045
▁निंदा	-2046
▁प्रबल	-2047
▁संतोष	-2048
▁सजाकर	-2049
▁सिरों	-2050
श्रेष्ठ	-2051
▁अंधकार	-2052
▁चढ़ाकर	-2053
▁निर्गुण	-2054
▁शिरोमणि	-2055
▁मुनीश्वर	-2056
▁विभीषणजी	-2057
धी	-2058
धे	-2059
बे	-2060
धाम	-2061
ध्य	-2062
वाज	-2063
ेंट	-2064
▁छू	-2065
द्या	-2066
स्वर	-2067
▁अभी	-2068
▁काक	-2069
▁गिन	-2070
▁भरा	-2071
▁हार	-2072
वृक्ष	-2073
स्त्य	-2074
▁इसका	-2075
▁उठकर	-2076
▁गिरा	-2077
▁चलीं	-2078
▁छिपा	-2079
▁देखो	-2080
▁पूछा	-2081
▁पूरी	-2082
▁भूषण	-2083
▁लगती	-2084
▁वैसा	-2085
▁सगुण	-2086
स्वरूप	-2087
▁देखता	-2088
▁पीड़ा	-2089
▁फूलों	-2090
▁मात्र	-2091
▁बलिदान	-2092
▁मूर्ति	-2093
▁मेघनाद	-2094
▁वाल्मी	-2095
▁वृक्षों	-2096
▁संपूर्ण	-2097
▁योद्धाओं	-2098
ँच	-2099
गु	-2100
पी	-2101
ोप	-2102
टों	-2103
र्त	-2104
स्य	-2105
▁चे	-2106
▁तल	-2107
▁धै	-2108
▁पल	-2109
▁बत	-2110
जनों	-2111
लक्ष	-2112
▁आती	-2113
▁खबर	-2114
▁छूट	-2115
▁बंध	-2116
▁रीछ	-2117
▁सीख	-2118
दूसरे	-2119
▁अभिम	-2120
▁अवसर	-2121
▁आचरण	-2122
▁कोसल	-2123
▁दक्ष	-2124
▁धरती	-2125
▁पत्थ	-2126
▁पुष्	-2127
▁मिला	-2128
▁हुईं	-2129
▁धैर्य	-2130
▁विमुख	-2131
▁सुगंध	-2132
▁इन्हें	-2133
▁कीर्ति	-2134
▁प्यारी	-2135
▁माताओं	-2136
▁स्पर्श	-2137
▁जाम्बवान्	-2138
▁मंत्रियों	-2139
▁तुलसीदासजी	-2140
ँत	-2141
छा	-2142
यल	-2143
॥14	-2144
▁यम	-2145
▁रज	-2146
!॥2॥	-2147
साईं	-2148
स्ती	-2149
ुलवा	-2150
▁गाल	-2151
▁नील	-2152
▁पाए	-2153
▁बने	-2154
▁भली	-2155
▁मीठ	-2156
▁सच्	-2157
▁समी	-2158
▁उदार	-2159
▁सबने	-2160
▁दोषों	-2161
▁पूछते	-2162
▁बच्चे	-2163
▁मजबूत	-2164
▁लीजिए	-2165
▁विलाप	-2166
▁शुद्ध	-2167
▁सरोवर	-2168
▁हमारा	-2169
▁घोड़ों	-2170
▁दिशाओं	-2171
▁मंगलों	-2172
▁प्रचण्ड	-2173
▁राजकुमार	-2174
▁कल्पवृक्ष	-2175
▁परशुरामजी	-2176
पे	-2177
वत	-2178
ील	-2179
दिन	-2180
रित	-2181
वें	-2182
सुर	-2183
स्म	-2184
ेरे	-2185
▁अज	-2186
▁अधि	-2187
▁आशा	-2188
▁गरज	-2189
▁गले	-2190
▁घोर	-2191
▁जित	-2192
▁डूब	-2193
▁दूँ	-2194
▁पंख	-2195
▁मिथ	-2196
▁थोड़	-2197
▁निकट	-2198
▁मारी	-2199
▁मुकु	-2200
▁समीप	-2201
▁सवार	-2202
▁ग्रहण	-2203
▁चढ़कर	-2204
▁चित्र	-2205
▁तैयार	-2206
▁दिनों	-2207
▁पड़ता	-2208
▁रक्षक	-2209
▁दुनिया	-2210
▁देवराज	-2211
▁विश्राम	-2212
▁संपत्ति	-2213
▁अयोध्यापुरी	-2214
ची	-2215
ूद	-2216
ूम	-2217
ेद	-2218
ंदन	-2219
खकर	-2220
हरा	-2221
ुओं	-2222
▁तम	-2223
कर्ण	-2224
ग्रह	-2225
ताओं	-2226
बड़े	-2227
भूमि	-2228
▁आने	-2229
▁आपस	-2230
▁दंड	-2231
▁दरि	-2232
▁फें	-2233
▁भार	-2234
▁सोम	-2235
▁आवाज	-2236
▁इतना	-2237
▁किरण	-2238
▁निरा	-2239
▁पड़ी	-2240
▁भलाई	-2241
▁भेंट	-2242
▁माना	-2243
▁सुयश	-2244
▁जीवित	-2245
▁निपुण	-2246
▁विराज	-2247
▁भुजाएँ	-2248
▁स्वार्थ	-2249
▁सूर्यकुल	-2250
▁प्रेमपूर्वक	-2251
),	-2252
यन	-2253
थवा	-2254
रात	-2255
हाज	-2256
▁घा	-2257
▁दल	-2258
▁नख	-2259
क्रम	-2260
दायक	-2261
▁अके	-2262
▁अधम	-2263
▁आँस	-2264
▁जोर	-2265
▁तिल	-2266
▁नरक	-2267
▁पाई	-2268
▁मना	-2269
▁मृग	-2270
▁रुख	-2271
▁वास	-2272
▁शूर	-2273
▁सद्	-2274
▁अथवा	-2275
▁उज्ज	-2276
▁जहाज	-2277
▁दाँत	-2278
▁पैदल	-2279
▁मलिन	-2280
▁लेती	-2281
▁सच्च	-2282
▁दौड़ा	-2283
▁पड़ते	-2284
▁बोलीं	-2285
▁युक्त	-2286
▁रहस्य	-2287
▁सारथी	-2288
▁अज्ञान	-2289
▁दृष्टि	-2290
▁पहुँचा	-2291
▁हनुमान	-2292
▁अभिमानी	-2293
▁मुनिराज	-2294
▁हितकारी	-2295
▁वाल्मीकि	-2296
दु	-2297
ाई	-2298
ंता	-2299
गान	-2300
त्व	-2301
देह	-2302
र्क	-2303
षेक	-2304
िणी	-2305
॥13	-2306
॥17	-2307
॥19	-2308
॥23	-2309
॥29	-2310
▁अर	-2311
▁कट	-2312
▁सज	-2313
न्ता	-2314
▁कमर	-2315
▁कृत	-2316
▁खूब	-2317
▁ग्र	-2318
▁चको	-2319
▁चरा	-2320
▁जाग	-2321
▁जीभ	-2322
▁तीर	-2323
▁परे	-2324
▁रखे	-2325
▁साज	-2326
गुणों	-2327
▁अतुल	-2328
▁गाँव	-2329
▁देना	-2330
▁बादल	-2331
▁बारे	-2332
▁माला	-2333
▁योगी	-2334
▁वायु	-2335
▁हमने	-2336
▁कविता	-2337
▁जाएगी	-2338
▁तलवार	-2339
▁भौंरे	-2340
▁मोक्ष	-2341
▁गोसाईं	-2342
▁चिन्ता	-2343
▁पहुँचे	-2344
भुशुण्डि	-2345
▁अगस्त्य	-2346
▁दुष्टों	-2347
▁परमार्थ	-2348
▁शास्त्र	-2349
दह	-2350
सह	-2351
ाँ	-2352
ाड़	-2353
॥15	-2354
॥30	-2355
▁कप	-2356
▁गौ	-2357
▁ची	-2358
▁जु	-2359
!॥3॥	-2360
?॥3॥	-2361
ंख्य	-2362
अपनी	-2363
ध्यम	-2364
▁अचल	-2365
▁कुब	-2366
▁गौर	-2367
▁जगह	-2368
▁टुक	-2369
▁तभी	-2370
▁बिल	-2371
▁लजा	-2372
▁वाप	-2373
▁सूख	-2374
त्संग	-2375
द्वाज	-2376
▁उच्च	-2377
▁टेढ़	-2378
▁प्या	-2379
▁भीतर	-2380
▁लड़ा	-2381
▁लौटा	-2382
▁संकट	-2383
▁आत्मा	-2384
▁किंतु	-2385
▁जीवों	-2386
▁निकाल	-2387
▁पत्ते	-2388
▁पत्थर	-2389
▁मिलते	-2390
लक्ष्मण	-2391
▁अनुमान	-2392
▁प्रसंग	-2393
▁बादलों	-2394
▁भवसागर	-2395
▁माध्यम	-2396
▁शब्दों	-2397
▁सत्संग	-2398
▁उज्ज्वल	-2399
▁क्रोधित	-2400
▁भरद्वाज	-2401
▁सर्वज्ञ	-2402
▁काकभुशुण्डि	-2403
भय	-2404
त्न	-2405
नाम	-2406
बों	-2407
सुन	-2408
ानु	-2409
॥16	-2410
॥20	-2411
▁अश	-2412
▁ऊँ	-2413
स्तव	-2414
▁उखा	-2415
▁उदय	-2416
▁उदा	-2417
▁किन	-2418
▁गोद	-2419
▁चाल	-2420
▁नाव	-2421
▁बेच	-2422
▁भरी	-2423
▁शान	-2424
▁सरी	-2425
▁साव	-2426
भक्ति	-2427
भिन्न	-2428
लियाँ	-2429
▁क्षे	-2430
▁गहने	-2431
▁जीते	-2432
▁तिलक	-2433
▁देखी	-2434
▁धारा	-2435
▁पापी	-2436
▁बनता	-2437
▁भजते	-2438
▁भूमि	-2439
▁मंडप	-2440
▁रखता	-2441
▁रखते	-2442
▁रहना	-2443
▁रुचि	-2444
▁विचर	-2445
▁विधि	-2446
र्यादा	-2447
▁चराचर	-2448
▁दूँगा	-2449
▁देंगे	-2450
▁दैत्य	-2451
▁बढ़कर	-2452
▁बुलवा	-2453
▁बोलने	-2454
▁शांति	-2455
▁जाएँगे	-2456
▁दरिद्र	-2457
▁शूरवीर	-2458
▁सखियाँ	-2459
▁रानियाँ	-2460
▁सरस्वतीजी	-2461
)।	-2462
तन	-2463
दर	-2464
लग	-2465
सि	-2466
हो	-2467
िस	-2468
णाम	-2469
थाह	-2470
थिल	-2471
धिक	-2472
धीर	-2473
मयी	-2474
र्द	-2475
ातः	-2476
ृंग	-2477
॥18	-2478
॥22	-2479
॥28	-2480
▁चो	-2481
▁तट	-2482
▁सै	-2483
!॥4॥	-2484
तिलक	-2485
नाजी	-2486
भालू	-2487
माचल	-2488
ानंद	-2489
ार्ग	-2490
्रता	-2491
▁गुह	-2492
▁चीज	-2493
▁दूल	-2494
▁देर	-2495
▁नाक	-2496
▁पढ़	-2497
▁बरा	-2498
▁बिज	-2499
▁युग	-2500
▁विप	-2501
▁सनी	-2502
भाग्य	-2503
स्थान	-2504
ेश्वर	-2505
▁अथाह	-2506
▁अवधि	-2507
▁असुर	-2508
▁खिला	-2509
▁दसों	-2510
▁दासी	-2511
▁पहने	-2512
▁पेड़	-2513
▁बढ़ा	-2514
▁बतला	-2515
▁बूढ़	-2516
▁राजम	-2517
▁वापस	-2518
▁विकल	-2519
▁सबकी	-2520
▁अंगों	-2521
▁आँखें	-2522
▁चिंता	-2523
▁द्रोह	-2524
▁ध्वजा	-2525
▁पुष्प	-2526
▁मुक्त	-2527
▁ललकार	-2528
▁शिथिल	-2529
▁संहार	-2530
▁अनुचित	-2531
▁असंख्य	-2532
▁परिणाम	-2533
▁प्रातः	-2534
▁प्रेमी	-2535
▁शानदार	-2536
▁हिमाचल	-2537
▁छुड़ाने	-2538
▁पुराणों	-2539
ंथ	-2540
एव	-2541
घर	-2542
फा	-2543
िश	-2544
ंचा	-2545
कान	-2546
खंड	-2547
ध्व	-2548
मुच	-2549
रणा	-2550
राई	-2551
लाह	-2552
्रा	-2553
॥21	-2554
॥31	-2555
॥32	-2556
▁लु	-2557
रूपी	-2558
ाण्ड	-2559
ोदरी	-2560
▁करा	-2561
▁खुश	-2562
▁थका	-2563
▁दैव	-2564
▁सास	-2565
▁सुध	-2566
▁हरण	-2567
ारहित	-2568
▁अनंत	-2569
▁आँसू	-2570
▁उपमा	-2571
▁कौतु	-2572
▁चढ़ा	-2573
▁चौदह	-2574
▁तारा	-2575
▁पूछी	-2576
▁मिली	-2577
▁लंबे	-2578
▁ससुर	-2579
▁साँव	-2580
▁साधन	-2581
▁सुने	-2582
▁स्था	-2583
ार्थना	-2584
▁अपमान	-2585
▁तुच्छ	-2586
▁दुःसह	-2587
▁निश्च	-2588
▁प्रया	-2589
▁मुकुट	-2590
▁रणधीर	-2591
▁व्याप	-2592
▁सचमुच	-2593
▁वास्तव	-2594
▁विषयों	-2595
▁पराक्रम	-2596
▁प्रियतम	-2597
▁प्रेरणा	-2598
▁मर्यादा	-2599
▁राजतिलक	-2600
▁संतुष्ट	-2601
▁सुमित्र	-2602
▁कामदेवों	-2603
▁प्रार्थना	-2604
ंप	-2605
उस	-2606
जो	-2607
्स	-2608
कथा	-2609
जना	-2610
लकर	-2611
वीन	-2612
स्व	-2613
हरे	-2614
ूँद	-2615
॥24	-2616
॥25	-2617
॥26	-2618
॥27	-2619
॥9॥	-2620
▁अट	-2621
▁आओ	-2622
▁आम	-2623
▁मच	-2624
ंहास	-2625
नेति	-2626
न्मा	-2627
र्पण	-2628
िएगा	-2629
ूंगा	-2630
▁अर्	-2631
▁कला	-2632
▁ग्ल	-2633
▁चिह	-2634
▁चेत	-2635
▁पूज	-2636
▁समु	-2637
ंहासन	-2638
तियों	-2639
भिषेक	-2640
▁अनुर	-2641
▁अन्त	-2642
▁गणेश	-2643
▁ताकत	-2644
▁देगा	-2645
▁पूजन	-2646
▁बंधन	-2647
▁बुरे	-2648
▁भालू	-2649
▁भीड़	-2650
▁मछली	-2651
▁लगाए	-2652
▁विजय	-2653
▁विनम	-2654
▁वैसी	-2655
▁हँसी	-2656
▁अरबों	-2657
▁उखाड़	-2658
▁उदासी	-2659
▁छोड़े	-2660
▁जितने	-2661
▁जोड़ी	-2662
▁दीनों	-2663
▁बहाने	-2664
▁मंदिर	-2665
▁लड़ाई	-2666
▁वालों	-2667
▁विदेह	-2668
▁सामान	-2669
▁अवस्था	-2670
▁किनारे	-2671
▁किरणों	-2672
▁ग्लानि	-2673
▁जनकपुर	-2674
▁निश्चय	-2675
▁प्रदान	-2676
▁प्राणी	-2677
▁बैठाया	-2678
▁मतवाले	-2679
▁सृष्टि	-2680
▁विराजमान	-2681
▁सुमित्रा	-2682
खी	-2683
ुख	-2684
्ट	-2685
गंध	-2686
गिन	-2687
तीत	-2688
दया	-2689
दाय	-2690
पित	-2691
भुत	-2692
वत्	-2693
साद	-2694
▁चू	-2695
▁दर	-2696
▁नल	-2697
▁सय	-2698
▁हज	-2699
!॥1॥	-2700
,॥4॥	-2701
क्षी	-2702
नारी	-2703
वाणी	-2704
वानर	-2705
ालूम	-2706
▁अगम	-2707
▁अद्	-2708
▁अना	-2709
▁कुच	-2710
▁कुस	-2711
▁कौए	-2712
▁घास	-2713
▁निम	-2714
▁बोझ	-2715
▁भजो	-2716
▁माल	-2717
▁रचा	-2718
▁रति	-2719
▁लात	-2720
▁सुर	-2721
तंत्र	-2722
तिहास	-2723
त्त्व	-2724
मात्र	-2725
लियों	-2726
वेंगे	-2727
▁अपयश	-2728
▁आरती	-2729
▁कहूँ	-2730
▁कामी	-2731
▁केवट	-2732
▁खड़ा	-2733
▁चकोर	-2734
▁चढ़े	-2735
▁जीता	-2736
▁दीपक	-2737
▁नवीन	-2738
▁बजने	-2739
▁भस्म	-2740
▁यहां	-2741
▁सलाह	-2742
▁सुलभ	-2743
▁अत्रि	-2744
▁अनुरा	-2745
▁कैलास	-2746
▁कौतुक	-2747
▁चाहती	-2748
▁दयालु	-2749
▁दिव्य	-2750
▁दूतों	-2751
▁पहुँच	-2752
▁फिरते	-2753
▁बोलते	-2754
▁भूलकर	-2755
▁मालूम	-2756
▁संबंध	-2757
▁सज्जन	-2758
▁सबेरा	-2759
▁समर्थ	-2760
▁समाता	-2761
▁अद्भुत	-2762
▁निर्भय	-2763
▁पदार्थ	-2764
▁प्रसाद	-2765
▁रामकथा	-2766
▁विद्या	-2767
▁व्यापक	-2768
▁श्रृंग	-2769
▁सर्पों	-2770
▁साधुओं	-2771
▁स्थिति	-2772
▁अतुलनीय	-2773
▁अधिकारी	-2774
▁अवधपुरी	-2775
▁मंदोदरी	-2776
▁शत्रुओं	-2777
▁श्रद्धा	-2778
▁संस्कार	-2779
▁सिंहासन	-2780
▁परिपूर्ण	-2781
▁प्रातःकाल	-2782
▁शत्रुघ्नजी	-2783
गल	-2784
घन	-2785
यू	-2786
षा	-2787
▁7	-2788
अलग	-2789
कता	-2790
ड़क	-2791
म्भ	-2792
रीत	-2793
हाई	-2794
ेरु	-2795
ोही	-2796
्ति	-2797
▁जू	-2798
ंजार	-2799
ंदरी	-2800
ऊँगा	-2801
जाना	-2802
ज्जा	-2803
वर्ण	-2804
स्पर	-2805
ीकार	-2806
्चित	-2807
▁खुद	-2808
▁जरा	-2809
▁टूट	-2810
▁तृण	-2811
▁दिल	-2812
▁बाँ	-2813
▁बाग	-2814
▁भरो	-2815
▁मोर	-2816
▁यमु	-2817
▁यों	-2818
▁लाए	-2819
▁शहर	-2820
▁सूझ	-2821
निवास	-2822
योग्य	-2823
▁अधीन	-2824
▁कर्त	-2825
▁कहला	-2826
▁काँप	-2827
▁किले	-2828
▁कुंभ	-2829
▁कोयल	-2830
▁खुशी	-2831
▁पहना	-2832
▁पाँच	-2833
▁प्रा	-2834
▁फेंक	-2835
▁ब्या	-2836
▁मर्म	-2837
▁मूढ़	-2838
▁मैना	-2839
▁रखने	-2840
▁लगने	-2841
▁लेना	-2842
▁व्यव	-2843
▁सासु	-2844
▁हथिय	-2845
ड़ियों	-2846
▁अविना	-2847
▁काटकर	-2848
▁जटायु	-2849
▁ज्यों	-2850
▁देखना	-2851
▁दौड़ी	-2852
▁बलवान	-2853
▁बिजली	-2854
▁मानते	-2855
▁मारीच	-2856
▁लगाया	-2857
▁वनवास	-2858
▁सच्चा	-2859
▁समझते	-2860
▁सुशील	-2861
▁सौगंध	-2862
▁इतिहास	-2863
▁गुंजार	-2864
▁तपस्या	-2865
▁दण्डवत	-2866
▁दुःखों	-2867
▁परस्पर	-2868
▁प्यारा	-2869
▁प्रयाग	-2870
▁रघुवंश	-2871
▁राज्या	-2872
▁विपरीत	-2873
▁समुदाय	-2874
▁सुंदरी	-2875
▁क्षेत्र	-2876
▁पहचानकर	-2877
▁सकुचाते	-2878
▁स्वीकार	-2879
▁हाथियों	-2880
▁कुंभकर्ण	-2881
▁प्रत्येक	-2882
▁भलीभाँति	-2883
▁स्वतंत्र	-2884
▁प्राणियों	-2885
▁राजकुमारी	-2886
▁राज्याभिषेक	-2887
अर	-2888
थि	-2889
पथ	-2890
मृ	-2891
यर	-2892
लि	-2893
िठ	-2894
ैं	-2895
ोल	-2896
किक	-2897
छाव	-2898
शाच	-2899
ष्य	-2900
िक्	-2901
ोषण	-2902
्यो	-2903
▁आह	-2904
▁खी	-2905
▁नौ	-2906
▁बद	-2907
▁सन	-2908
ंडित	-2909
कर्म	-2910
छावर	-2911
द्धि	-2912
धानी	-2913
नाएँ	-2914
▁छिप	-2915
▁दुल	-2916
▁निक	-2917
▁बिछ	-2918
▁मही	-2919
▁युव	-2920
▁वाम	-2921
▁शिख	-2922
▁सुक	-2923
▁हिम	-2924
क्ष्ण	-2925
ताराम	-2926
▁अंदर	-2927
▁अक्ष	-2928
▁आधार	-2929
▁इनकी	-2930
▁उतार	-2931
▁उमड़	-2932
▁कलंक	-2933
▁कैसी	-2934
▁खड़ी	-2935
▁खाने	-2936
▁गर्व	-2937
▁गाने	-2938
▁गिरि	-2939
▁गुफा	-2940
▁फैला	-2941
▁बुरी	-2942
▁मरने	-2943
▁मीठे	-2944
▁योजन	-2945
▁रहें	-2946
▁राहु	-2947
▁वन्द	-2948
▁श्रम	-2949
▁सागर	-2950
▁सिखा	-2951
▁सुनी	-2952
▁सेवन	-2953
कुमारी	-2954
ारियों	-2955
▁किन्न	-2956
▁किसको	-2957
▁खजाना	-2958
▁तपस्व	-2959
▁त्यों	-2960
▁थोड़े	-2961
▁निधान	-2962
▁पंडित	-2963
▁पूछने	-2964
▁बड़भा	-2965
▁बैठकर	-2966
▁मिलता	-2967
▁लज्जा	-2968
▁लालसा	-2969
▁संताप	-2970
▁सरीखे	-2971
▁उदासीन	-2972
▁गणेशजी	-2973
▁टुकड़े	-2974
▁दीनदया	-2975
▁दौड़कर	-2976
▁नदियों	-2977
▁निछावर	-2978
▁रास्ता	-2979
▁लोकपाल	-2980
▁सुमेरु	-2981
▁अत्यधिक	-2982
▁अनुरक्त	-2983
▁सुहावने	-2984
▁कुटुम्बी	-2985
▁पवनपुत्र	-2986
▁प्रतिकूल	-2987
▁इंद्रियों	-2988
▁मंदबुद्धि	-2989
▁ब्रह्माण्ड	-2990
ंठ	-2991
आप	-2992
टि	-2993
डर	-2994
मर	-2995
शय	-2996
ीक	-2997
ंका	-2998
ंचल	-2999
ंभी	-3000
टकर	-3001
णित	-3002
णों	-3003
परा	-3004
पात	-3005
मंड	-3006
संत	-3007
▁अभ	-3008
▁छह	-3009
▁डु	-3010
▁फर	-3011
▁बच	-3012
▁मथ	-3013
▁सँ	-3014
गिनत	-3015
ध्या	-3016
॥10॥	-3017
▁अगर	-3018
▁उधर	-3019
▁खिल	-3020
▁घूम	-3021
▁ठहर	-3022
▁ताप	-3023
▁नचा	-3024
▁पहन	-3025
▁बनी	-3026
▁बैल	-3027
▁मन्	-3028
▁याच	-3029
▁रहो	-3030
▁वंश	-3031
▁हाँ	-3032
काव्य	-3033
क्षित	-3034
त्तों	-3035
र्पित	-3036
▁अर्थ	-3037
▁आर्त	-3038
▁उदास	-3039
▁कुमु	-3040
▁कैसा	-3041
▁खींच	-3042
▁घड़ी	-3043
▁चंचल	-3044
▁चकित	-3045
▁चेतन	-3046
▁धिक्	-3047
▁पराई	-3048
▁बसते	-3049
▁सरयू	-3050
▁सोते	-3051
▁हिरन	-3052
ज्ञानी	-3053
▁आनन्द	-3054
▁उपस्थ	-3055
▁करकमल	-3056
▁कराया	-3057
▁गिनती	-3058
▁गुप्त	-3059
▁जबर्द	-3060
▁डालते	-3061
▁दुर्ग	-3062
▁पूर्व	-3063
▁पैरों	-3064
▁बराबर	-3065
▁मारते	-3066
▁संवाद	-3067
▁सहायक	-3068
▁अजन्मा	-3069
▁अनगिनत	-3070
▁अनुराग	-3071
▁ऋषियों	-3072
▁किन्नर	-3073
▁गर्जना	-3074
▁नदियाँ	-3075
▁निरादर	-3076
▁निवासी	-3077
▁प्रमुख	-3078
▁प्रश्न	-3079
▁बरसाने	-3080
▁माँगता	-3081
▁युवराज	-3082
▁रणभूमि	-3083
▁रनिवास	-3084
▁विनम्र	-3085
▁सखियों	-3086
▁सम्मुख	-3087
▁हजारों	-3088
▁अविनाशी	-3089
▁कुटिलता	-3090
▁धिक्कार	-3091
▁यमुनाजी	-3092
▁रानियों	-3093
▁वस्तुएँ	-3094
▁वानरराज	-3095
▁दीनदयालु	-3096
▁पराक्रमी	-3097
▁जबर्दस्ती	-3098
एं	-3099
नु	-3100
पद	-3101
ृह	-3102
ँवर	-3103
ंजन	-3104
ककर	-3105
कूट	-3106
ग्र	-3107
नाई	-3108
नाश	-3109
फिर	-3110
मरण	-3111
षित	-3112
साथ	-3113
सान	-3114
ाता	-3115
ारि	-3116
्हा	-3117
▁शह	-3118
▁सफ	-3119
ंभीर	-3120
एँगे	-3121
कट्ठ	-3122
क्षण	-3123
गिनी	-3124
त्री	-3125
दर्श	-3126
र्षि	-3127
व्या	-3128
समूह	-3129
िठाई	-3130
िदान	-3131
▁कंद	-3132
▁कड़	-3133
▁कलश	-3134
▁खून	-3135
▁गमन	-3136
▁ठीक	-3137
▁तत्	-3138
▁दाह	-3139
▁बेह	-3140
▁भूख	-3141
▁मदद	-3142
▁लला	-3143
▁शास	-3144
▁सन्	-3145
▁सात	-3146
▁सैक	-3147
▁हटा	-3148
कुमार	-3149
देखकर	-3150
परायण	-3151
▁इसकी	-3152
▁ऐश्व	-3153
▁कन्द	-3154
▁गाया	-3155
▁घरों	-3156
▁चंदन	-3157
▁चलता	-3158
▁जागे	-3159
▁दानव	-3160
▁नायक	-3161
▁नींद	-3162
▁पुरी	-3163
▁बनाई	-3164
▁बाजे	-3165
▁बाढ़	-3166
▁भजता	-3167
▁भिड़	-3168
▁मांस	-3169
▁मिटा	-3170
▁लंबी	-3171
▁लाते	-3172
▁लिवा	-3173
▁वरुण	-3174
▁शरद्	-3175
▁अकेले	-3176
▁अनादि	-3177
▁अनुभव	-3178
▁अभागे	-3179
▁इकट्ठ	-3180
▁कानून	-3181
▁कामधे	-3182
▁कुबेर	-3183
▁गंभीर	-3184
▁जानती	-3185
▁जीतकर	-3186
▁ढिठाई	-3187
▁थकावट	-3188
▁धर्मी	-3189
▁प्यार	-3190
▁मानता	-3191
▁मोहवश	-3192
▁लौटकर	-3193
▁विद्व	-3194
▁वीरता	-3195
▁सयानी	-3196
▁सुनता	-3197
▁स्थिर	-3198
पुरुषों	-3199
वासियों	-3200
▁कर्मों	-3201
▁दुर्गम	-3202
▁प्रिये	-3203
▁बालकों	-3204
▁अनुग्रह	-3205
▁अवगुणों	-3206
▁त्रिपुर	-3207
▁पुण्यों	-3208
▁प्रेमवश	-3209
▁प्रेरित	-3210
▁बड़भागी	-3211
▁संग्राम	-3212
▁सीताराम	-3213
▁सुगंधित	-3214
▁सैकड़ों	-3215
▁चित्रकूट	-3216
▁तीर्थराज	-3217
▁श्रृंगार	-3218
▁सच्चिदान	-3219
▁हठपूर्वक	-3220
▁तपस्वियों	-3221
▁प्रसन्नता	-3222
▁सुखपूर्वक	-3223
▁कुटुम्बियों	-3224
▁मुनिश्रेष्ठ	-3225
▁काकभुशुण्डिजी	-3226
ँघ	-3227
▁-	-3228
गरी	-3229
ठार	-3230
ड़प	-3231
ड्ड	-3232
सला	-3233
सीम	-3234
िले	-3235
्कि	-3236
▁गज	-3237
▁शू	-3238
▁सद	-3239
केतु	-3240
णिमा	-3241
धारी	-3242
नाओं	-3243
नीति	-3244
पुरा	-3245
बाहु	-3246
भक्त	-3247
भरकर	-3248
मग्न	-3249
माला	-3250
मुनि	-3251
वरों	-3252
वाली	-3253
हारी	-3254
ोहित	-3255
▁अँग	-3256
▁आईं	-3257
▁उजा	-3258
▁कित	-3259
▁चलो	-3260
▁चुप	-3261
▁चोट	-3262
▁तरी	-3263
▁तिर	-3264
▁दीं	-3265
▁पान	-3266
▁फैल	-3267
▁बीस	-3268
▁भटक	-3269
▁भाट	-3270
▁मरण	-3271
▁मसल	-3272
▁यथा	-3273
▁शंख	-3274
▁शरद	-3275
▁सत्	-3276
▁समृ	-3277
▁हाल	-3278
च्चों	-3279
▁अखंड	-3280
▁अतएव	-3281
▁अशोक	-3282
▁असीम	-3283
▁आहार	-3284
▁इनको	-3285
▁इसको	-3286
▁उत्क	-3287
▁कहें	-3288
▁छोटी	-3289
▁ज्यो	-3290
▁डाले	-3291
▁तेजी	-3292
▁नामक	-3293
▁निडर	-3294
▁पाती	-3295
▁फलों	-3296
▁भुला	-3297
▁भेजे	-3298
▁रचकर	-3299
▁लाया	-3300
▁सुगम	-3301
मृत्यु	-3302
▁उपहार	-3303
▁कपड़े	-3304
▁कुचाल	-3305
▁गिरते	-3306
▁चिह्न	-3307
▁त्रिश	-3308
▁थोड़ा	-3309
▁थोड़ी	-3310
▁दुहाई	-3311
▁देखती	-3312
▁पात्र	-3313
▁पूछता	-3314
▁बच्चा	-3315
▁बताया	-3316
▁भरोसा	-3317
▁मिलती	-3318
▁रंगों	-3319
▁रहेगा	-3320
▁अस्त्र	-3321
▁इसीलिए	-3322
▁क्रिया	-3323
▁जाऊँगा	-3324
▁दाँतों	-3325
▁पत्तों	-3326
▁पेड़ों	-3327
▁बंदरों	-3328
▁भौंरों	-3329
▁राजमहल	-3330
▁संध्या	-3331
▁सावधान	-3332
▁सिद्धा	-3333
▁ऐश्वर्य	-3334
▁कर्तव्य	-3335
▁कीजिएगा	-3336
▁निश्चित	-3337
▁मूर्च्छ	-3338
▁विभिन्न	-3339
▁स्थापित	-3340
▁सर्वव्या	-3341
▁भरद्वाजजी	-3342
▁मुस्कुराए	-3343
कह	-3344
णा	-3345
धन	-3346
धु	-3347
वह	-3348
हि	-3349
ूस	-3350
करा	-3351
गमन	-3352
ट्ठ	-3353
दुः	-3354
दोष	-3355
पत्	-3356
भाल	-3357
भूत	-3358
मैं	-3359
श्म	-3360
स्र	-3361
ातक	-3362
॥35	-3363
▁कस	-3364
▁खे	-3365
▁नव	-3366
▁पं	-3367
▁शत	-3368
▁शम	-3369
कादि	-3370
चारी	-3371
जहाँ	-3372
जाति	-3373
जारी	-3374
ड़का	-3375
ड़ित	-3376
दिरा	-3377
वश्य	-3378
सहित	-3379
▁अकु	-3380
▁अमर	-3381
▁आना	-3382
▁कोल	-3383
▁गीध	-3384
▁घेर	-3385
▁दबा	-3386
▁धार	-3387
▁नया	-3388
▁पीठ	-3389
▁पूँ	-3390
▁पेट	-3391
▁बाघ	-3392
▁मनु	-3393
▁मरे	-3394
▁राह	-3395
▁लाख	-3396
▁वशी	-3397
▁शपथ	-3398
▁शूल	-3399
▁सुब	-3400
▁सोख	-3401
तुराई	-3402
त्रिय	-3403
सरोवर	-3404
ारायण	-3405
▁अनाथ	-3406
▁किसे	-3407
▁खाकर	-3408
▁गर्भ	-3409
▁छूटे	-3410
▁दम्भ	-3411
▁देवी	-3412
▁द्वि	-3413
▁धुरी	-3414
▁पराए	-3415
▁पीने	-3416
▁बहने	-3417
▁भौंह	-3418
▁मानव	-3419
▁रहकर	-3420
▁रोमा	-3421
▁लुभा	-3422
▁लौटे	-3423
▁वहां	-3424
▁सजाए	-3425
▁सफेद	-3426
▁सूअर	-3427
ज्जननी	-3428
मात्मा	-3429
▁अगणित	-3430
▁इनमें	-3431
▁उतरकर	-3432
▁करोड़	-3433
▁कुमार	-3434
▁टेढ़ी	-3435
▁डालने	-3436
▁दुश्म	-3437
▁द्वार	-3438
▁पड़ती	-3439
▁परलोक	-3440
▁परायण	-3441
▁बातों	-3442
▁मदिरा	-3443
▁माँगा	-3444
▁मुखों	-3445
▁युवती	-3446
▁लगाते	-3447
▁वीरों	-3448
▁कहेंगे	-3449
▁क्रोधी	-3450
▁बखानकर	-3451
▁बच्चों	-3452
▁बरसाकर	-3453
▁बाँधकर	-3454
▁भुलाकर	-3455
▁माँगते	-3456
▁मुनिगण	-3457
▁युक्ति	-3458
▁सनकादि	-3459
▁समाप्त	-3460
▁सिद्धि	-3461
▁कामधेनु	-3462
▁कोसलपति	-3463
▁पुरोहित	-3464
▁रामचरित	-3465
▁सुखदायक	-3466
▁सेनापति	-3467
▁सौभाग्य	-3468
▁स्थानों	-3469
▁इन्होंने	-3470
▁उत्कृष्ट	-3471
▁कुबुद्धि	-3472
▁जगज्जननी	-3473
▁दरिद्रता	-3474
▁परमेश्वर	-3475
▁प्रतिष्ठ	-3476
▁यथायोग्य	-3477
▁सूर्यवंश	-3478
▁प्रत्यक्ष	-3479
▁ब्रह्मलोक	-3480
▁सीतारामजी	-3481
▁सर्वव्यापक	-3482
"।	-3483
चन	-3484
झा	-3485
रस	-3486
शल	-3487
ीय	-3488
ंगी	-3489
धीश	-3490
बोध	-3491
माण	-3492
रिम	-3493
लता	-3494
वनी	-3495
सुख	-3496
ायण	-3497
ृति	-3498
ेशा	-3499
॥33	-3500
॥34	-3501
▁अं	-3502
▁उछ	-3503
▁कू	-3504
▁घट	-3505
▁पत	-3506
▁फू	-3507
▁भृ	-3508
▁रम	-3509
क्ता	-3510
गुरु	-3511
चेतन	-3512
ट्ठी	-3513
न्धु	-3514
भानु	-3515
माता	-3516
वहाँ	-3517
▁उद्	-3518
▁कूद	-3519
▁घाट	-3520
▁चाँ	-3521
▁झुक	-3522
▁पंच	-3523
▁पुन	-3524
▁बँध	-3525
▁बेल	-3526
▁भील	-3527
▁भूत	-3528
▁मँग	-3529
▁लाज	-3530
▁लें	-3531
▁सका	-3532
▁सही	-3533
▁हाय	-3534
क्पाल	-3535
ण्डित	-3536
वित्र	-3537
▁अंधे	-3538
▁अन्न	-3539
▁आराध	-3540
▁आराम	-3541
▁आश्र	-3542
▁इतनी	-3543
▁इनका	-3544
▁इसने	-3545
▁कष्ट	-3546
▁कायर	-3547
▁घमंड	-3548
▁चलना	-3549
▁चुरा	-3550
▁जनवा	-3551
▁जीने	-3552
▁तड़प	-3553
▁बताओ	-3554
▁बिगा	-3555
▁बेटे	-3556
▁मरते	-3557
▁मेंढ	-3558
▁मौका	-3559
▁यत्न	-3560
▁रथों	-3561
▁ललाट	-3562
▁लाँघ	-3563
▁वैभव	-3564
▁सज्ज	-3565
▁सेतु	-3566
▁सोना	-3567
▁हाला	-3568
▁हिरण	-3569
▁हिस्	-3570
सलाधीश	-3571
▁अमंगल	-3572
▁खिलाफ	-3573
▁छोड़ा	-3574
▁जोहार	-3575
▁तृप्त	-3576
▁देखिए	-3577
▁पताका	-3578
▁पशुओं	-3579
▁मंडली	-3580
▁मंदरा	-3581
▁महीने	-3582
▁लूँगा	-3583
▁संदेश	-3584
▁संयोग	-3585
▁सबेरे	-3586
▁सुनाए	-3587
▁हमेशा	-3588
▁ज्योति	-3589
▁दौड़ते	-3590
▁पण्डित	-3591
▁पुजारी	-3592
▁बरसाते	-3593
▁मिथ्या	-3594
▁लीलाएँ	-3595
▁वन्दना	-3596
▁श्रुति	-3597
▁संपन्न	-3598
▁सम्मति	-3599
▁स्नेही	-3600
▁आनन्दित	-3601
▁कृतार्थ	-3602
▁दिक्पाल	-3603
▁निष्काम	-3604
▁परिजनों	-3605
▁पुकारते	-3606
▁महिलाओं	-3607
▁विद्वान	-3608
▁सज्जनों	-3609
▁आकाशवाणी	-3610
▁प्रस्थान	-3611
▁महाकाव्य	-3612
▁रामभक्ति	-3613
▁प्रतिज्ञा	-3614
▁प्रतापभानु	-3615
▁लक्ष्मीपति	-3616
▁सच्चिदानंद	-3617
ंब	-3618
गम	-3619
घा	-3620
ज़	-3621
नए	-3622
सव	-3623
॥।	-3624
▁?	-3625
एगा	-3626
क्र	-3627
गड़	-3628
जेय	-3629
जों	-3630
फुल	-3631
बाह	-3632
बीच	-3633
ब्ध	-3634
ब्र	-3635
भंग	-3636
भरी	-3637
मूल	-3638
शुभ	-3639
समा	-3640
ुर्	-3641
▁औष	-3642
▁घी	-3643
▁झर	-3644
▁डि	-3645
▁ति	-3646
▁दब	-3647
▁दम	-3648
▁बक	-3649
ंकार	-3650
ंगों	-3651
ंतिम	-3652
कड़ी	-3653
कुटी	-3654
क्षे	-3655
ख्या	-3656
जाने	-3657
दूषण	-3658
म्बर	-3659
र्वि	-3660
वाड़	-3661
ूँगी	-3662
ौकिक	-3663
्लित	-3664
्वान	-3665
॥11॥	-3666
॥12॥	-3667
▁अंक	-3668
▁अनि	-3669
▁अहल	-3670
▁उठी	-3671
▁गंध	-3672
▁जलन	-3673
▁डुब	-3674
▁तिन	-3675
▁तीस	-3676
▁पलक	-3677
▁पीट	-3678
▁बगु	-3679
▁बधा	-3680
▁मधु	-3681
▁शोर	-3682
▁सहम	-3683
▁हीन	-3684
कारों	-3685
त्कार	-3686
द्वार	-3687
ध्वंस	-3688
बोधित	-3689
रित्र	-3690
ाप्ति	-3691
▁आकर्	-3692
▁आत्म	-3693
▁आरोप	-3694
▁आशीष	-3695
▁इष्ट	-3696
▁ईर्ष	-3697
▁उठीं	-3698
▁कपटी	-3699
▁क्षो	-3700
▁गणों	-3701
▁चाँद	-3702
▁जाइए	-3703
▁जिला	-3704
▁डाली	-3705
▁दरवा	-3706
▁दूलह	-3707
▁पाँव	-3708
▁पूँछ	-3709
▁फिरा	-3710
▁रोने	-3711
▁लगकर	-3712
▁लड़क	-3713
▁विकट	-3714
▁सोमा	-3715
▁स्वर	-3716
▁हिला	-3717
र्यामी	-3718
शस्त्र	-3719
▁अंतिम	-3720
▁अभिला	-3721
▁उत्सव	-3722
▁कुठार	-3723
▁कुमुद	-3724
▁तापों	-3725
▁निबाह	-3726
▁पहुंच	-3727
▁पिशाच	-3728
▁पूछकर	-3729
▁प्यास	-3730
▁प्राच	-3731
▁बढ़ते	-3732
▁बल्कि	-3733
▁बूढ़ा	-3734
▁भिन्न	-3735
▁मँगवा	-3736
▁माँगी	-3737
▁मालिक	-3738
▁मिलीं	-3739
▁यमराज	-3740
▁यात्र	-3741
▁लेंगे	-3742
▁संतान	-3743
▁सच्ची	-3744
▁सच्चे	-3745
▁सुधार	-3746
फुल्लित	-3747
्यात्मा	-3748
▁अलौकिक	-3749
▁असुरों	-3750
▁अहल्या	-3751
▁आह्वान	-3752
▁कहूँगा	-3753
▁कुल्हा	-3754
▁क्षणभर	-3755
▁चढ़ाया	-3756
▁जन्मों	-3757
▁तत्त्व	-3758
▁नम्रता	-3759
▁निकलते	-3760
▁बैठाकर	-3761
▁मंगलमय	-3762
▁माँगकर	-3763
▁रामायण	-3764
▁विरक्त	-3765
▁सरयूजी	-3766
▁साँवले	-3767
▁साक्षी	-3768
▁सुनाकर	-3769
▁तीक्ष्ण	-3770
▁दिखलाया	-3771
▁पहाड़ों	-3772
▁मछलियाँ	-3773
▁विध्वंस	-3774
▁संबोधित	-3775
▁सकुचाकर	-3776
▁समर्पित	-3777
▁सुहावना	-3778
▁कृपासागर	-3779
▁कोसलाधीश	-3780
▁क्षत्रिय	-3781
▁मानसरोवर	-3782
▁सिद्धांत	-3783
▁रामचरित्र	-3784
▁सिद्धियाँ	-3785
▁पुण्यात्मा	-3786
▁प्रफुल्लित	-3787
▁वाल्मीकिजी	-3788
▁सुमित्राजी	-3789
11	-3790
as	-3791
अव	-3792
आँ	-3793
गध	-3794
तब	-3795
पण	-3796
ल्	-3797
शे	-3798
सं	-3799
▁“	-3800
ंकि	-3801
क्य	-3802
गति	-3803
जित	-3804
धुर	-3805
नदी	-3806
पंच	-3807
पार	-3808
पास	-3809
बरी	-3810
बिर	-3811
भाग	-3812
मोह	-3813
राब	-3814
लीन	-3815
समझ	-3816
स्ट	-3817
िरी	-3818
ुरू	-3819
ूठी	-3820
ूपण	-3821
ैया	-3822
▁अह	-3823
▁इश	-3824
▁कब	-3825
▁गद	-3826
▁चा	-3827
▁नई	-3828
▁नट	-3829
▁बँ	-3830
▁बछ	-3831
▁रू	-3832
▁लव	-3833
ंजलि	-3834
किनी	-3835
क्षम	-3836
ग्री	-3837
घाड़	-3838
च्छप	-3839
तर्क	-3840
दुःख	-3841
पणखा	-3842
यज्ञ	-3843
यमान	-3844
रानी	-3845
वाकर	-3846
साधु	-3847
ारुण	-3848
ालों	-3849
िकाल	-3850
्सरा	-3851
▁अँध	-3852
▁कंध	-3853
▁घुस	-3854
▁छाई	-3855
▁ठंड	-3856
▁दुब	-3857
▁परी	-3858
▁पिछ	-3859
▁बंद	-3860
▁बनो	-3861
▁बर्	-3862
▁बसे	-3863
▁बाव	-3864
▁भुज	-3865
▁मकर	-3866
▁मक्	-3867
▁रखी	-3868
▁रसी	-3869
▁रसो	-3870
▁वाह	-3871
▁श्व	-3872
▁हिल	-3873
ंदर्य	-3874
कावली	-3875
ज्जित	-3876
पत्नी	-3877
प्रिय	-3878
रिमित	-3879
विलास	-3880
विष्य	-3881
ालुओं	-3882
▁अंतर	-3883
▁अजेय	-3884
▁आगमन	-3885
▁उठते	-3886
▁उल्ल	-3887
▁गौरी	-3888
▁घायल	-3889
▁चक्र	-3890
▁जगदी	-3891
▁जबकि	-3892
▁जलते	-3893
▁झूठा	-3894
▁डरते	-3895
▁ड्रा	-3896
▁तर्क	-3897
▁तारे	-3898
▁दूषण	-3899
▁धोकर	-3900
▁नीले	-3901
▁पतिव	-3902
▁पधार	-3903
▁परछा	-3904
▁पर्ण	-3905
▁पहला	-3906
▁पावे	-3907
▁पुनः	-3908
▁पूरे	-3909
▁फड़क	-3910
▁फूले	-3911
▁बसता	-3912
▁बसती	-3913
▁बिछा	-3914
▁बूँद	-3915
▁बेटा	-3916
▁भृगु	-3917
▁मच्छ	-3918
▁माने	-3919
▁मूँद	-3920
▁रक्त	-3921
▁रत्न	-3922
▁लाने	-3923
▁विचल	-3924
▁विजे	-3925
▁शिखर	-3926
▁शुरू	-3927
▁शूर्	-3928
▁सिहा	-3929
▁सुबह	-3930
▁हँसे	-3931
ंत्रित	-3932
पारायण	-3933
▁अंकुर	-3934
▁अभागा	-3935
▁अवगुण	-3936
▁आवश्य	-3937
▁कच्छप	-3938
▁कहेगा	-3939
▁क्षोभ	-3940
▁गायें	-3941
▁गायों	-3942
▁चेहरा	-3943
▁जटाओं	-3944
▁जलाने	-3945
▁जानना	-3946
▁जिनसे	-3947
▁जोड़े	-3948
▁डालकर	-3949
▁तत्पर	-3950
▁दारुण	-3951
▁नाचने	-3952
▁निष्क	-3953
▁पूज्य	-3954
▁बगुले	-3955
▁बजाकर	-3956
▁ब्याह	-3957
▁मारता	-3958
▁रुद्र	-3959
▁लकड़ी	-3960
▁विहार	-3961
▁सक्षम	-3962
▁सजाने	-3963
▁सर्वो	-3964
▁सहस्र	-3965
▁सहारा	-3966
▁सोचने	-3967
▁अप्सरा	-3968
▁आराधना	-3969
▁करूंगा	-3970
▁किसलिए	-3971
▁गुणगान	-3972
▁चतुराई	-3973
▁छोड़ता	-3974
▁जिनमें	-3975
▁ज्ञाता	-3976
▁तारागण	-3977
▁तोड़कर	-3978
▁तोड़ने	-3979
▁दरवाजे	-3980
▁द्रोही	-3981
▁निरूपण	-3982
▁निर्वि	-3983
▁परमधाम	-3984
▁पहुंचा	-3985
▁प्रहार	-3986
▁प्रेमा	-3987
▁भौंहें	-3988
▁मिलेगा	-3989
▁वशीभूत	-3990
▁समाधान	-3991
▁सर्वथा	-3992
▁सासुओं	-3993
▁सुहाता	-3994
▁अत्रिजी	-3995
▁अपरिमित	-3996
▁अभिलाषा	-3997
▁गालियाँ	-3998
▁जानवरों	-3999
▁तीर्थों	-4000
▁दण्डवत्	-4001
▁परीक्षा	-4002
▁पावेंगे	-4003
▁पुकारकर	-4004
▁प्राचीन	-4005
▁बुलवाया	-4006
▁मंगलगान	-4007
▁मंदराचल	-4008
▁मछलियों	-4009
▁महामुनि	-4010
▁मित्रता	-4011
▁राजधानी	-4012
▁श्रीमुख	-4013
▁सौंदर्य	-4014
▁स्नेहवश	-4015
▁जगदीश्वर	-4016
▁पुलकावली	-4017
▁प्रतिदिन	-4018
▁शूर्पणखा	-4019
▁सुरक्षित	-4020
▁धीरबुद्धि	-4021
▁निवासियों	-4022
▁बारातियों	-4023
▁ब्रह्मांड	-4024
▁सुमंत्रजी	-4025
▁दुर्बुद्धि	-4026
▁मुस्कुराकर	-4027
गद	-4028
गो	-4029
छन	-4030
जब	-4031
पल	-4032
यम	-4033
रज	-4034
शक	-4035
ृश	-4036
ैन	-4037
ॉल	-4038
▁v	-4039
ँगन	-4040
ंचे	-4041
करण	-4042
जटा	-4043
जिस	-4044
धिर	-4045
नयन	-4046
निक	-4047
पेट	-4048
बली	-4049
मती	-4050
लाल	-4051
वाँ	-4052
वीत	-4053
श्च	-4054
सीह	-4055
ितर	-4056
ुड़	-4057
ोवा	-4058
्ते	-4059
्ला	-4060
▁अक	-4061
▁कण	-4062
▁धा	-4063
▁पख	-4064
▁पथ	-4065
▁यथ	-4066
ंबार	-4067
कन्द	-4068
करके	-4069
कल्प	-4070
गाकर	-4071
जाकर	-4072
जैसे	-4073
त्या	-4074
म्भु	-4075
लेकर	-4076
वादी	-4077
वेणी	-4078
शकुन	-4079
ष्टा	-4080
समाज	-4081
ानकर	-4082
ुक्त	-4083
ेंगी	-4084
्नों	-4085
॥13॥	-4086
▁अंश	-4087
▁असम	-4088
▁आंख	-4089
▁कपि	-4090
▁कीच	-4091
▁घने	-4092
▁घूँ	-4093
▁चूक	-4094
▁जमा	-4095
▁जवा	-4096
▁ढोल	-4097
▁ताल	-4098
▁तेल	-4099
▁धूप	-4100
▁पहर	-4101
▁फूट	-4102
▁बगी	-4103
▁बसा	-4104
▁भगा	-4105
▁भवन	-4106
▁राग	-4107
▁लहर	-4108
▁लेश	-4109
▁वेग	-4110
▁संर	-4111
▁संस	-4112
▁हास	-4113
▁होठ	-4114
▁॥5॥	-4115
ख्यात	-4116
ग्रीव	-4117
दर्शी	-4118
देश्य	-4119
प्रति	-4120
सियों	-4121
सुनकर	-4122
सुनते	-4123
ोपवीत	-4124
▁अधीर	-4125
▁आँगन	-4126
▁आरंभ	-4127
▁गहरी	-4128
▁गोरे	-4129
▁चकवे	-4130
▁चलकर	-4131
▁चुके	-4132
▁जड़ी	-4133
▁जल्द	-4134
▁डेरा	-4135
▁तोते	-4136
▁देवा	-4137
▁नगरी	-4138
▁नम्र	-4139
▁नाते	-4140
▁परछन	-4141
▁परेश	-4142
▁पाने	-4143
▁पामर	-4144
▁पालक	-4145
▁पीता	-4146
▁प्रद	-4147
▁बँधा	-4148
▁बसने	-4149
▁बहिन	-4150
▁बाधा	-4151
▁बिता	-4152
▁बैठी	-4153
▁भागे	-4154
▁भीषण	-4155
▁मध्य	-4156
▁मन्द	-4157
▁मसीह	-4158
▁महेश	-4159
▁मीठी	-4160
▁रखना	-4161
▁रचित	-4162
▁रमणी	-4163
▁लोभी	-4164
▁वसंत	-4165
▁विभू	-4166
▁शिखा	-4167
▁सनाथ	-4168
▁सभास	-4169
▁साँस	-4170
▁सीढ़	-4171
▁सोचा	-4172
▁सौंप	-4173
▁हड्ड	-4174
क्षात्	-4175
बिरंगे	-4176
मारहित	-4177
▁अकुला	-4178
▁अतिथि	-4179
▁अनन्त	-4180
▁इशारे	-4181
▁ईर्षा	-4182
▁उठाया	-4183
▁उड़ते	-4184
▁कड़वी	-4185
▁करोगे	-4186
▁काटने	-4187
▁कालों	-4188
▁खोजते	-4189
▁ग्रंथ	-4190
▁चीजें	-4191
▁चेहरे	-4192
▁जीतने	-4193
▁टेढ़ा	-4194
▁तुलना	-4195
▁देवगण	-4196
▁दोस्त	-4197
▁पकड़े	-4198
▁पड़ने	-4199
▁पहनाए	-4200
▁पुष्ट	-4201
▁बहुओं	-4202
▁बाजार	-4203
▁बिगड़	-4204
▁बीतने	-4205
▁मेंढक	-4206
▁वृद्ध	-4207
▁वैद्य	-4208
▁शिकार	-4209
▁शूद्र	-4210
▁सुकृत	-4211
▁सुमुख	-4212
▁सुहाग	-4213
▁सूझता	-4214
▁सोचकर	-4215
▁सोचते	-4216
पार्वती	-4217
▁अधिकता	-4218
▁कमलनयन	-4219
▁कृतज्ञ	-4220
▁गंधर्व	-4221
▁चौदहों	-4222
▁जयमाला	-4223
▁देवनदी	-4224
▁पंक्ति	-4225
▁पकड़ने	-4226
▁पछताते	-4227
▁पीड़ित	-4228
▁पुत्री	-4229
▁प्रचंड	-4230
▁प्रचुर	-4231
▁प्रतीत	-4232
▁बिलकुल	-4233
▁भविष्य	-4234
▁मन्त्र	-4235
▁माँगने	-4236
▁मानसिक	-4237
▁मारुति	-4238
▁मिथिला	-4239
▁मुक्ति	-4240
▁विचलित	-4241
▁विजेता	-4242
▁विरोधी	-4243
▁संन्या	-4244
▁समृद्ध	-4245
▁स्पष्ट	-4246
▁स्वर्ण	-4247
▁हथियार	-4248
शुण्डिजी	-4249
▁अपवित्र	-4250
▁अविद्या	-4251
▁आभूषणों	-4252
▁करकमलों	-4253
▁कुमार्ग	-4254
▁कोसलराज	-4255
▁गुणसमूह	-4256
▁तालाबों	-4257
▁त्रिजटा	-4258
▁त्रिशूल	-4259
▁निर्वास	-4260
▁प्रतापी	-4261
▁बलिहारी	-4262
▁बारंबार	-4263
▁राजनीति	-4264
▁लंकापति	-4265
▁विरुद्ध	-4266
▁व्यवहार	-4267
▁श्रीराम	-4268
▁सहायकों	-4269
▁सामग्री	-4270
▁उद्देश्य	-4271
▁उपस्थिति	-4272
▁चरित्रों	-4273
▁त्रिवेणी	-4274
▁दुश्मनों	-4275
▁पर्णकुटी	-4276
▁पूर्णिमा	-4277
▁प्राप्ति	-4278
▁राजद्वार	-4279
▁शोभायमान	-4280
▁सवारियाँ	-4281
▁साक्षात्	-4282
▁हथियारों	-4283
▁अगस्त्यजी	-4284
▁अयोध्याजी	-4285
▁कुल्हाड़ी	-4286
▁प्रेममग्न	-4287
▁प्रेमसहित	-4288
▁बालिपुत्र	-4289
▁यज्ञोपवीत	-4290
▁लक्ष्मीजी	-4291
▁सहस्रबाहु	-4292
▁भुशुण्डिजी	-4293
▁राजकुमारों	-4294
er	-4295
ँठ	-4296
उन	-4297
जल	-4298
तू	-4299
थम	-4300
थे	-4301
पो	-4302
ये	-4303
लो	-4304
वै	-4305
षी	-4306
सो	-4307
ाय	-4308
ेन	-4309
ैत	-4310
ोत	-4311
।"	-4312
ंधर	-4313
अंग	-4314
उधर	-4315
छित	-4316
टते	-4317
तमा	-4318
तिक	-4319
थरा	-4320
नकर	-4321
पना	-4322
फूल	-4323
मार	-4324
मास	-4325
यनी	-4326
युग	-4327
रान	-4328
व्र	-4329
शील	-4330
शोर	-4331
सरण	-4332
सों	-4333
हंस	-4334
हरी	-4335
हुत	-4336
ामय	-4337
ेता	-4338
▁अद	-4339
▁उज	-4340
▁खल	-4341
▁ढँ	-4342
▁नृ	-4343
▁पध	-4344
▁पस	-4345
▁पौ	-4346
▁फट	-4347
▁रि	-4348
▁वी	-4349
▁।।	-4350
?॥5॥	-4351
ंगली	-4352
ऊंगा	-4353
कहकर	-4354
ढ़कर	-4355
द्री	-4356
नहार	-4357
पाती	-4358
रणीय	-4359
राजा	-4360
लाहल	-4361
लीला	-4362
स्तर	-4363
ान्त	-4364
ारवि	-4365
ोड़ी	-4366
्ययन	-4367
्यास	-4368
॥14॥	-4369
▁उठो	-4370
▁उलझ	-4371
▁कंग	-4372
▁कंठ	-4373
▁कवच	-4374
▁काँ	-4375
▁कोप	-4376
▁चोर	-4377
▁छीन	-4378
▁जगा	-4379
▁जना	-4380
▁ढेर	-4381
▁तमा	-4382
▁थाह	-4383
▁धड़	-4384
▁नाय	-4385
▁नुक	-4386
▁पटक	-4387
▁पपी	-4388
▁बाज	-4389
▁बिख	-4390
▁बीज	-4391
▁भाम	-4392
▁भीख	-4393
▁माय	-4394
▁मेह	-4395
▁राख	-4396
▁रुक	-4397
▁रेश	-4398
▁लता	-4399
▁वार	-4400
▁विध	-4401
▁वेश	-4402
▁साह	-4403
▁सुस	-4404
▁सोह	-4405
▁हरे	-4406
▁होओ	-4407
ंगिणी	-4408
करहित	-4409
त्नों	-4410
दावली	-4411
ध्वनि	-4412
फिरकर	-4413
शत्रु	-4414
सिद्ध	-4415
स्पति	-4416
ाकिनी	-4417
▁अशुभ	-4418
▁असंत	-4419
▁उपास	-4420
▁ऊँचा	-4421
▁ऊँचे	-4422
▁कंधे	-4423
▁कर्ण	-4424
▁काला	-4425
▁कुत्	-4426
▁केतु	-4427
▁क्रम	-4428
▁क्षु	-4429
▁खाया	-4430
▁खिले	-4431
▁गन्ध	-4432
▁गरजा	-4433
▁गहरे	-4434
▁गाँठ	-4435
▁गुना	-4436
▁गौतम	-4437
▁गौरव	-4438
▁चातक	-4439
▁जहां	-4440
▁डंका	-4441
▁तमाल	-4442
▁दंडक	-4443
▁दावा	-4444
▁धूलि	-4445
▁धोखे	-4446
▁नक्ष	-4447
▁निशा	-4448
▁निहो	-4449
▁नीचा	-4450
▁न्या	-4451
▁परदे	-4452
▁पागल	-4453
▁पारस	-4454
▁पिला	-4455
▁पुंज	-4456
▁फरसा	-4457
▁फरसे	-4458
▁फोड़	-4459
▁बढ़े	-4460
▁बदले	-4461
▁बहते	-4462
▁बाएँ	-4463
▁बाहु	-4464
▁भाषा	-4465
▁भेरी	-4466
▁मनचा	-4467
▁मनों	-4468
▁मरता	-4469
▁मरना	-4470
▁मागध	-4471
▁मिटे	-4472
▁रेखा	-4473
▁रोगी	-4474
▁ललचा	-4475
▁वासु	-4476
▁वाहन	-4477
▁वेदम	-4478
▁शासन	-4479
▁शाही	-4480
▁शिला	-4481
▁सजकर	-4482
▁सजाई	-4483
▁सदृश	-4484
▁सहते	-4485
▁सीधे	-4486
▁सूरज	-4487
▁हमको	-4488
ब्रह्म	-4489
ानंदजी	-4490
ानुसार	-4491
▁अकेला	-4492
▁अतिशय	-4493
▁अनर्थ	-4494
▁अर्था	-4495
▁उजाड़	-4496
▁उपयोग	-4497
▁काटते	-4498
▁किशोर	-4499
▁किसकी	-4500
▁कीचड़	-4501
▁कुसमय	-4502
▁क्रूर	-4503
▁जंगली	-4504
▁जलाया	-4505
▁डालता	-4506
▁डालती	-4507
▁तरीके	-4508
▁तिनके	-4509
▁तुझसे	-4510
▁दक्षि	-4511
▁दर्पण	-4512
▁पधारे	-4513
▁पूछना	-4514
▁फिरता	-4515
▁बढ़ता	-4516
▁बढ़ती	-4517
▁बताइए	-4518
▁बनाने	-4519
▁बारिश	-4520
▁बुराई	-4521
▁बैठने	-4522
▁बोलना	-4523
▁भ्रमर	-4524
▁मुख्य	-4525
▁मैदान	-4526
▁युगों	-4527
▁रमणीय	-4528
▁रोककर	-4529
▁रोगों	-4530
▁विनोद	-4531
▁विभाग	-4532
▁शम्भु	-4533
▁समझता	-4534
▁समाधि	-4535
▁सम्मत	-4536
▁हँसते	-4537
▁अँगूठी	-4538
▁अध्ययन	-4539
▁अनुसरण	-4540
▁अपशकुन	-4541
▁आदरणीय	-4542
▁इकट्ठा	-4543
▁कलिकाल	-4544
▁कवियों	-4545
▁गिरिजे	-4546
▁चाँदनी	-4547
▁जाएंगे	-4548
▁तैयारी	-4549
▁त्रेता	-4550
▁दौड़ीं	-4551
▁नुकसान	-4552
▁पधारिए	-4553
▁पहचाना	-4554
▁पुराने	-4555
▁प्रपंच	-4556
▁बढ़ाकर	-4557
▁बिगाड़	-4558
▁बिछाकर	-4559
▁मुझमें	-4560
▁याचकों	-4561
▁यात्रा	-4562
▁लड़कपन	-4563
▁सासुएँ	-4564
▁स्वामि	-4565
▁होनहार	-4566
▁अज्ञानी	-4567
▁आकर्षित	-4568
▁इष्टदेव	-4569
▁उच्चारण	-4570
▁करुणामय	-4571
▁कृपाधाम	-4572
▁गन्धर्व	-4573
▁देवर्षि	-4574
▁नक्षत्र	-4575
▁नगाड़ों	-4576
▁मिलेंगे	-4577
▁योग्यता	-4578
▁विकारों	-4579
▁विमानों	-4580
▁व्याप्त	-4581
▁सुकुमार	-4582
▁हालांकि	-4583
▁हिमवान्	-4584
▁आवश्यकता	-4585
▁पर्वतराज	-4586
▁पीताम्बर	-4587
▁रघुवीरजी	-4588
▁शतानंदजी	-4589
▁संन्यासी	-4590
▁समुद्रों	-4591
▁सर्वोच्च	-4592
▁सुकुमारी	-4593
▁सुबुद्धि	-4594
▁इच्छारहित	-4595
▁चतुरंगिणी	-4596
▁करुणानिधान	-4597
▁त्रिपुरारि	-4598
ds	-4599
in	-4600
और	-4601
चक	-4602
जर	-4603
जु	-4604
दो	-4605
बु	-4606
रो	-4607
सच	-4608
्भ	-4609
▁[	-4610
ंजस	-4611
ंसक	-4612
एवम	-4613
काज	-4614
घवन	-4615
चीत	-4616
जकर	-4617
जूद	-4618
टने	-4619
ड़ो	-4620
ढ़ा	-4621
थित	-4622
पटा	-4623
पान	-4624
पूर	-4625
रेश	-4626
वटी	-4627
वर्	-4628
वल्	-4629
विध	-4630
वीण	-4631
शकश	-4632
सने	-4633
सूर	-4634
स्स	-4635
ाथा	-4636
ाथे	-4637
िका	-4638
िने	-4639
ुली	-4640
▁आख	-4641
▁उग	-4642
▁गँ	-4643
▁घं	-4644
▁तन	-4645
▁बट	-4646
▁वस	-4647
▁शठ	-4648
,॥5॥	-4649
अवसर	-4650
इयाँ	-4651
उसकी	-4652
खण्ड	-4653
खारी	-4654
गमगा	-4655
चाने	-4656
दण्ड	-4657
न्मे	-4658
पोषण	-4659
बंधु	-4660
बुरे	-4661
मान्	-4662
वनों	-4663
वानल	-4664
वाना	-4665
शिरा	-4666
श्चि	-4667
स्थल	-4668
स्वी	-4669
स्सी	-4670
हुति	-4671
ह्वल	-4672
िकता	-4673
ित्व	-4674
ोषणा	-4675
ोषित	-4676
॥120	-4677
॥15॥	-4678
॥16॥	-4679
॥18॥	-4680
▁अमो	-4681
▁आऊँ	-4682
▁आर्	-4683
▁एकर	-4684
▁औषध	-4685
▁कंक	-4686
▁कंज	-4687
▁कौआ	-4688
▁खाए	-4689
▁खोल	-4690
▁गला	-4691
▁गाई	-4692
▁गृह	-4693
▁चाव	-4694
▁चौक	-4695
▁छवि	-4696
▁जले	-4697
▁जाल	-4698
▁झपट	-4699
▁ताम	-4700
▁दही	-4701
▁दाय	-4702
▁धनी	-4703
▁धर्	-4704
▁धोए	-4705
▁नशे	-4706
▁निः	-4707
▁पाठ	-4708
▁पेय	-4709
▁बदल	-4710
▁बृह	-4711
▁भंग	-4712
▁भ्र	-4713
▁मत्	-4714
▁महो	-4715
▁मृत	-4716
▁रची	-4717
▁रचे	-4718
▁लीन	-4719
▁लोह	-4720
▁सजे	-4721
▁सता	-4722
▁साफ	-4723
▁सूत	-4724
▁होश	-4725
क्षेप	-4726
जयकार	-4727
धारित	-4728
पक्षी	-4729
बन्धु	-4730
रावती	-4731
विचार	-4732
ष्ठुर	-4733
सुंदर	-4734
▁अतीत	-4735
▁अस्त	-4736
▁अहित	-4737
▁आदेश	-4738
▁आवें	-4739
▁उठता	-4740
▁उड़ा	-4741
▁काटे	-4742
▁काली	-4743
▁काशी	-4744
▁कुएँ	-4745
▁खाते	-4746
▁गाली	-4747
▁गूढ़	-4748
▁चकवा	-4749
▁चुका	-4750
▁जवाब	-4751
▁जारी	-4752
▁जूते	-4753
▁झूठी	-4754
▁डरती	-4755
▁डालो	-4756
▁डुबो	-4757
▁तोता	-4758
▁थकित	-4759
▁दर्श	-4760
▁दाता	-4761
▁दिला	-4762
▁नखों	-4763
▁नरेश	-4764
▁पाऊँ	-4765
▁पाला	-4766
▁पीछा	-4767
▁पीते	-4768
▁पीले	-4769
▁पूछे	-4770
▁बँधे	-4771
▁बाईं	-4772
▁भावी	-4773
▁भेजी	-4774
▁भोली	-4775
▁मक्ख	-4776
▁मिलन	-4777
▁मुंह	-4778
▁मोती	-4779
▁रोती	-4780
▁लग्न	-4781
▁विनी	-4782
▁विरु	-4783
▁विवश	-4784
▁श्रो	-4785
▁संशय	-4786
▁साधक	-4787
▁सिवा	-4788
▁सीते	-4789
▁हँसा	-4790
▁होइए	-4791
ंगनाएँ	-4792
चन्द्र	-4793
ज्ञवल्	-4794
ड़ियाँ	-4795
त्रिका	-4796
धुरंधर	-4797
श्रुओं	-4798
सत्कार	-4799
्भकर्ण	-4800
▁अक्षय	-4801
▁अधर्म	-4802
▁आग्रह	-4803
▁आश्रय	-4804
▁आहुति	-4805
▁उतरने	-4806
▁उत्सु	-4807
▁कामना	-4808
▁कितनी	-4809
▁किसका	-4810
▁किसने	-4811
▁किससे	-4812
▁कीड़े	-4813
▁कुबरी	-4814
▁कुसंग	-4815
▁क्षीर	-4816
▁खजाने	-4817
▁गरजते	-4818
▁गहनों	-4819
▁गिरने	-4820
▁गीतों	-4821
▁घोषणा	-4822
▁घोषित	-4823
▁चीजों	-4824
▁चौड़ी	-4825
▁जलाकर	-4826
▁जागते	-4827
▁जितना	-4828
▁ठहरने	-4829
▁डगमगा	-4830
▁डूबते	-4831
▁दशमुख	-4832
▁दीनता	-4833
▁दुर्व	-4834
▁दूल्ह	-4835
▁देखें	-4836
▁दौरान	-4837
▁धार्म	-4838
▁नवाते	-4839
▁निहार	-4840
▁न्याय	-4841
▁पछाड़	-4842
▁पड़ीं	-4843
▁परमपद	-4844
▁पश्चि	-4845
▁पालने	-4846
▁पेशकश	-4847
▁प्रथम	-4848
▁प्रेत	-4849
▁बधावे	-4850
▁बनाता	-4851
▁बनाते	-4852
▁बलवती	-4853
▁बुलाए	-4854
▁बूढ़े	-4855
▁बेहाल	-4856
▁भरपूर	-4857
▁भागकर	-4858
▁भावना	-4859
▁महत्व	-4860
▁माँगो	-4861
▁रवाना	-4862
▁रस्सी	-4863
▁रुधिर	-4864
▁रोकने	-4865
▁लक्षण	-4866
▁लगाने	-4867
▁लगेगी	-4868
▁लड़ने	-4869
▁लौटते	-4870
▁विघ्न	-4871
▁विनाश	-4872
▁विलास	-4873
▁शिष्य	-4874
▁संधान	-4875
▁सजाया	-4876
▁समझना	-4877
▁सामना	-4878
▁सुनना	-4879
▁सूचित	-4880
▁स्थित	-4881
▁हासिल	-4882
एवमस्तु	-4883
स्पतिजी	-4884
▁अंधेरे	-4885
▁अजन्मे	-4886
▁अवधपति	-4887
▁अविवेक	-4888
▁असमंजस	-4889
▁उतारने	-4890
▁कुतर्क	-4891
▁गलियों	-4892
▁चिट्ठी	-4893
▁छोड़ने	-4894
▁जंगलों	-4895
▁जनवासे	-4896
▁दिखलाई	-4897
▁दृढ़ता	-4898
▁द्रव्य	-4899
▁नायकों	-4900
▁निकलता	-4901
▁नियमों	-4902
▁निर्दय	-4903
▁निशाचर	-4904
▁निहोरा	-4905
▁पड़ेगा	-4906
▁परेशान	-4907
▁पुष्पक	-4908
▁पूर्वक	-4909
▁प्यासे	-4910
▁प्रधान	-4911
▁प्रवाह	-4912
▁प्रवीण	-4913
▁फैलाया	-4914
▁बढ़ाया	-4915
▁बातचीत	-4916
▁बेचारे	-4917
▁भिखारी	-4918
▁मिटाने	-4919
▁रखवाली	-4920
▁रत्नों	-4921
▁रहेंगे	-4922
▁रोमांच	-4923
▁विभूति	-4924
▁शिखरों	-4925
▁संकल्प	-4926
▁समर्पण	-4927
▁सम्पदा	-4928
▁साँवला	-4929
▁साधनों	-4930
▁साधारण	-4931
▁सिहाते	-4932
▁सुनाता	-4933
▁सुमुखि	-4934
▁सुवर्ण	-4935
▁सुहाती	-4936
▁हिस्से	-4937
▁हृदयों	-4938
▁अमरावती	-4939
▁उपस्थित	-4940
▁क्लेशों	-4941
▁क्षुब्ध	-4942
▁दशग्रीव	-4943
▁निष्ठुर	-4944
▁पत्रिका	-4945
▁परमानंद	-4946
▁प्रतिभा	-4947
▁मित्रों	-4948
▁राक्षसी	-4949
▁विश्वभर	-4950
▁शोकरहित	-4951
▁सम्पाती	-4952
▁सर्वत्र	-4953
▁सर्वस्व	-4954
▁सावधानी	-4955
▁सुनेंगे	-4956
▁स्वयंवर	-4957
ज्ञवल्क्य	-4958
मासपारायण	-4959
▁अप्सराएँ	-4960
▁उत्पत्ति	-4961
▁उपमारहित	-4962
▁दीनबन्धु	-4963
▁पतिव्रता	-4964
▁पूर्णकाम	-4965
▁प्रदर्शन	-4966
▁मंदाकिनी	-4967
▁मूर्च्छा	-4968
▁व्यवस्था	-4969
▁शक्तियों	-4970
▁कुम्भकर्ण	-4971
▁धर्मात्मा	-4972
▁निर्धारित	-4973
▁निर्विकार	-4974
▁पुरुषार्थ	-4975
▁प्रतिष्ठा	-4976
▁मिथिलापति	-4977
▁मूर्च्छित	-4978
▁विरुदावली	-4979
▁श्रीरामजी	-4980
▁अन्तर्यामी	-4981
▁इन्द्रियों	-4982
▁देवांगनाएँ	-4983
▁धर्मधुरंधर	-4984
▁बृहस्पतिजी	-4985
▁याज्ञवल्क्य	-4986
▁प्रेमाश्रुओं	-4987
!'	-4988
'।	-4989
sa	-4990
कृ	-4991
छे	-4992
टन	-4993
ट्	-4994
थन	-4995
धक	-4996
यो	-4997
रद	-4998
रू	-4999
हृ	-5000
ुए	-5001
ुत	-5002
ौन	-5003
▁o	-5004
-5॥	-5005
1।।	-5006
2।।	-5007
3।।	-5008
5।।	-5009
?॥7	-5010
ंकु	-5011
अचर	-5012
ऋतु	-5013
काय	-5014
कीय	-5015
कृत	-5016
खते	-5017
खों	-5018
जते	-5019
टका	-5020
ट्ट	-5021
तरस	-5022
तरह	-5023
तूत	-5024
दुर	-5025
द्‍	-5026
नील	-5027
पटे	-5028
पाश	-5029
पोक	-5030
प्प	-5031
फ्ट	-5032
बना	-5033
रघु	-5034
लाश	-5035
वाई	-5036
विद	-5037
वीं	-5038
शीश	-5039
हाय	-5040
हेज	-5041
हों	-5042
होश	-5043
िये	-5044
ुगन	-5045
ेरी	-5046
ैंड	-5047
ैषी	-5048
▁आठ	-5049
▁एह	-5050
▁कछ	-5051
▁घब	-5052
▁ठग	-5053
▁फी	-5054
▁फु	-5055
▁मम	-5056
▁मय	-5057
▁शय	-5058
▁शौ	-5059
▁सव	-5060
▁हट	-5061
▁॥3	-5062
ंचित	-5063
ंथरा	-5064
ंद्व	-5065
अपना	-5066
कटकी	-5067
कहीं	-5068
कांत	-5069
काओं	-5070
क्कर	-5071
क्षः	-5072
गाढ़	-5073
झाकर	-5074
त्सव	-5075
धर्म	-5076
नंदन	-5077
पक्ष	-5078
पेटे	-5079
प्रद	-5080
भलकर	-5081
मंगल	-5082
र्णय	-5083
र्तन	-5084
र्दन	-5085
वाही	-5086
वेगा	-5087
ष्टि	-5088
सिंह	-5089
सिका	-5090
हरों	-5091
हवाँ	-5092
हृद्	-5093
िरोध	-5094
ुलंद	-5095
ोड़ा	-5096
॥116	-5097
॥117	-5098
॥17॥	-5099
॥24॥	-5100
॥25॥	-5101
॥26॥	-5102
॥27॥	-5103
॥28॥	-5104
॥40॥	-5105
॥41॥	-5106
॥44॥	-5107
॥45॥	-5108
▁अहा	-5109
▁आइए	-5110
▁आड़	-5111
▁उल्	-5112
▁कथन	-5113
▁कुर	-5114
▁खाओ	-5115
▁खास	-5116
▁खिस	-5117
▁गदा	-5118
▁चर्	-5119
▁चुन	-5120
▁चूर	-5121
▁जोश	-5122
▁डरा	-5123
▁डाँ	-5124
▁ढंग	-5125
▁ढहा	-5126
▁तार	-5127
▁तैर	-5128
▁दमन	-5129
▁दीप	-5130
▁दुख	-5131
▁धधक	-5132
▁धरो	-5133
▁धान	-5134
▁नहा	-5135
▁पहि	-5136
▁पिघ	-5137
▁फेन	-5138
▁फेर	-5139
▁बैर	-5140
▁भगव	-5141
▁भया	-5142
▁रखो	-5143
▁रमा	-5144
▁रिश	-5145
▁रोष	-5146
▁लूँ	-5147
▁वली	-5148
▁वृष	-5149
▁शयन	-5150
▁शुक	-5151
▁सघन	-5152
▁साल	-5153
▁सीट	-5154
▁हवन	-5155
काण्ड	-5156
क्षात	-5157
जीवनी	-5158
ड़ाकर	-5159
ण्डार	-5160
दिष्ट	-5161
दीर्ण	-5162
देवता	-5163
पकड़ो	-5164
पात्र	-5165
भंगजी	-5166
भावना	-5167
लाचार	-5168
वस्था	-5169
वानों	-5170
व्यों	-5171
शक्ति	-5172
ानन्द	-5173
िल्ला	-5174
ूर्ति	-5175
▁अंधा	-5176
▁अग्र	-5177
▁अमीर	-5178
▁अमोघ	-5179
▁आँचल	-5180
▁आचार	-5181
▁आतुर	-5182
▁उपवन	-5183
▁उलटा	-5184
▁एकरस	-5185
▁कपाल	-5186
▁कांप	-5187
▁काले	-5188
▁कौशल	-5189
▁खाता	-5190
▁खारा	-5191
▁खेती	-5192
▁गाता	-5193
▁गायक	-5194
▁चँवर	-5195
▁चकवी	-5196
▁चलती	-5197
▁जड़े	-5198
▁जननी	-5199
▁जनों	-5200
▁जपते	-5201
▁जलती	-5202
▁जानी	-5203
▁जुगन	-5204
▁ठंडी	-5205
▁ठट्ट	-5206
▁ठहरा	-5207
▁डरकर	-5208
▁तलाश	-5209
▁ताकि	-5210
▁दानी	-5211
▁दूरी	-5212
▁धुआँ	-5213
▁नीची	-5214
▁पंखु	-5215
▁पढ़ा	-5216
▁पतरस	-5217
▁पथिक	-5218
▁परको	-5219
▁पसंद	-5220
▁पहली	-5221
▁पीकर	-5222
▁प्रह	-5223
▁बताए	-5224
▁बाँस	-5225
▁बाना	-5226
▁बारह	-5227
▁बिल्	-5228
▁भागा	-5229
▁माथे	-5230
▁मारो	-5231
▁मुर्	-5232
▁यहूद	-5233
▁युवा	-5234
▁रक्ष	-5235
▁रोते	-5236
▁लाना	-5237
▁लिखा	-5238
▁लिपट	-5239
▁विषम	-5240
▁वेदी	-5241
▁शंका	-5242
▁शांत	-5243
▁शासक	-5244
▁संयम	-5245
▁सकूँ	-5246
▁सजाओ	-5247
▁समझो	-5248
▁समता	-5249
▁सहकर	-5250
▁सुती	-5251
▁सोया	-5252
▁स्थल	-5253
▁हथेल	-5254
▁हाहा	-5255
पकड़कर	-5256
श्वरों	-5257
समुद्र	-5258
िनियाँ	-5259
▁अंकित	-5260
▁अक्षर	-5261
▁आऊँगा	-5262
▁ऋद्धि	-5263
▁एकत्र	-5264
▁कंगाल	-5265
▁कंजूस	-5266
▁करतूत	-5267
▁कराकर	-5268
▁कांति	-5269
▁कामों	-5270
▁किसके	-5271
▁कुलीन	-5272
▁कूदकर	-5273
▁खलबली	-5274
▁खेलते	-5275
▁गरजने	-5276
▁गिनते	-5277
▁चक्कर	-5278
▁चढ़ाए	-5279
▁चमकते	-5280
▁चलाया	-5281
▁छिपाव	-5282
▁जाओगे	-5283
▁जागने	-5284
▁टकटकी	-5285
▁डरपोक	-5286
▁तमाशा	-5287
▁तानकर	-5288
▁तुझको	-5289
▁तोड़े	-5290
▁दूँगी	-5291
▁धनुर्	-5292
▁निमेष	-5293
▁पपीहे	-5294
▁फेंका	-5295
▁बगीचे	-5296
▁बछड़े	-5297
▁बरसाए	-5298
▁बर्तन	-5299
▁बिखरे	-5300
▁बेसमझ	-5301
▁बेहोश	-5302
▁भक्षक	-5303
▁भड़का	-5304
▁भीलनी	-5305
▁भूदेव	-5306
▁भेजकर	-5307
▁मंथरा	-5308
▁मच्छर	-5309
▁मत्सर	-5310
▁मनाकर	-5311
▁महलों	-5312
▁मारना	-5313
▁मार्च	-5314
▁यहोवा	-5315
▁रसीले	-5316
▁रूपों	-5317
▁लड़ते	-5318
▁लताओं	-5319
▁लौकिक	-5320
▁वक्षः	-5321
▁वनगमन	-5322
▁विधवा	-5323
▁विनीत	-5324
▁विषयी	-5325
▁व्याध	-5326
▁शय्या	-5327
▁श्रीम	-5328
▁सँवार	-5329
▁संतजन	-5330
▁संभाल	-5331
▁सकतीं	-5332
▁समझिए	-5333
▁साथरी	-5334
▁स्वाद	-5335
▁हँसने	-5336
▁हत्या	-5337
▁हिंसक	-5338
पुराणों	-5339
र्याप्त	-5340
शिरोमणि	-5341
▁अँधेरा	-5342
▁अधिकार	-5343
▁अनुमति	-5344
▁अभ्यास	-5345
▁अशुद्ध	-5346
▁अहंकार	-5347
▁इकट्ठे	-5348
▁इन्हीं	-5349
▁उत्सुक	-5350
▁कठिनता	-5351
▁कल्पना	-5352
▁कायरता	-5353
▁कृपासि	-5354
▁कोलाहल	-5355
▁गलियाँ	-5356
▁गायकों	-5357
▁गिरिजा	-5358
▁गृहस्थ	-5359
▁गौरीजी	-5360
▁चतुरता	-5361
▁चेष्टा	-5362
▁छोड़ते	-5363
▁जाएंगी	-5364
▁दक्षिण	-5365
▁दिखाकर	-5366
▁दोस्ती	-5367
▁नासिका	-5368
▁निर्णय	-5369
▁नीलकमल	-5370
▁पकड़ते	-5371
▁परमगति	-5372
▁पुरानी	-5373
▁प्रमाण	-5374
▁प्रिया	-5375
▁फैलाकर	-5376
▁बतलाते	-5377
▁बराबरी	-5378
▁बहादुर	-5379
▁बिछुड़	-5380
▁भण्डार	-5381
▁भुवनों	-5382
▁मन्थरा	-5383
▁महादेव	-5384
▁मेहमान	-5385
▁यथार्थ	-5386
▁रहिएगा	-5387
▁राजहंस	-5388
▁रिश्ते	-5389
▁रेखाएँ	-5390
▁लीलाओं	-5391
▁लौटाया	-5392
▁विचरते	-5393
▁विचरने	-5394
▁विह्वल	-5395
▁वृद्धि	-5396
▁व्यथित	-5397
▁व्यापे	-5398
▁सन्धान	-5399
▁समाजों	-5400
▁साँपों	-5401
▁सुअवसर	-5402
▁सुखधाम	-5403
▁सुनहरा	-5404
▁सुहृद्	-5405
▁सौंपकर	-5406
▁स्वागत	-5407
▁हंसिनी	-5408
▁हितैषी	-5409
शत्रुघ्न	-5410
▁अभागिनी	-5411
▁एकमात्र	-5412
▁कामनाओं	-5413
▁कुमारों	-5414
▁क्रुद्ध	-5415
▁ग्रंथों	-5416
▁चिह्नों	-5417
▁जातियों	-5418
▁डालूँगा	-5419
▁तेजस्वी	-5420
▁दिखलाकर	-5421
▁दीनबंधु	-5422
▁दुर्वचन	-5423
▁देखूँगा	-5424
▁द्वंद्व	-5425
▁निकालकर	-5426
▁निपुणता	-5427
▁पत्थरों	-5428
▁पुरवासी	-5429
▁प्रगाढ़	-5430
▁मनोहरता	-5431
▁मुनिनाथ	-5432
▁मूर्खता	-5433
▁ललकारते	-5434
▁विख्यात	-5435
▁विदीर्ण	-5436
▁विशुद्ध	-5437
▁वृषकेतु	-5438
▁शरभंगजी	-5439
▁शीघ्रता	-5440
▁संक्षेप	-5441
▁संजीवनी	-5442
▁संदेहों	-5443
▁समदर्शी	-5444
▁साक्षात	-5445
▁सीतापति	-5446
▁हरिभक्त	-5447
▁अग्निदेव	-5448
▁तिरस्कार	-5449
▁त्रिशिरा	-5450
▁धैर्यवान	-5451
▁निर्वासन	-5452
▁परमात्मा	-5453
▁पहुँचाकर	-5454
▁प्रकाशित	-5455
▁प्राणनाथ	-5456
▁प्राणपति	-5457
▁यहूदियों	-5458
▁लोकपालों	-5459
▁वस्त्रों	-5460
▁सद्गुणों	-5461
▁सीढ़ियाँ	-5462
▁सुसज्जित	-5463
▁सुहागिनी	-5464
▁गुणसमूहों	-5465
▁दुर्भाग्य	-5466
▁धर्मपरायण	-5467
▁धार्मिकता	-5468
▁प्रयागराज	-5469
▁प्रसिद्धि	-5470
▁व्याकुलता	-5471
▁सिद्धियों	-5472
▁सुतीक्ष्ण	-5473
▁स्वादिष्ट	-5474
▁आनंदपूर्वक	-5475
▁इच्छानुसार	-5476
▁क्रोधयुक्त	-5477
▁पुरवासियों	-5478
▁प्रतिष्ठित	-5479
▁प्रेमयुक्त	-5480
▁ब्रह्मचारी	-5481
▁ब्रह्मानंद	-5482
▁मुनीश्वरों	-5483
▁विधिपूर्वक	-5484
▁वैराग्यवान्	-5485
▁सर्वश्रेष्ठ	-5486
▁ब्रह्माण्डों	-5487
▁सच्चिदानंदघन	-5488
?'	-5489
an	-5490
ty	-5491
उप	-5492
ऋण	-5493
कप	-5494
खो	-5495
छो	-5496
ठा	-5497
ठे	-5498
ड्	-5499
ढे	-5500
दश	-5501
नर	-5502
पू	-5503
फ़	-5504
षे	-5505
सस	-5506
सौ	-5507
हन	-5508
िट	-5509
ुआ	-5510
ृध	-5511
ैल	-5512
▁3	-5513
▁b	-5514
ँघर	-5515
ंके	-5516
ंजी	-5517
ंडल	-5518
ंदु	-5519
गार	-5520
गों	-5521
ग्ध	-5522
घात	-5523
घ्य	-5524
चना	-5525
चेत	-5526
जयी	-5527
जाल	-5528
टुक	-5529
ड्स	-5530
ताल	-5531
तिर	-5532
दशर	-5533
दित	-5534
दों	-5535
धनी	-5536
निज	-5537
नेऊ	-5538
पने	-5539
पृथ	-5540
बाद	-5541
भवन	-5542
भोग	-5543
माल	-5544
म्प	-5545
म्य	-5546
रें	-5547
र्ट	-5548
र्स	-5549
लीं	-5550
शनी	-5551
सभा	-5552
हरण	-5553
हिन	-5554
िंग	-5555
ुवे	-5556
ोचर	-5557
्ता	-5558
्पा	-5559
्रु	-5560
▁ओट	-5561
▁गल	-5562
▁दय	-5563
▁धी	-5564
▁नै	-5565
▁फा	-5566
▁मू	-5567
▁रत	-5568
▁॥2	-5569
-॥5॥	-5570
ँगकर	-5571
ंसार	-5572
करते	-5573
कराल	-5574
कहते	-5575
कांड	-5576
गामी	-5577
च्ची	-5578
जन्म	-5579
टिका	-5580
त्तर	-5581
त्ती	-5582
दायी	-5583
दिनी	-5584
दिशा	-5585
देही	-5586
धनुष	-5587
धन्य	-5588
नयनी	-5589
नाशक	-5590
निधि	-5591
न्दर	-5592
न्दा	-5593
प्रे	-5594
बाहा	-5595
बूतर	-5596
भुवन	-5597
मानि	-5598
याने	-5599
र्जा	-5600
लज्ज	-5601
वाला	-5602
शाला	-5603
श्री	-5604
सर्व	-5605
सूरत	-5606
ानुक	-5607
िकथा	-5608
िक्र	-5609
ित्त	-5610
ियां	-5611
ियार	-5612
ूपुर	-5613
ृध्र	-5614
ोगुण	-5615
ोचित	-5616
्यार	-5617
्वीप	-5618
॥109	-5619
॥118	-5620
॥19॥	-5621
॥23॥	-5622
॥29॥	-5623
॥35॥	-5624
॥36॥	-5625
॥37॥	-5626
॥42॥	-5627
॥46॥	-5628
॥47॥	-5629
॥50॥	-5630
॥51॥	-5631
॥53॥	-5632
॥54॥	-5633
॥55॥	-5634
॥59॥	-5635
▁अचर	-5636
▁अटल	-5637
▁अरु	-5638
▁आधी	-5639
▁आयु	-5640
▁कसम	-5641
▁कसे	-5642
▁किल	-5643
▁कीं	-5644
▁कैक	-5645
▁कैद	-5646
▁खुल	-5647
▁खेत	-5648
▁खोप	-5649
▁गड्	-5650
▁गली	-5651
▁गूँ	-5652
▁घुम	-5653
▁छाल	-5654
▁जहर	-5655
▁ज्व	-5656
▁टाल	-5657
▁टेक	-5658
▁डंड	-5659
▁डिग	-5660
▁ढाल	-5661
▁दाम	-5662
▁धूम	-5663
▁निज	-5664
▁पचा	-5665
▁पसी	-5666
▁पॉल	-5667
▁पौर	-5668
▁बकर	-5669
▁बुझ	-5670
▁भद्	-5671
▁मगर	-5672
▁मचा	-5673
▁मति	-5674
▁मरक	-5675
▁माम	-5676
▁रीझ	-5677
▁रूई	-5678
▁लाओ	-5679
▁लिख	-5680
▁लीं	-5681
▁लूट	-5682
▁वरे	-5683
▁वल्	-5684
▁विल	-5685
▁शहद	-5686
▁शिष	-5687
▁शेर	-5688
▁शोध	-5689
▁सजी	-5690
▁सने	-5691
▁सहन	-5692
▁सहे	-5693
▁सित	-5694
▁सीप	-5695
▁सोल	-5696
▁हरा	-5697
▁॥7॥	-5698
ंगलिक	-5699
चढ़कर	-5700
टियों	-5701
थियों	-5702
देखते	-5703
नाथजी	-5704
निष्ठ	-5705
न्त्र	-5706
भिचार	-5707
र्धान	-5708
ान्ति	-5709
्यक्त	-5710
।।2।।	-5711
।।3।।	-5712
॥4-5॥	-5713
▁अन्ध	-5714
▁अप्र	-5715
▁अबला	-5716
▁असली	-5717
▁आखिर	-5718
▁इनाम	-5719
▁उतरा	-5720
▁उतरे	-5721
▁उमंग	-5722
▁उलटे	-5723
▁ऋक्ष	-5724
▁कसकर	-5725
▁कारी	-5726
▁कुचल	-5727
▁गहरा	-5728
▁गाकर	-5729
▁गुणी	-5730
▁ग्रस	-5731
▁घिरी	-5732
▁चलिए	-5733
▁चाहा	-5734
▁चिंग	-5735
▁चोटी	-5736
▁चौथे	-5737
▁छत्र	-5738
▁जनेऊ	-5739
▁जलचर	-5740
▁जाया	-5741
▁जीती	-5742
▁जीसस	-5743
▁झड़ी	-5744
▁झरने	-5745
▁झुका	-5746
▁झूठे	-5747
▁डंके	-5748
▁डुबा	-5749
▁डेरे	-5750
▁तत्व	-5751
▁तमसा	-5752
▁तरंग	-5753
▁तोरण	-5754
▁दहेज	-5755
▁देवर	-5756
▁ध्रु	-5757
▁नवाए	-5758
▁निधि	-5759
▁नौकर	-5760
▁नौका	-5761
▁पखवा	-5762
▁पत्र	-5763
▁परवश	-5764
▁पाले	-5765
▁पिघल	-5766
▁पितर	-5767
▁पीली	-5768
▁बजाए	-5769
▁बटोर	-5770
▁बनती	-5771
▁बहता	-5772
▁बहती	-5773
▁बावल	-5774
▁भँवर	-5775
▁भागी	-5776
▁भाता	-5777
▁भाषण	-5778
▁योनि	-5779
▁रसों	-5780
▁रसोई	-5781
▁रहिए	-5782
▁रेशम	-5783
▁लगाई	-5784
▁लाइए	-5785
▁लाता	-5786
▁लिखे	-5787
▁लोहे	-5788
▁वर्त	-5789
▁शमौन	-5790
▁शराब	-5791
▁श्रे	-5792
▁संभव	-5793
▁सकें	-5794
▁सप्त	-5795
▁समझे	-5796
▁समधी	-5797
▁सम्ह	-5798
▁सर्ग	-5799
▁साथी	-5800
▁सींच	-5801
▁सीधा	-5802
▁सुखद	-5803
▁सुधि	-5804
▁सोता	-5805
▁हाँक	-5806
▁हीरे	-5807
▁होनी	-5808
▁।।11	-5809
ंसारिक	-5810
काण्डे	-5811
क्ताओं	-5812
दुकाओं	-5813
द्रोही	-5814
भालुओं	-5815
रात्रि	-5816
वानरों	-5817
शाचरों	-5818
स्त्री	-5819
स्सर्ग	-5820
ानुकूल	-5821
िक्रमा	-5822
्यानाथ	-5823
्रीड़ा	-5824
▁अखण्ड	-5825
▁अगोचर	-5826
▁अनीति	-5827
▁अपहरण	-5828
▁असत्य	-5829
▁असहाय	-5830
▁आंखों	-5831
▁आसक्त	-5832
▁उछलकर	-5833
▁उठाने	-5834
▁उड़कर	-5835
▁उपवास	-5836
▁उपहास	-5837
▁उपासक	-5838
▁उल्लू	-5839
▁ऊर्जा	-5840
▁एहसान	-5841
▁कबूतर	-5842
▁करधनी	-5843
▁कराके	-5844
▁कलाओं	-5845
▁किरात	-5846
▁कुरूप	-5847
▁कृपाण	-5848
▁क्षेम	-5849
▁खोजने	-5850
▁खोलकर	-5851
▁गर्जन	-5852
▁गवाही	-5853
▁गिरकर	-5854
▁गृध्र	-5855
▁घुँघर	-5856
▁घूँसा	-5857
▁घोड़ा	-5858
▁चमकती	-5859
▁चलाने	-5860
▁चाहने	-5861
▁जन्तु	-5862
▁जन्मे	-5863
▁जयन्त	-5864
▁जलपान	-5865
▁जुगनू	-5866
▁ड्राइ	-5867
▁तीसरे	-5868
▁त्रिक	-5869
▁दबाया	-5870
▁दशशीश	-5871
▁दिखने	-5872
▁दुबले	-5873
▁दुलहि	-5874
▁दुलार	-5875
▁द्विज	-5876
▁नचाते	-5877
▁नचाया	-5878
▁नागिन	-5879
▁नागों	-5880
▁नाचते	-5881
▁नूपुर	-5882
▁नृत्य	-5883
▁पकड़ो	-5884
▁पड़कर	-5885
▁पाखंड	-5886
▁पाताल	-5887
▁पालकी	-5888
▁पिछले	-5889
▁प्रती	-5890
▁फिरकर	-5891
▁फुलवा	-5892
▁बढ़ने	-5893
▁बताएं	-5894
▁बलैया	-5895
▁बाँके	-5896
▁बाँधा	-5897
▁बाँधे	-5898
▁बाध्य	-5899
▁बावली	-5900
▁बीसों	-5901
▁बुलंद	-5902
▁बेटों	-5903
▁बोलता	-5904
▁भरपेट	-5905
▁भोगों	-5906
▁भौंरा	-5907
▁मक्खन	-5908
▁मनुजी	-5909
▁महीना	-5910
▁मिलाप	-5911
▁मौजूद	-5912
▁याचना	-5913
▁रमानि	-5914
▁रुण्ड	-5915
▁रोशनी	-5916
▁लगाना	-5917
▁लगेगा	-5918
▁लड़के	-5919
▁लातों	-5920
▁लौटना	-5921
▁वक्ता	-5922
▁विजयी	-5923
▁विदेश	-5924
▁विप्र	-5925
▁विराध	-5926
▁शार्ग	-5927
▁शून्य	-5928
▁श्वास	-5929
▁सकेगा	-5930
▁सखाओं	-5931
▁सत्ता	-5932
▁समझने	-5933
▁सयाने	-5934
▁सरलता	-5935
▁सहारे	-5936
▁सियार	-5937
▁सुकवि	-5938
▁सुनाओ	-5939
▁सेवित	-5940
▁हारकर	-5941
▁हितकर	-5942
▁हिरनी	-5943
▁होंगी	-5944
वैराग्य	-5945
स्त्रों	-5946
ारविन्द	-5947
िलेश्वर	-5948
▁अगवानी	-5949
▁अतुलित	-5950
▁अपराधी	-5951
▁अभिषेक	-5952
▁अर्घ्य	-5953
▁अवधपुर	-5954
▁आँसुओं	-5955
▁आर्त्त	-5956
▁आश्रित	-5957
▁उत्पात	-5958
▁कन्दरा	-5959
▁करूँगी	-5960
▁कल्पों	-5961
▁कहलाते	-5962
▁काँपने	-5963
▁किवाड़	-5964
▁कुजाति	-5965
▁कुत्ते	-5966
▁कुमारी	-5967
▁खिलाने	-5968
▁खींचकर	-5969
▁चमकदार	-5970
▁चिल्ला	-5971
▁छलरहित	-5972
▁छिपाकर	-5973
▁जनवासा	-5974
▁जाऊँगी	-5975
▁ज्वाला	-5976
▁तरंगों	-5977
▁तिरहुत	-5978
▁दावानल	-5979
▁दाहिनी	-5980
▁दुर्बल	-5981
▁दुलहिन	-5982
▁दुस्तर	-5983
▁दूल्हे	-5984
▁देवलोक	-5985
▁धर्मों	-5986
▁नागपाश	-5987
▁निकलकर	-5988
▁निकलती	-5989
▁निबाहा	-5990
▁पंचवटी	-5991
▁पछताने	-5992
▁पछतावा	-5993
▁परिवाद	-5994
▁पुराना	-5995
▁पूजनीय	-5996
▁प्यासा	-5997
▁बतलाइए	-5998
▁बर्बाद	-5999
▁बाराती	-6000
▁बाहुबल	-6001
▁बूँदों	-6002
▁भालुओं	-6003
▁भिड़ते	-6004
▁मँगवाए	-6005
▁मनचाही	-6006
▁महामोह	-6007
▁मालाएँ	-6008
▁मिटेगा	-6009
▁मित्रा	-6010
▁मिलेगी	-6011
▁मुट्ठी	-6012
▁मूँदकर	-6013
▁मूर्छा	-6014
▁रघुनाथ	-6015
▁रघुराज	-6016
▁लाँघकर	-6017
▁वनवासी	-6018
▁वर्णित	-6019
▁वाटिका	-6020
▁वामदेव	-6021
▁विकराल	-6022
▁विभूषण	-6023
▁वैदेही	-6024
▁शरीरों	-6025
▁संदेसा	-6026
▁संसृति	-6027
▁सत्त्व	-6028
▁सभासद्	-6029
▁समझाने	-6030
▁सुग्री	-6031
▁सुनहरे	-6032
▁सुबाहु	-6033
▁हरिकथा	-6034
▁हिस्सा	-6035
▁अन्धकार	-6036
▁अर्थात्	-6037
▁अव्यक्त	-6038
▁आश्रमों	-6039
▁इच्छाओं	-6040
▁कार्यों	-6041
▁ड्राफ्ट	-6042
▁तलवारें	-6043
▁त्यागने	-6044
▁दर्शनों	-6045
▁दायित्व	-6046
▁दासियाँ	-6047
▁दिखलाते	-6048
▁देखेंगे	-6049
▁दोस्तों	-6050
▁निर्दयी	-6051
▁निर्देश	-6052
▁निष्कपट	-6053
▁परछाहीं	-6054
▁पुष्पों	-6055
▁प्रेमरस	-6056
▁बिल्कुल	-6057
▁भवानीजी	-6058
▁भुजदण्ड	-6059
▁मांगलिक	-6060
▁मानरहित	-6061
▁मृगनयनी	-6062
▁रघुनंदन	-6063
▁लक्षणों	-6064
▁वरदानों	-6065
▁वर्तमान	-6066
▁वस्तुओं	-6067
▁वासनाएँ	-6068
▁व्यापते	-6069
▁शिष्यों	-6070
▁सँवारकर	-6071
▁संबंधित	-6072
▁सत्ययुग	-6073
▁समृद्धि	-6074
▁स्थापना	-6075
▁हाहाकार	-6076
▁अग्निबाण	-6077
▁अटारियों	-6078
▁गिरिजाजी	-6079
▁गुरुजनों	-6080
▁त्रिशंकु	-6081
▁निर्लज्ज	-6082
▁निशाचरों	-6083
▁पदार्थों	-6084
▁परिक्रमा	-6085
▁पर्याप्त	-6086
▁पवनकुमार	-6087
▁पहुँचाने	-6088
▁पालकियाँ	-6089
▁पुलस्त्य	-6090
▁बलिदानों	-6091
▁बिछुड़ते	-6092
▁मंगलदायक	-6093
▁रमानिवास	-6094
▁राजपुत्र	-6095
▁लेशमात्र	-6096
▁वास्तविक	-6097
▁विज्ञानी	-6098
▁व्यापारी	-6099
▁शरणागतों	-6100
▁शरीरधारी	-6101
▁सम्मानित	-6102
▁सवारियों	-6103
▁सांसारिक	-6104
▁हथेलियों	-6105
▁चन्द्रमुख	-6106
▁ज्ञानियों	-6107
▁निष्ठुरता	-6108
▁प्रेमरूपी	-6109
▁वक्षःस्थल	-6110
▁वाल्मीकीय	-6111
▁श्यामवर्ण	-6112
▁श्रुतियों	-6113
▁संस्कारों	-6114
▁समयानुकूल	-6115
▁अयोध्यानाथ	-6116
▁कुशलपूर्वक	-6117
▁पंखुड़ियों	-6118
▁प्राणप्रिय	-6119
▁मिथिलेश्वर	-6120
▁मुस्कुराते	-6121
▁सेनापतियों	-6122
▁ब्रह्मांडों	-6123
▁श्रद्धांजलि	-6124
▁विश्वासपात्र	-6125
▁प्रसन्नतापूर्वक	-6126
10	-6127
ar	-6128
th	-6129
ँक	-6130
इन	-6131
इस	-6132
ईस	-6133
उम	-6134
गज	-6135
गन	-6136
छी	-6137
टर	-6138
ठी	-6139
डे	-6140
ण्	-6141
तः	-6142
तृ	-6143
दस	-6144
फट	-6145
फी	-6146
मत	-6147
लल	-6148
वध	-6149
शः	-6150
श्	-6151
षक	-6152
सन	-6153
हट	-6154
ीण	-6155
ूथ	-6156
ेट	-6157
ेय	-6158
ैव	-6159
ोम	-6160
।'	-6161
▁)	-6162
▁ष	-6163
4।।	-6164
eds	-6165
ँकि	-6166
ंकी	-6167
ंगत	-6168
ंदी	-6169
ंधन	-6170
ंबर	-6171
कंद	-6172
कने	-6173
कभी	-6174
कीं	-6175
कुण	-6176
कुश	-6177
कोई	-6178
खला	-6179
खित	-6180
गीय	-6181
गोश	-6182
घाट	-6183
चस्	-6184
चाल	-6185
चों	-6186
ज़ा	-6187
जुन	-6188
जुल	-6189
झकर	-6190
ठान	-6191
ड़स	-6192
तर्	-6193
तली	-6194
थ्य	-6195
दकर	-6196
दशा	-6197
धित	-6198
धीन	-6199
नें	-6200
पाद	-6201
ब्ब	-6202
यदि	-6203
यीं	-6204
रंग	-6205
रूश	-6206
लाभ	-6207
लाम	-6208
लेम	-6209
लोच	-6210
वले	-6211
वाए	-6212
वित	-6213
विर	-6214
साब	-6215
साम	-6216
सुत	-6217
सूस	-6218
ह्न	-6219
़ड़	-6220
ापन	-6221
ापर	-6222
ावत	-6223
ासन	-6224
िनि	-6225
ियस	-6226
ूँड	-6227
ूँढ	-6228
ूदा	-6229
ूलि	-6230
ेंद	-6231
ेली	-6232
ॉर्	-6233
ोगी	-6234
्मत	-6235
्यु	-6236
॥39	-6237
॥80	-6238
▁कद	-6239
▁घन	-6240
▁छी	-6241
▁जम	-6242
▁झी	-6243
▁टल	-6244
▁थक	-6245
▁नह	-6246
▁लख	-6247
▁शे	-6248
▁हल	-6249
!॥11	-6250
-॥6॥	-6251
?॥23	-6252
ंछित	-6253
ंजाल	-6254
ःकरण	-6255
ःकाम	-6256
उनके	-6257
उसके	-6258
एंगे	-6259
कालत	-6260
कोटि	-6261
गड़ा	-6262
गाँव	-6263
गामि	-6264
चकित	-6265
चर्य	-6266
चित्	-6267
टकटा	-6268
ण्टक	-6269
तीजी	-6270
त्ता	-6271
थनीय	-6272
दशरथ	-6273
दादि	-6274
दारी	-6275
दुर्	-6276
द्रव	-6277
नेमि	-6278
न्धर	-6279
पीछे	-6280
फटिक	-6281
बाजी	-6282
बूढ़	-6283
भारी	-6284
मायण	-6285
माया	-6286
रादे	-6287
रुचि	-6288
रूपा	-6289
लब्ध	-6290
वाते	-6291
वासा	-6292
विधा	-6293
वेली	-6294
व्रत	-6295
शांत	-6296
श्चा	-6297
श्यप	-6298
ष्णा	-6299
सीता	-6300
स्ता	-6301
स्से	-6302
हूर्	-6303
ामाय	-6304
ार्य	-6305
ासुर	-6306
ुरुआ	-6307
ूर्य	-6308
ूल्य	-6309
ैतान	-6310
्रोत	-6311
्वचा	-6312
्वाज	-6313
॥101	-6314
॥108	-6315
॥119	-6316
॥124	-6317
॥20॥	-6318
॥30॥	-6319
॥31॥	-6320
॥32॥	-6321
॥33॥	-6322
॥34॥	-6323
॥39॥	-6324
॥43॥	-6325
॥56॥	-6326
॥57॥	-6327
॥58॥	-6328
॥60॥	-6329
॥61॥	-6330
॥64॥	-6331
॥65॥	-6332
॥।2॥	-6333
▁अघा	-6334
▁अरण	-6335
▁असर	-6336
▁अहो	-6337
▁आति	-6338
▁आधे	-6339
▁आवा	-6340
▁आवे	-6341
▁उऋण	-6342
▁उता	-6343
▁ओले	-6344
▁कठि	-6345
▁कदा	-6346
▁करी	-6347
▁कलह	-6348
▁कुँ	-6349
▁कूज	-6350
▁खंभ	-6351
▁खुर	-6352
▁खेद	-6353
▁खोह	-6354
▁गढ़	-6355
▁गरी	-6356
▁गाए	-6357
▁घटा	-6358
▁घनी	-6359
▁घाव	-6360
▁चिर	-6361
▁चुग	-6362
▁चों	-6363
▁छटा	-6364
▁छाए	-6365
▁छेद	-6366
▁छोर	-6367
▁जाप	-6368
▁झील	-6369
▁डटे	-6370
▁डोल	-6371
▁तौर	-6372
▁थके	-6373
▁थाल	-6374
▁दंभ	-6375
▁दधी	-6376
▁दुह	-6377
▁धनु	-6378
▁नमक	-6379
▁निच	-6380
▁निव	-6381
▁नीर	-6382
▁पक्	-6383
▁पलट	-6384
▁फिट	-6385
▁बचे	-6386
▁बसी	-6387
▁बहन	-6388
▁बहे	-6389
▁बान	-6390
▁बेध	-6391
▁मंच	-6392
▁मास	-6393
▁मैल	-6394
▁मौत	-6395
▁यूथ	-6396
▁रोप	-6397
▁रोम	-6398
▁वजह	-6399
▁शाम	-6400
▁संघ	-6401
▁सखे	-6402
▁सर्	-6403
▁सौत	-6404
▁स्ट	-6405
▁हल्	-6406
▁हेम	-6407
▁॥12	-6408
▁॥6॥	-6409
ँवरें	-6410
कटाकर	-6411
कन्या	-6412
कपड़े	-6413
कराते	-6414
कारकर	-6415
कुण्ठ	-6416
ग्रंथ	-6417
ग्रहण	-6418
चस्पी	-6419
चित्त	-6420
ढ़ाकर	-6421
ढ़ापा	-6422
णियों	-6423
दोषों	-6424
द्धार	-6425
निधान	-6426
निपुण	-6427
पुराण	-6428
भीलों	-6429
यनाजी	-6430
र्गीय	-6431
लक्षण	-6432
वत्सल	-6433
वर्ती	-6434
वशाली	-6435
वाजों	-6436
विमुख	-6437
वृन्द	-6438
व्रती	-6439
सजाकर	-6440
सामान	-6441
स्ट्र	-6442
हूर्त	-6443
ानिधि	-6444
िकाने	-6445
ुर्ती	-6446
्घाड़	-6447
्याचल	-6448
।।1।।	-6449
।।4।।	-6450
।।5।।	-6451
▁अद्व	-6452
▁अश्व	-6453
▁आएगा	-6454
▁आकार	-6455
▁आचमन	-6456
▁आवास	-6457
▁उठना	-6458
▁उतने	-6459
▁उलझे	-6460
▁ऊंचा	-6461
▁ऊंचे	-6462
▁एकटक	-6463
▁औषधि	-6464
▁कंकण	-6465
▁कटने	-6466
▁कराओ	-6467
▁कराल	-6468
▁काति	-6469
▁कामा	-6470
▁कालि	-6471
▁किला	-6472
▁खाली	-6473
▁खोले	-6474
▁गजमु	-6475
▁गणना	-6476
▁गदहे	-6477
▁गाधि	-6478
▁गायन	-6479
▁गेंद	-6480
▁घड़े	-6481
▁घेरा	-6482
▁चढ़ी	-6483
▁चलाई	-6484
▁चलाए	-6485
▁चिग्	-6486
▁चुनौ	-6487
▁छूते	-6488
▁जपकर	-6489
▁जबरद	-6490
▁जवान	-6491
▁जागा	-6492
▁जीना	-6493
▁जुड़	-6494
▁टलता	-6495
▁ठहरे	-6496
▁ठाना	-6497
▁डूबे	-6498
▁तहाँ	-6499
▁ताका	-6500
▁तिथि	-6501
▁तोमर	-6502
▁दलों	-6503
▁दावत	-6504
▁दिग्	-6505
▁दुखी	-6506
▁दूना	-6507
▁देवि	-6508
▁दोषी	-6509
▁धरते	-6510
▁नंगा	-6511
▁नवयु	-6512
▁नाभि	-6513
▁निःश	-6514
▁निगल	-6515
▁पखार	-6516
▁पचास	-6517
▁परिघ	-6518
▁परोप	-6519
▁पलँग	-6520
▁पहरे	-6521
▁पाना	-6522
▁प्रल	-6523
▁फलते	-6524
▁फाड़	-6525
▁फैली	-6526
▁बंधु	-6527
▁बजाओ	-6528
▁बनते	-6529
▁बरगद	-6530
▁बसकर	-6531
▁बहरा	-6532
▁बाँच	-6533
▁बाँझ	-6534
▁बाँह	-6535
▁बुझा	-6536
▁बेटी	-6537
▁बेहद	-6538
▁भव्य	-6539
▁भाने	-6540
▁भाया	-6541
▁भारद	-6542
▁भुवन	-6543
▁भूला	-6544
▁मथकर	-6545
▁मरकत	-6546
▁मवेश	-6547
▁मोटा	-6548
▁यक्ष	-6549
▁यरूश	-6550
▁यहीं	-6551
▁योगा	-6552
▁रखिए	-6553
▁रहूँ	-6554
▁रोके	-6555
▁लायक	-6556
▁लालच	-6557
▁लेगा	-6558
▁लोहा	-6559
▁वंशज	-6560
▁वनों	-6561
▁वासी	-6562
▁विरा	-6563
▁वीणा	-6564
▁शबरी	-6565
▁शाखा	-6566
▁शिशु	-6567
▁संगी	-6568
▁सपने	-6569
▁साहस	-6570
▁सींग	-6571
▁सुभी	-6572
▁सूँड	-6573
▁स्टी	-6574
▁हमला	-6575
▁हमसे	-6576
▁हितू	-6577
▁होऊँ	-6578
ंत्रों	-6579
कीर्ति	-6580
गामिनी	-6581
टुकड़े	-6582
रामायण	-6583
र्माना	-6584
ानरहित	-6585
ामायने	-6586
िनियों	-6587
िश्चित	-6588
ुलियाँ	-6589
ुष्ठान	-6590
▁अंकुश	-6591
▁अगम्य	-6592
▁अदिति	-6593
▁अनन्य	-6594
▁आसपास	-6595
▁आसानी	-6596
▁इनकार	-6597
▁उड़ने	-6598
▁उत्ते	-6599
▁एकांत	-6600
▁कटकटा	-6601
▁कपड़ा	-6602
▁कमलवन	-6603
▁कश्यप	-6604
▁काँटे	-6605
▁कारों	-6606
▁काव्य	-6607
▁कितने	-6608
▁कुंडल	-6609
▁कुपित	-6610
▁कुम्ह	-6611
▁कुयोग	-6612
▁क्षीण	-6613
▁खरगोश	-6614
▁खातिर	-6615
▁खानें	-6616
▁खेलने	-6617
▁गँवार	-6618
▁गजराज	-6619
▁गड्ढे	-6620
▁गर्दन	-6621
▁गाड़ी	-6622
▁गिद्ध	-6623
▁गिरना	-6624
▁घुटने	-6625
▁घुड़स	-6626
▁घूमकर	-6627
▁चकोरी	-6628
▁चमकता	-6629
▁चर्चा	-6630
▁चितवन	-6631
▁चौराह	-6632
▁छूटती	-6633
▁जगाया	-6634
▁जानवर	-6635
▁जानें	-6636
▁जीभें	-6637
▁झपटते	-6638
▁झुकना	-6639
▁टूटने	-6640
▁टेककर	-6641
▁ठोड़ी	-6642
▁तमककर	-6643
▁तमतमा	-6644
▁तामसी	-6645
▁तीरों	-6646
▁तीव्र	-6647
▁तीसरा	-6648
▁तोड़ा	-6649
▁त्वचा	-6650
▁थालों	-6651
▁दण्डक	-6652
▁दिखता	-6653
▁दुबला	-6654
▁दूंगा	-6655
▁दृश्य	-6656
▁देखीं	-6657
▁धधकती	-6658
▁धनवान	-6659
▁धुनकर	-6660
▁ध्रुव	-6661
▁नश्वर	-6662
▁निकली	-6663
▁निकले	-6664
▁निराश	-6665
▁पतंगे	-6666
▁पलकें	-6667
▁पसीने	-6668
▁पहनने	-6669
▁पावें	-6670
▁पूछती	-6671
▁पौरुष	-6672
▁प्रभा	-6673
▁बकवाद	-6674
▁बखानी	-6675
▁बचाया	-6676
▁बतलाए	-6677
▁बत्ती	-6678
▁बनाना	-6679
▁बलहीन	-6680
▁बहनों	-6681
▁बावला	-6682
▁बावले	-6683
▁बीतते	-6684
▁बीमार	-6685
▁बेचैन	-6686
▁बेड़ा	-6687
▁बेलें	-6688
▁बैठते	-6689
▁बैलों	-6690
▁भगवन्	-6691
▁भजनों	-6692
▁भाटों	-6693
▁भिक्ष	-6694
▁भीलों	-6695
▁भेजता	-6696
▁मध्यम	-6697
▁मनाते	-6698
▁ममत्व	-6699
▁मर्दन	-6700
▁महसूस	-6701
▁माघवन	-6702
▁मानने	-6703
▁मानों	-6704
▁मारूँ	-6705
▁मुग्ध	-6706
▁मुण्ड	-6707
▁मूल्य	-6708
▁रसीली	-6709
▁राजमद	-6710
▁लगाता	-6711
▁लजाने	-6712
▁लड़की	-6713
▁लताएँ	-6714
▁लपेटे	-6715
▁लवलेश	-6716
▁लहरें	-6717
▁लहरों	-6718
▁लिपटे	-6719
▁लुप्त	-6720
▁लूंगा	-6721
▁लौटने	-6722
▁वंचित	-6723
▁वंदित	-6724
▁वकालत	-6725
▁वसन्त	-6726
▁विचरण	-6727
▁विधान	-6728
▁विवाद	-6729
▁शहनाई	-6730
▁शहरों	-6731
▁शिरोध	-6732
▁शुरुआ	-6733
▁शैतान	-6734
▁श्वेत	-6735
▁सँभाल	-6736
▁संगति	-6737
▁सकुशल	-6738
▁सफलता	-6739
▁सम्रा	-6740
▁सरीखा	-6741
▁सुरसा	-6742
▁सूचना	-6743
▁सैनिक	-6744
▁स्रोत	-6745
▁हथेली	-6746
▁हवेली	-6747
▁हिंसा	-6748
▁हिलने	-6749
▁हिसाब	-6750
चंद्रजी	-6751
देवताओं	-6752
नारियों	-6753
पुरासुर	-6754
▁अंगदजी	-6755
▁अकथनीय	-6756
▁अनिष्ट	-6757
▁अर्पित	-6758
▁आवागमन	-6759
▁आवेंगे	-6760
▁उतावली	-6761
▁उद्धार	-6762
▁उपद्रव	-6763
▁उपायों	-6764
▁कपड़ों	-6765
▁कहलाता	-6766
▁कारणों	-6767
▁कुचाली	-6768
▁कोमलता	-6769
▁कोयलें	-6770
▁क्रमशः	-6771
▁खिसिया	-6772
▁गिराया	-6773
▁गुसाईं	-6774
▁गुस्से	-6775
▁चंचलता	-6776
▁चलेंगे	-6777
▁चुराने	-6778
▁छोड़ना	-6779
▁जन्मभर	-6780
▁जाऊंगा	-6781
▁जोरदार	-6782
▁ड्राइव	-6783
▁ताकतवर	-6784
▁तुम्हे	-6785
▁तोड़ता	-6786
▁दिशाएँ	-6787
▁दूल्हा	-6788
▁दैवयोग	-6789
▁दौड़ता	-6790
▁द्वापर	-6791
▁नेताओं	-6792
▁परछाईं	-6793
▁पराधीन	-6794
▁पवनसुत	-6795
▁पहाड़ी	-6796
▁पहुंचे	-6797
▁पहुनाई	-6798
▁पाऊँगा	-6799
▁पापिनी	-6800
▁पुकारा	-6801
▁पूछताछ	-6802
▁प्रचार	-6803
▁फुर्ती	-6804
▁बटोरकर	-6805
▁बढ़ाने	-6806
▁बिलखकर	-6807
▁बूँदें	-6808
▁बेचारा	-6809
▁बेचारी	-6810
▁ब्यायी	-6811
▁भामिनि	-6812
▁भामिनी	-6813
▁मकरन्द	-6814
▁मणियाँ	-6815
▁मनःकाम	-6816
▁महानता	-6817
▁मात्रा	-6818
▁यज्ञों	-6819
▁रखवाले	-6820
▁रखेंगे	-6821
▁रामनाम	-6822
▁लज्जित	-6823
▁लड़कों	-6824
▁वन्दित	-6825
▁वृष्टि	-6826
▁व्यक्त	-6827
▁शार्गं	-6828
▁शीतलता	-6829
▁संकोची	-6830
▁सकेंगे	-6831
▁सद्गुण	-6832
▁समझदार	-6833
▁ससुराल	-6834
▁सुनाना	-6835
▁सुन्दर	-6836
▁सुहाते	-6837
▁सेनाएँ	-6838
▁स्फटिक	-6839
▁हिरनों	-6840
प्रतिज्ञ	-6841
▁अकुलाकर	-6842
▁अक्षयवट	-6843
▁अमंगलों	-6844
▁आत्माओं	-6845
▁ऋक्षराज	-6846
▁कटकटाकर	-6847
▁कर्णफूल	-6848
▁कालनेमि	-6849
▁कोसलनाथ	-6850
▁क्रीड़ा	-6851
▁घबड़ाकर	-6852
▁जनस्थान	-6853
▁जलयुक्त	-6854
▁त्रिकूट	-6855
▁दरिद्री	-6856
▁देवगुरु	-6857
▁देवतागण	-6858
▁द्विविद	-6859
▁धनुर्धर	-6860
▁निमित्त	-6861
▁नियुक्त	-6862
▁निर्माण	-6863
▁निर्वाह	-6864
▁निहारना	-6865
▁पश्चिमी	-6866
▁पाँवड़े	-6867
▁पुकारने	-6868
▁प्रियजन	-6869
▁बाललीला	-6870
▁बुढ़ापा	-6871
▁मंगलमयी	-6872
▁मंत्रों	-6873
▁मनोरथों	-6874
▁महेश्वर	-6875
▁महोत्सव	-6876
▁मानिएगा	-6877
▁मुकुन्द	-6878
▁मुस्कान	-6879
▁मुहूर्त	-6880
▁मूर्खों	-6881
▁यरूशलेम	-6882
▁रंगभूमि	-6883
▁राजसमाज	-6884
▁रोमावली	-6885
▁ललकारकर	-6886
▁विचारों	-6887
▁वैकुण्ठ	-6888
▁संकोचवश	-6889
▁सकुचाता	-6890
▁सकुचाती	-6891
▁सद्गुरु	-6892
▁सम्पन्न	-6893
▁सर्पराज	-6894
▁सितारों	-6895
▁सुखदायी	-6896
▁सुधारकर	-6897
▁हालाँकि	-6898
द्रामायने	-6899
▁अनुष्ठान	-6900
▁आदिकाव्य	-6901
▁आनंदकन्द	-6902
▁आनंदमग्न	-6903
▁कुमुदिनी	-6904
▁कृतज्ञता	-6905
▁गृध्रराज	-6906
▁घुँघराले	-6907
▁चिग्घाड़	-6908
▁जबरदस्ती	-6909
▁जुर्माना	-6910
▁तारागणों	-6911
▁त्रिभुवन	-6912
▁दिनोंदिन	-6913
▁दिलचस्पी	-6914
▁दुर्वासा	-6915
▁धनुषयज्ञ	-6916
▁निष्पक्ष	-6917
▁पत्नियों	-6918
▁पवित्रता	-6919
▁पुरस्कार	-6920
▁प्रभावित	-6921
▁प्रभुत्व	-6922
▁प्रियतमा	-6923
▁प्रेममयी	-6924
▁फुलवाड़ी	-6925
▁बावलियाँ	-6926
▁भाग्यहीन	-6927
▁भारद्वाज	-6928
▁मवेशियों	-6929
▁योगाग्नि	-6930
▁रामविमुख	-6931
▁विनम्रता	-6932
▁विश्वनाथ	-6933
▁वेदमार्ग	-6934
▁व्यापेगा	-6935
▁सत्संगति	-6936
▁सारथियों	-6937
▁सुनयनाजी	-6938
▁सुमन्त्र	-6939
▁स्वर्गीय	-6940
▁स्वामिन्	-6941
▁स्वार्थी	-6942
▁हनुमानजी	-6943
▁अंतर्यामी	-6944
▁कर्तव्यों	-6945
▁चिंग्घाड़	-6946
▁दिक्पालों	-6947
▁दुर्भावना	-6948
▁नियंत्रित	-6949
▁पंक्तियों	-6950
▁पुत्रियों	-6951
▁बुद्धिमती	-6952
▁ब्रह्मादि	-6953
▁भविष्यद्व	-6954
▁मूर्तियाँ	-6955
▁योगिनियाँ	-6956
▁रघुवंशमणि	-6957
▁राक्षसराज	-6958
▁रिश्तेदार	-6959
▁शास्त्रों	-6960
▁शिरोधार्य	-6961
▁सुग्रीवजी	-6962
▁सुनिश्चित	-6963
▁अभिमानरहित	-6964
▁कल्याणकारी	-6965
▁कृपासिन्धु	-6966
▁चरणारविन्द	-6967
▁नगरवासियों	-6968
▁प्रेमपूर्ण	-6969
▁व्यक्तियों	-6970
▁स्वतंत्रता	-6971
▁आश्चर्यचकित	-6972
▁त्रिपुरासुर	-6973
▁ब्रह्मविचार	-6974
▁विज्ञानवान्	-6975
▁सत्यप्रतिज्ञ	-6976
▁स्वार्थपरायण	-6977
▁याज्ञवल्क्यजी	-6978
▁विस्तारपूर्वक	-6979
▁श्रीमद्रामायने	-6980
▁श्रीरामचंद्रजी	-6981
!!	-6982
',	-6983
..	-6984
at	-6985
da	-6986
is	-6987
st	-6988
ंछ	-6989
ंट	-6990
उल	-6991
गू	-6992
घम	-6993
जक	-6994
जि	-6995
टल	-6996
डो	-6997
तक	-6998
तो	-6999
21	-7000
थर	-7001
पत	-7002
पह	-7003
फर	-7004
फु	-7005
फे	-7006
बस	-7007
भो	-7008
मै	-7009
मो	-7010
मौ	-7011
रक	-7012
लस	-7013
हम	-7014
ैर	-7015
।)	-7016
▁*	-7017
▁4	-7018
▁w	-7019
▁y	-7020
▁‍	-7021
▁’	-7022
ers	-7023
ins	-7024
ँगू	-7025
ँड़	-7026
ँडे	-7027
ंघन	-7028
ंडन	-7029
ंड़	-7030
ंधु	-7031
ंपा	-7032
आरी	-7033
कवि	-7034
कशि	-7035
कास	-7036
किस	-7037
कुर	-7038
खड़	-7039
गिर	-7040
ग्व	-7041
चान	-7042
चूर	-7043
जनी	-7044
जोर	-7045
टके	-7046
टेर	-7047
ढता	-7048
ढ़ी	-7049
णिक	-7050
ण्ठ	-7051
तना	-7052
तरी	-7053
तूह	-7054
तृक	-7055
थान	-7056
दंग	-7057
दड़	-7058
दाव	-7059
दूत	-7060
नाग	-7061
निर	-7062
पटु	-7063
पते	-7064
पाप	-7065
प्य	-7066
बता	-7067
बाज	-7068
भरा	-7069
भरे	-7070
भरो	-7071
माग	-7072
माम	-7073
मुन	-7074
रकर	-7075
रीद	-7076
रीय	-7077
ल्प	-7078
वही	-7079
वाक	-7080
विन	-7081
विय	-7082
वीय	-7083
वेद	-7084
वेर	-7085
शान	-7086
शेष	-7087
षेण	-7088
ष्म	-7089
संभ	-7090
सकर	-7091
सखा	-7092
सरी	-7093
सले	-7094
हाल	-7095
ह्य	-7096
़ार	-7097
ादि	-7098
ापे	-7099
ste	-7100
जिन	-7101
टता	-7102
भाई	-7103
मृग	-7104
ामी	-7105
ालय	-7106
ालि	-7107
िणा	-7108
िती	-7109
ियन	-7110
िरे	-7111
िलो	-7112
ींग	-7113
ुलस	-7114
ुशी	-7115
ूंद	-7116
ैंस	-7117
ोकर	-7118
ोचन	-7119
ोदय	-7120
ोपा	-7121
ोबल	-7122
ोरी	-7123
ौते	-7124
्चल	-7125
॥38	-7126
▁sa	-7127
▁th	-7128
▁उब	-7129
▁कड	-7130
▁ख़	-7131
▁खि	-7132
▁घृ	-7133
▁चै	-7134
▁छव	-7135
▁टा	-7136
▁टि	-7137
▁ठु	-7138
▁ढल	-7139
▁ढी	-7140
▁तद	-7141
▁तय	-7142
▁थर	-7143
▁पय	-7144
▁पो	-7145
▁फँ	-7146
▁फ़	-7147
▁बौ	-7148
▁रट	-7149
▁शं	-7150
▁॥5	-7151
'॥3॥	-7152
-॥25	-7153
-॥27	-7154
?॥30	-7155
?॥8॥	-7156
vins	-7157
ंकृत	-7158
ंग्य	-7159
ंडों	-7160
ंदेह	-7161
ंधार	-7162
उन्ह	-7163
काया	-7164
कारण	-7165
कीले	-7166
कुंठ	-7167
कृति	-7168
क्या	-7169
गद्‍	-7170
गाथा	-7171
गुना	-7172
ग्रे	-7173
चनीय	-7174
चर्म	-7175
च्चा	-7176
च्छा	-7177
च्छे	-7178
ड़ाई	-7179
ड़ाम	-7180
तूहल	-7181
त्तम	-7182
द्दे	-7183
नाशा	-7184
निर्	-7185
न्तन	-7186
न्दी	-7187
न्दु	-7188
न्ने	-7189
पर्क	-7190
पाँच	-7191
पाने	-7192
पारी	-7193
प्रस	-7194
बहुत	-7195
भद्र	-7196
भाला	-7197
भ्रम	-7198
मंडल	-7199
!॥22	-7200
कुत्	-7201
माघम	-7202
माना	-7203
मैना	-7204
म्बा	-7205
यकाल	-7206
राशि	-7207
लाती	-7208
लावा	-7209
वल्य	-7210
वस्व	-7211
वाहन	-7212
वेशी	-7213
श्कि	-7214
सरों	-7215
सर्प	-7216
सुना	-7217
सेडो	-7218
स्मा	-7219
हाकर	-7220
हिना	-7221
़ड़े	-7222
़बूत	-7223
ाद्ध	-7224
ाद्य	-7225
ामाण	-7226
ारंभ	-7227
ारीर	-7228
ार्ट	-7229
ालीस	-7230
ुमार	-7231
ुरेद	-7232
ुसार	-7233
ूर्ण	-7234
ृत्त	-7235
ैंसे	-7236
ॉर्ड	-7237
्नलि	-7238
्लाद	-7239
्वना	-7240
्हीं	-7241
॥110	-7242
॥122	-7243
॥21॥	-7244
॥38॥	-7245
॥48॥	-7246
॥49॥	-7247
॥62॥	-7248
॥63॥	-7249
॥66॥	-7250
॥67॥	-7251
॥68॥	-7252
॥69॥	-7253
॥70॥	-7254
॥72॥	-7255
॥81॥	-7256
॥83॥	-7257
॥84॥	-7258
॥85॥	-7259
॥86॥	-7260
॥87॥	-7261
॥88॥	-7262
॥91॥	-7263
॥92॥	-7264
॥93॥	-7265
॥94॥	-7266
॥95॥	-7267
॥96॥	-7268
॥97॥	-7269
॥98॥	-7270
॥99॥	-7271
॥।1॥	-7272
▁ste	-7273
▁अखा	-7274
▁अजर	-7275
▁अरी	-7276
▁अवल	-7277
▁आधा	-7278
▁उदर	-7279
▁ऊनी	-7280
▁कब्	-7281
▁कमा	-7282
▁कमी	-7283
▁कलि	-7284
▁काई	-7285
▁काग	-7286
▁काठ	-7287
▁गरम	-7288
▁गहन	-7289
▁गार	-7290
▁गोध	-7291
▁गोर	-7292
▁गोल	-7293
▁घटे	-7294
▁घसी	-7295
▁घात	-7296
▁घों	-7297
▁चात	-7298
▁चिक	-7299
ौरव	-7300
वादन	-7301
॥121	-7302
▁चीर	-7303
▁चुभ	-7304
▁चूम	-7305
▁छुआ	-7306
▁झरो	-7307
▁झलक	-7308
▁झाँ	-7309
▁टिक	-7310
▁टोप	-7311
▁ठगे	-7312
▁डपट	-7313
▁डरो	-7314
▁ढँक	-7315
▁ढूं	-7316
▁तने	-7317
▁दवा	-7318
▁दूब	-7319
▁धँस	-7320
▁निभ	-7321
▁नेग	-7322
▁परो	-7323
▁पला	-7324
▁पाओ	-7325
▁पिए	-7326
▁फरी	-7327
▁फला	-7328
▁फसल	-7329
▁फाय	-7330
▁फुल	-7331
▁बगल	-7332
▁बरस	-7333
▁बली	-7334
▁बिठ	-7335
▁भजा	-7336
▁भाए	-7337
▁भित	-7338
▁भोर	-7339
▁मंग	-7340
▁मगन	-7341
▁मां	-7342
▁माई	-7343
▁माप	-7344
▁मुर	-7345
▁मेल	-7346
▁मोम	-7347
▁मौर	-7348
▁यति	-7349
▁रखव	-7350
▁रेत	-7351
▁लकी	-7352
▁लघु	-7353
▁लपट	-7354
▁लाउ	-7355
▁लेट	-7356
▁लोम	-7357
▁वरन	-7358
▁वात	-7359
▁वैध	-7360
▁शची	-7361
▁शिश	-7362
▁शौच	-7363
▁सना	-7364
▁सरा	-7365
▁सरो	-7366
▁साग	-7367
▁सेज	-7368
▁सेट	-7369
▁हरी	-7370
▁हिन	-7371
▁॥8॥	-7372
ँवरों	-7373
ंजीवी	-7374
ंद्वी	-7375
कर्ता	-7376
कर्मा	-7377
कशिपु	-7378
कृत्य	-7379
क्पटु	-7380
क्षेम	-7381
घोड़े	-7382
जन्तु	-7383
जानकी	-7384
दावरी	-7385
दुःखी	-7386
निपात	-7387
नियां	-7388
पश्चा	-7389
पीटकर	-7390
प्रेत	-7391
फिरता	-7392
बनाकर	-7393
बूझकर	-7394
भरोसा	-7395
मित्र	-7396
मियों	-7397
मैंने	-7398
राक्ष	-7399
राज्य	-7400
राबोर	-7401
र्मित	-7402
र्यक्	-7403
लोचनी	-7404
वस्वत	-7405
वाहित	-7406
वियोग	-7407
शीलता	-7408
श्किल	-7409
श्रित	-7410
श्वास	-7411
संतों	-7412
संभार	-7413
समझकर	-7414
सूर्य	-7415
स्थों	-7416
ाभूषण	-7417
ितीया	-7418
िलोकी	-7419
ेच्छा	-7420
ोड़कर	-7421
्टहास	-7422
्यादि	-7423
्याही	-7424
्युदय	-7425
॥100॥	-7426
॥102॥	-7427
॥103॥	-7428
॥104॥	-7429
॥105॥	-7430
॥106॥	-7431
॥107॥	-7432
॥108॥	-7433
॥110॥	-7434
॥126॥	-7435
॥127॥	-7436
▁अचेत	-7437
▁अठार	-7438
▁अरुण	-7439
▁अष्ट	-7440
▁अस्थ	-7441
▁आयुध	-7442
▁आर्य	-7443
▁इंदु	-7444
▁इनसे	-7445
▁ईंधन	-7446
▁उग्र	-7447
▁उछला	-7448
▁उठाए	-7449
▁उतना	-7450
▁उद्य	-7451
▁उम्र	-7452
▁ऊँची	-7453
▁ऐंड़	-7454
▁कँगू	-7455
▁कछुए	-7456
▁कटहल	-7457
▁कड़ा	-7458
▁कड़ी	-7459
▁कड़े	-7460
▁कतार	-7461
▁कबंध	-7462
▁करीब	-7463
▁कहान	-7464
▁कहार	-7465
▁काजल	-7466
▁कुआँ	-7467
▁कुमत	-7468
▁कूसा	-7469
▁केला	-7470
▁केले	-7471
▁खंजन	-7472
▁खाना	-7473
▁खारे	-7474
▁खेला	-7475
▁खोला	-7476
▁गदगद	-7477
▁गद्‍	-7478
▁गलील	-7479
▁गवाह	-7480
▁गाती	-7481
▁गाथा	-7482
▁गाना	-7483
▁गिने	-7484
▁गुजर	-7485
▁गोता	-7486
▁गोरा	-7487
▁ग्री	-7488
▁घातक	-7489
▁घिरा	-7490
▁घिरे	-7491
▁घुसा	-7492
▁चिता	-7493
▁चुकी	-7494
▁चुगल	-7495
▁चोंच	-7496
▁चोरी	-7497
▁चौपट	-7498
▁चौपा	-7499
▁छन्द	-7500
▁छिपे	-7501
▁छीने	-7502
▁छूने	-7503
▁जपता	-7504
▁जपने	-7505
▁जयंत	-7506
▁जलने	-7507
▁जांच	-7508
▁जानो	-7509
▁जुटा	-7510
▁जोड़	-7511
▁ज्वर	-7512
▁झाड़	-7513
▁झुलस	-7514
▁टाले	-7515
▁ठंडा	-7516
▁डंडी	-7517
▁डरता	-7518
▁डरना	-7519
▁डींग	-7520
▁ढूँढ	-7521
▁तरने	-7522
▁ताजा	-7523
▁तिला	-7524
▁तीखे	-7525
▁दांत	-7526
▁दिखे	-7527
▁देगी	-7528
▁देरी	-7529
▁धीरे	-7530
▁धुएँ	-7531
▁धोखा	-7532
▁ध्वज	-7533
▁नवों	-7534
▁नहला	-7535
▁नाता	-7536
▁नास्	-7537
▁निरी	-7538
▁नीलक	-7539
▁पंपा	-7540
▁पद्म	-7541
▁परात	-7542
▁पहरा	-7543
▁पावन	-7544
▁पिंज	-7545
▁पीटर	-7546
▁पीपल	-7547
▁पीला	-7548
▁पोषण	-7549
▁प्रव	-7550
▁फंदे	-7551
▁फीकी	-7552
▁बंदन	-7553
▁बकरा	-7554
▁बचपन	-7555
▁बचाव	-7556
▁बजते	-7557
▁बटेर	-7558
▁बढ़ी	-7559
▁बताई	-7560
▁बनकर	-7561
▁बपति	-7562
▁बसिए	-7563
▁बाज़	-7564
▁बालू	-7565
▁बूंद	-7566
▁बैंक	-7567
▁बैनर	-7568
▁बोया	-7569
▁भजने	-7570
▁भाले	-7571
▁भावे	-7572
▁भीरु	-7573
▁भूखा	-7574
▁भूखे	-7575
▁भेजो	-7576
▁भेड़	-7577
▁भैंस	-7578
▁भैया	-7579
▁मंडल	-7580
▁मघवन	-7581
▁मजदू	-7582
▁मथने	-7583
▁मदार	-7584
▁महाम	-7585
▁मांग	-7586
▁मीठा	-7587
▁मृतक	-7588
▁याचक	-7589
▁युगल	-7590
▁रखती	-7591
▁रखें	-7592
▁रचते	-7593
▁रचने	-7594
▁रहनी	-7595
▁राजन	-7596
▁रोका	-7597
▁रोटी	-7598
▁रौरव	-7599
▁लड्ड	-7600
▁लबार	-7601
▁ललित	-7602
▁लेगी	-7603
▁वत्स	-7604
▁वराह	-7605
▁वादा	-7606
▁विंड	-7607
▁विमल	-7608
▁विरद	-7609
▁वेणी	-7610
▁वैरा	-7611
▁शादी	-7612
▁शिबि	-7613
▁शुभा	-7614
▁संगम	-7615
▁सजवा	-7616
▁सदैव	-7617
▁समतल	-7618
▁सहने	-7619
▁सांस	-7620
▁साझा	-7621
▁सीखा	-7622
▁सीधी	-7623
▁सूना	-7624
▁हीरो	-7625
▁हेतु	-7626
▁॥22॥	-7627
किनारे	-7628
क्रिया	-7629
क्षिणा	-7630
चतुराई	-7631
चरित्र	-7632
ड़ामणि	-7633
तत्त्व	-7634
तर्कों	-7635
ताड़ित	-7636
दर्शित	-7637
दुर्लभ	-7638
दृष्टि	-7639
नाइयाँ	-7640
पवित्र	-7641
पश्चात	-7642
पृथ्वी	-7643
प्रस्थ	-7644
बुझाकर	-7645
रात्मा	-7646
वस्त्र	-7647
वेरपुर	-7648
सर्वदा	-7649
सिद्धि	-7650
स्वभाव	-7651
स्विनी	-7652
ाण्डाल	-7653
ारविंद	-7654
ृष्टता	-7655
्याक्ष	-7656
▁अकम्प	-7657
▁अकेली	-7658
▁अघाते	-7659
▁अणिमा	-7660
▁अदम्य	-7661
▁अधिका	-7662
▁अन्तर	-7663
▁अपकार	-7664
▁अरुंध	-7665
▁अर्पण	-7666
▁अलावा	-7667
▁अवकाश	-7668
▁अशांत	-7669
▁असह्य	-7670
▁असाधु	-7671
▁आंखें	-7672
▁आएँगे	-7673
▁आवाज़	-7674
▁इरादे	-7675
▁उजागर	-7676
▁उजिया	-7677
▁उठाना	-7678
▁उपकार	-7679
▁उल्का	-7680
▁ऋतुओं	-7681
▁ओग्रे	-7682
▁कथाओं	-7683
▁कलंकी	-7684
▁कामुक	-7685
▁कालवश	-7686
▁कालिख	-7687
▁कितना	-7688
▁कीड़ा	-7689
▁कुन्द	-7690
▁कुरेद	-7691
▁कुलों	-7692
▁कैकयी	-7693
▁खंभों	-7694
▁खरारि	-7695
▁खाएगा	-7696
▁खोजता	-7697
▁खोलीं	-7698
▁गुलाम	-7699
▁गोमती	-7700
▁ग्रास	-7701
▁घमाघम	-7702
▁घाटों	-7703
▁घुमड़	-7704
▁घुसकर	-7705
▁घूमते	-7706
▁चलाता	-7707
▁चलाते	-7708
▁चलेगा	-7709
▁चालीस	-7710
▁चिदान	-7711
▁छिपते	-7712
▁छूटकर	-7713
▁जंजाल	-7714
▁जगतभर	-7715
▁जटाएँ	-7716
▁जड़ता	-7717
▁जन्मा	-7718
▁जवानी	-7719
▁जाड़ा	-7720
▁झीलों	-7721
▁डालिए	-7722
▁डालूँ	-7723
▁डुबकी	-7724
▁तारों	-7725
▁तीसरी	-7726
▁दंडवत	-7727
▁दधीचि	-7728
▁दबाकर	-7729
▁दासों	-7730
▁दिखती	-7731
▁देखूँ	-7732
▁देवों	-7733
▁दैनिक	-7734
▁द्वीप	-7735
▁धागों	-7736
▁नामों	-7737
▁नाराज	-7738
▁नावें	-7739
▁निकला	-7740
▁नीचता	-7741
▁पंखों	-7742
▁पच्ची	-7743
▁पटककर	-7744
▁पटकने	-7745
▁पड़ना	-7746
▁पढ़ने	-7747
▁पहनकर	-7748
▁पाँति	-7749
▁पिछला	-7750
▁पुरवे	-7751
▁पुराए	-7752
▁पैतृक	-7753
▁प्रमा	-7754
▁फटकार	-7755
▁फूलते	-7756
▁फैलाई	-7757
▁बचाते	-7758
▁बचाने	-7759
▁बजाने	-7760
▁बताता	-7761
▁बताते	-7762
▁बताना	-7763
▁बनाइए	-7764
▁बाधित	-7765
▁बायीं	-7766
▁बालों	-7767
▁बेताल	-7768
▁बेहतर	-7769
▁बोल्ड	-7770
▁भक्षण	-7771
▁भटकते	-7772
▁भटकने	-7773
▁भद्दी	-7774
▁भयावह	-7775
▁भरोसे	-7776
▁भाईपन	-7777
▁भागते	-7778
▁भागने	-7779
▁भेजते	-7780
▁भैंसे	-7781
▁भोगकर	-7782
▁भौतिक	-7783
▁मकरंद	-7784
▁मक्खी	-7785
▁मधुवन	-7786
▁मनोवा	-7787
▁मरेगा	-7788
▁मवेशी	-7789
▁मांसा	-7790
▁माणिक	-7791
▁मानती	-7792
▁मानना	-7793
▁मामले	-7794
▁मायार	-7795
▁मारिए	-7796
▁मारें	-7797
▁माल्य	-7798
▁मिटता	-7799
▁मिलना	-7800
▁मिलें	-7801
▁मुकाम	-7802
▁मुड़े	-7803
▁मृदंग	-7804
▁मेघों	-7805
▁मैनाक	-7806
▁रसोइए	-7807
▁रातभर	-7808
▁रेशमी	-7809
▁लड़का	-7810
▁लिखकर	-7811
▁लूटने	-7812
▁वरेगी	-7813
▁वल्कल	-7814
▁वाराह	-7815
▁विकार	-7816
▁विदाई	-7817
▁विन्ध	-7818
▁विपुल	-7819
▁विरले	-7820
▁विलंब	-7821
▁विविध	-7822
▁विस्म	-7823
▁शारीर	-7824
▁शोधकर	-7825
▁श्रुत	-7826
▁संचाल	-7827
▁सतर्क	-7828
▁सबमें	-7829
▁सविता	-7830
▁सहमकर	-7831
▁साधकर	-7832
▁सिखला	-7833
▁सीटों	-7834
▁सीढ़ी	-7835
▁सुद्र	-7836
▁सुनें	-7837
▁सुबेल	-7838
▁सुषेण	-7839
▁सोखने	-7840
▁हज़ार	-7841
▁हटाकर	-7842
▁हटाने	-7843
▁हड्डी	-7844
▁हथिनी	-7845
▁हेमंत	-7846
न्मुक्त	-7847
र्वचनीय	-7848
ललकारकर	-7849
विचारकर	-7850
्नलिखित	-7851
्यकशिपु	-7852
▁steeds	-7853
▁अँधेरी	-7854
▁अंतकाल	-7855
▁अंधेरा	-7856
▁अतिकाय	-7857
▁अनजाने	-7858
▁अर्जुन	-7859
▁अर्थात	-7860
▁अलंकार	-7861
▁अलंकृत	-7862
▁असंतों	-7863
▁आकर्षक	-7864
▁आतिथ्य	-7865
▁आतुरता	-7866
▁आसक्ति	-7867
▁इच्छुक	-7868
▁उतारकर	-7869
▁उदात्त	-7870
▁उपकारी	-7871
▁उपमाओं	-7872
▁उपासना	-7873
▁उमँगकर	-7874
▁उमापति	-7875
▁कठोरता	-7876
▁कड़ुवे	-7877
▁कपटमृग	-7878
▁कपिराज	-7879
▁करेंगी	-7880
▁कर्मवश	-7881
▁कल्पभर	-7882
▁कल्पित	-7883
▁कविकुल	-7884
▁कहलाकर	-7885
▁कहिएगा	-7886
▁काँपते	-7887
▁कान्ति	-7888
▁कुकर्म	-7889
▁कुत्ता	-7890
▁कुमाता	-7891
▁कैवल्य	-7892
▁कौतूहल	-7893
▁गँवाकर	-7894
▁गर्वित	-7895
▁गाँवों	-7896
▁गांधार	-7897
▁गाएँगे	-7898
▁गुणवान	-7899
▁गुणहीन	-7900
▁गुफाएँ	-7901
▁गोरोचन	-7902
▁गौतमजी	-7903
▁चिन्तन	-7904
▁चुनौती	-7905
▁चौथेपन	-7906
▁चौराहे	-7907
▁छवियों	-7908
▁छोड़िए	-7909
▁जाएँगी	-7910
▁ठिकाने	-7911
▁डाँटकर	-7912
▁डालेगा	-7913
▁डुबोकर	-7914
▁ढूंढता	-7915
▁तड़पता	-7916
▁तदन्तर	-7917
▁तरंगें	-7918
▁तरीकों	-7919
▁ताड़का	-7920
▁दंडवत्	-7921
▁दाहिने	-7922
▁दिखलाओ	-7923
▁दिखाने	-7924
▁दिग्गज	-7925
▁धनुषों	-7926
▁धाराएँ	-7927
▁निःशंख	-7928
▁निकाली	-7929
▁निग्रह	-7930
▁निमग्न	-7931
▁निरंजन	-7932
▁निरखकर	-7933
▁निर्धन	-7934
▁निश्चल	-7935
▁नृसिंह	-7936
▁पकड़ना	-7937
▁पखारने	-7938
▁पछताता	-7939
▁पतंगों	-7940
▁पतिंगा	-7941
▁पतियों	-7942
▁परकोटा	-7943
▁परकोटे	-7944
▁पश्चिम	-7945
▁पहचाने	-7946
▁पहनाया	-7947
▁पहिचान	-7948
▁पाएँगे	-7949
▁पाएंगे	-7950
▁पागलपन	-7951
▁पूर्ति	-7952
▁पूर्वी	-7953
▁प्रयास	-7954
▁प्रयोग	-7955
▁प्रेरक	-7956
▁फड़कने	-7957
▁फलाहार	-7958
▁फेंकते	-7959
▁फेंकने	-7960
▁बगीचों	-7961
▁बचेंगे	-7962
▁बछड़ों	-7963
▁बढ़ावा	-7964
▁बढ़िया	-7965
▁बतलाकर	-7966
▁बतलाया	-7967
▁बरसाता	-7968
▁बाँधते	-7969
▁बिताया	-7970
▁बिस्तर	-7971
▁बुलाते	-7972
▁बूढ़ों	-7973
▁भावीवश	-7974
▁भित्ति	-7975
▁मज़बूत	-7976
▁मतवाला	-7977
▁मधुरता	-7978
▁मनचाहा	-7979
▁मनमाना	-7980
▁महाबली	-7981
▁माँगती	-7982
▁मानहीन	-7983
▁मायावी	-7984
▁मारेगा	-7985
▁मिटाकर	-7986
▁मुखड़ा	-7987
▁मुनिजन	-7988
▁मुर्गे	-7989
▁मैसेडो	-7990
▁यथोचित	-7991
▁यात्री	-7992
▁रघुपति	-7993
▁रजोगुण	-7994
▁रमापति	-7995
▁रहूँगी	-7996
▁राजसभा	-7997
▁राजागण	-7998
▁रामसखा	-7999
▁लगातार	-8000
▁वज्रों	-8001
▁वनमाला	-8002
▁वर्षों	-8003
▁वशीकरण	-8004
▁वसिष्ठ	-8005
▁विग्रह	-8006
▁विचारा	-8007
▁विचारी	-8008
▁विदिशा	-8009
▁व्यंजन	-8010
▁शबरीजी	-8011
▁शिक्षक	-8012
▁शुरुआत	-8013
▁श्यामा	-8014
▁श्रेणी	-8015
▁श्रोता	-8016
▁सँभलकर	-8017
▁संकटों	-8018
▁संभलकर	-8019
▁संसारी	-8020
▁सत्कार	-8021
▁सद्गति	-8022
▁सद्भाव	-8023
▁सन्ताप	-8024
▁सन्देह	-8025
▁समझाते	-8026
▁समझाना	-8027
▁सम्हाल	-8028
▁सराबोर	-8029
▁सराहते	-8030
▁सराहने	-8031
▁साँसें	-8032
▁सिखावन	-8033
▁सींचकर	-8034
▁सुनाईं	-8035
▁सुपारी	-8036
▁सुभीता	-8037
▁सूर्या	-8038
▁सेवकगण	-8039
▁स्तनों	-8040
▁स्याही	-8041
▁हिमवान	-8042
उन्होंने	-8043
त्युत्तर	-8044
द्वंद्वी	-8045
प्रसिद्ध	-8046
स्ट्रैंड	-8047
▁अट्टहास	-8048
▁अनर्थों	-8049
▁अनुरागी	-8050
▁अभिवादन	-8051
▁अभ्युदय	-8052
▁आर्तभाव	-8053
▁इंद्रों	-8054
▁उखाड़कर	-8055
▁उजाड़कर	-8056
▁उत्साही	-8057
▁उल्लंघन	-8058
▁कदाचित्	-8059
▁कर्णधार	-8060
▁कारीगरी	-8061
▁किनारों	-8062
▁किलकारी	-8063
▁कुमुदों	-8064
▁कुलगुरु	-8065
▁कुलाचार	-8066
▁खिलवाड़	-8067
▁खूबसूरत	-8068
▁गिद्धों	-8069
▁गिरिराज	-8070
▁गुणगाथा	-8071
▁गुप्तचर	-8072
▁गोदावरी	-8073
▁गौरवर्ण	-8074
▁ग्रीष्म	-8075
▁घुड़साल	-8076
▁चक्रवाक	-8077
▁चमत्कार	-8078
▁चाण्डाल	-8079
▁ज्योतिष	-8080
▁टुकड़ों	-8081
▁डगमगाने	-8082
▁तिर्यक्	-8083
▁तुम्हीं	-8084
▁दरवाजों	-8085
▁दुर्दशा	-8086
▁दैत्यों	-8087
▁द्विजों	-8088
▁धूमकेतु	-8089
▁धृष्टता	-8090
▁निंदनीय	-8091
▁पंखवाले	-8092
▁पखवाड़े	-8093
▁पतिव्रत	-8094
▁परशुराम	-8095
▁पहरेदार	-8096
▁पापरहित	-8097
▁पारसमणि	-8098
▁पूछेंगे	-8099
▁प्रतिबि	-8100
▁प्रस्ता	-8101
▁प्रहस्त	-8102
▁प्राकृत	-8103
▁प्रामाण	-8104
▁प्रारंभ	-8105
▁बंदनवार	-8106
▁बाणासुर	-8107
▁बिगाड़ा	-8108
▁भाँवरें	-8109
▁भेदरहित	-8110
▁मरकतमणि	-8111
▁मस्तकों	-8112
▁महाजनों	-8113
▁मारूँगा	-8114
▁मुश्किल	-8115
▁मूर्छित	-8116
▁मेंढकों	-8117
▁मोतियों	-8118
▁योगियों	-8119
▁योनियों	-8120
▁रक्षकों	-8121
▁रखवालों	-8122
▁रीतियाँ	-8123
▁ललकारने	-8124
▁लाभदायक	-8125
▁लौटेंगे	-8126
▁वज्रपात	-8127
▁वनदेवता	-8128
▁वाक्पटु	-8129
▁विचारने	-8130
▁विलक्षण	-8131
▁विवस्वत	-8132
▁व्यंग्य	-8133
▁व्यापती	-8134
▁संतजनों	-8135
▁संभालकर	-8136
▁संरक्षक	-8137
▁सत्कर्म	-8138
▁सरोवरों	-8139
▁सर्वभाव	-8140
▁सर्वरूप	-8141
▁साथियों	-8142
▁सिंहनाद	-8143
▁सुनूँगा	-8144
▁सुयोग्य	-8145
▁सुरक्षा	-8146
▁हिनहिना	-8147
शास्त्रों	-8148
▁आमंत्रित	-8149
▁उत्तेजित	-8150
▁कन्दराओं	-8151
▁कल्याणमय	-8152
▁कल्याणों	-8153
▁कहानियाँ	-8154
▁कुतर्कों	-8155
▁गजगामिनी	-8156
▁गद्‍गद्‍	-8157
▁चिरंजीवी	-8158
▁चिल्लाया	-8159
▁चूड़ामणि	-8160
▁जन्मभूमि	-8161
▁जल्दबाजी	-8162
▁जोड़ियों	-8163
▁तिलांजलि	-8164
▁त्रिलोकी	-8165
▁दावाग्नि	-8166
▁दुलहिनों	-8167
▁द्वितीया	-8168
▁धर्मरुचि	-8169
▁पत्नियां	-8170
▁पयस्विनी	-8171
▁परमानन्द	-8172
▁परोपकारी	-8173
▁पहुंचाता	-8174
▁पादुकाओं	-8175
▁पालकियों	-8176
▁पूर्वजों	-8177
▁प्रजापति	-8178
▁प्रलयकाल	-8179
▁प्रह्लाद	-8180
▁फरीसियों	-8181
▁बपतिस्मा	-8182
▁बलपूर्वक	-8183
▁बिजलियाँ	-8184
▁भाग्यवान	-8185
▁मंगलाचार	-8186
▁मुकुटमणि	-8187
▁मेहमानों	-8188
▁रामेश्वर	-8189
▁लड़कियों	-8190
▁वामदेवजी	-8191
▁विदेहराज	-8192
▁विद्वान्	-8193
▁वेदध्वनि	-8194
▁व्यभिचार	-8195
▁शुकदेवजी	-8196
▁संरक्षित	-8197
▁सत्यकेतु	-8198
▁सद्ग्रंथ	-8199
▁सन्निपात	-8200
▁सप्तर्षि	-8201
▁हड्डियाँ	-8202
▁हड्डियों	-8203
▁हरिभक्ति	-8204
▁होनहारवश	-8205
▁अन्तर्धान	-8206
▁इंद्रधनुष	-8207
▁कालरात्रि	-8208
▁कुमारियों	-8209
▁क्षीरसागर	-8210
▁क्षेत्रों	-8211
▁खोपड़ियों	-8212
▁तत्पश्चात	-8213
▁द्वंद्वों	-8214
▁नित्यकर्म	-8215
▁निर्वासित	-8216
▁निष्कण्टक	-8217
▁नीतिनिपुण	-8218
▁पंक्तियाँ	-8219
▁पृथ्वीपति	-8220
▁प्रताड़ित	-8221
▁प्रतीक्षा	-8222
▁प्रदर्शित	-8223
▁प्रियजनों	-8224
▁भक्तवत्सल	-8225
▁भुजदण्डों	-8226
▁मनोवांछित	-8227
▁मांसाहारी	-8228
▁मार्गदर्श	-8229
▁मुखारविंद	-8230
▁यात्रियों	-8231
▁युक्तियाँ	-8232
▁विकाररहित	-8233
▁विद्वानों	-8234
▁विनययुक्त	-8235
▁श्रुतियाँ	-8236
▁सत्त्वगुण	-8237
▁सत्यव्रती	-8238
▁अनिर्वचनीय	-8239
▁आनंदस्वरूप	-8240
▁इंद्रपुत्र	-8241
▁ओग्रेसियों	-8242
▁गजमुक्ताओं	-8243
▁चन्द्रमुखी	-8244
▁जानकीनाथजी	-8245
▁जीवन्मुक्त	-8246
▁त्रिपुरारी	-8247
▁निम्नलिखित	-8248
▁बुद्धिमान्	-8249
▁ब्रह्मचर्य	-8250
▁मन्त्रियों	-8251
▁मन्दबुद्धि	-8252
▁महत्वपूर्ण	-8253
▁मैसेडोनिया	-8254
▁राक्षसियाँ	-8255
▁विन्ध्याचल	-8256
▁विपत्तियों	-8257
▁विवेकयुक्त	-8258
▁विश्वकर्मा	-8259
▁श्यामसुंदर	-8260
▁हर्षपूर्वक	-8261
▁हिरण्याक्ष	-8262
▁ध्वजास्वरूप	-8263
▁परमार्थवादी	-8264
▁पूर्णचन्द्र	-8265
▁प्रार्थनाओं	-8266
▁प्रेमाभक्ति	-8267
▁भक्तिपूर्वक	-8268
▁वस्त्राभूषण	-8269
▁सच्चिदानन्द	-8270
▁हिरण्यकशिपु	-8271
▁प्रसन्नचित्त	-8272
▁ब्रह्मास्त्र	-8273
▁श्रृंगवेरपुर	-8274
▁गिरिराजकुमारी	-8275
▁विनम्रतापूर्वक	-8276
ay	-8277
ch	-8278
ic	-8279
kr	-8280
ou	-8281
re	-8282
ro	-8283
tr	-8284
ud	-8285
उठ	-8286
ऊल	-8287
ओह	-8288
गह	-8289
गौ	-8290
घट	-8291
चौ	-8292
डा	-8293
पच	-8294
लय	-8295
लै	-8296
सँ	-8297
ाग	-8298
ौह	-8299
तप	-8300
दम	-8301
नो	-8302
बह	-8303
मू	-8304
सत	-8305
हत	-8306
ॉन	-8307
।1	-8308
”।	-8309
▁1	-8310
▁A	-8311
-4॥	-8312
109	-8313
ing	-8314
ity	-8315
udd	-8316
ँदो	-8317
ंडे	-8318
ंती	-8319
ंधा	-8320
ंबी	-8321
ंसी	-8322
अर्	-8323
इया	-8324
उत्	-8325
कटा	-8326
कली	-8327
किल	-8328
कीन	-8329
केश	-8330
कोण	-8331
खोर	-8332
गढ़	-8333
गरि	-8334
गाध	-8335
गाह	-8336
गीत	-8337
गोद	-8338
घुम	-8339
चाट	-8340
छकर	-8341
जुट	-8342
जेब	-8343
ज्य	-8344
झना	-8345
ठौर	-8346
ढ़क	-8347
ढ़े	-8348
तरे	-8349
तले	-8350
तीं	-8351
दाई	-8352
दाग	-8353
दिक	-8354
द्द	-8355
नेह	-8356
पवन	-8357
पहर	-8358
पैर	-8359
फरत	-8360
बढ़	-8361
बाध	-8362
बुध	-8363
भात	-8364
भीक	-8365
मगा	-8366
माध	-8367
रखा	-8368
र्घ	-8369
लब्	-8370
लाब	-8371
वधू	-8372
शिव	-8373
शोक	-8374
श्त	-8375
साह	-8376
सिय	-8377
हबर	-8378
हुष	-8379
िष्	-8380
ुंड	-8381
ुरी	-8382
ूला	-8383
॥1।	-8384
॥37	-8385
॥49	-8386
॥69	-8387
॥83	-8388
॥94	-8389
▁21	-8390
▁48	-8391
▁74	-8392
▁75	-8393
▁79	-8394
▁da	-8395
▁अघ	-8396
▁ओत	-8397
▁कं	-8398
▁खस	-8399
ँख	-8400
चय	-8401
डि	-8402
डी	-8403
लत	-8404
लौ	-8405
सू	-8406
ाट	-8407
ॉक	-8408
▁a	-8409
8।।	-8410
डि़	-8411
राए	-8412
र्च	-8413
शर्	-8414
ावन	-8415
ूंज	-8416
्वा	-8417
॥88	-8418
▁अच	-8419
▁आं	-8420
▁आल	-8421
▁चख	-8422
▁छट	-8423
▁जँ	-8424
▁जर	-8425
▁जौ	-8426
▁ढो	-8427
▁तज	-8428
▁धम	-8429
▁पग	-8430
▁पट	-8431
▁बग	-8432
▁मँ	-8433
▁यज	-8434
▁रै	-8435
▁लू	-8436
▁वट	-8437
▁षट	-8438
▁सई	-8439
▁हत	-8440
▁॥4	-8441
▁॥8	-8442
▁’।	-8443
▁”।	-8444
tras	-8445
ंठों	-8446
ंदाज	-8447
आकाश	-8448
उठकर	-8449
उनकी	-8450
कंपा	-8451
कदार	-8452
कारा	-8453
किंच	-8454
कुटि	-8455
कोनी	-8456
खड़ी	-8457
खड़े	-8458
खाकर	-8459
गण्य	-8460
गरों	-8461
चकवी	-8462
च्छि	-8463
च्छी	-8464
च्छू	-8465
छोटे	-8466
जनित	-8467
तककर	-8468
तिया	-8469
तेरे	-8470
धजकर	-8471
धरकर	-8472
धूलि	-8473
नाले	-8474
न्नी	-8475
पराई	-8476
पूजा	-8477
प्पन	-8478
प्पा	-8479
फकार	-8480
फीरी	-8481
बाँक	-8482
बालि	-8483
बेना	-8484
भावन	-8485
भेंट	-8486
मारो	-8487
मीठे	-8488
मेरी	-8489
म्पा	-8490
यहाँ	-8491
याजक	-8492
याजी	-8493
याति	-8494
यामी	-8495
योजन	-8496
रावण	-8497
रासन	-8498
र्मी	-8499
चु	-8500
छि	-8501
डल	-8502
मे	-8503
्क	-8504
▁m	-8505
इयो	-8506
घड़	-8507
मेध	-8508
सईस	-8509
सात	-8510
सुम	-8511
ाहट	-8512
ृती	-8513
्रि	-8514
▁ज़	-8515
▁जे	-8516
▁बब	-8517
▁लय	-8518
ंगनी	-8519
ंगार	-8520
कपाल	-8521
क्रो	-8522
जकों	-8523
ट्टी	-8524
नाने	-8525
पासक	-8526
र्षण	-8527
लोना	-8528
वण्य	-8529
वाभा	-8530
वाया	-8531
विंस	-8532
वीजी	-8533
शरीर	-8534
शिंग	-8535
श्या	-8536
षदों	-8537
संगत	-8538
सन्न	-8539
सलकर	-8540
साने	-8541
सुबह	-8542
हाती	-8543
हाथी	-8544
हीने	-8545
ाज्य	-8546
ानाथ	-8547
ानों	-8548
ारदा	-8549
ितों	-8550
ुष्प	-8551
ृंगी	-8552
ेद्य	-8553
ैलोक	-8554
्मान	-8555
्रवा	-8556
्रिय	-8557
॥104	-8558
॥112	-8559
॥115	-8560
॥182	-8561
॥208	-8562
॥3॥।	-8563
॥74॥	-8564
॥79॥	-8565
॥82॥	-8566
॥89॥	-8567
▁sav	-8568
▁udd	-8569
▁var	-8570
▁अगु	-8571
▁अनम	-8572
▁अन्	-8573
▁अबा	-8574
▁अलख	-8575
▁असा	-8576
▁आँक	-8577
▁आंग	-8578
▁आएँ	-8579
▁आभा	-8580
▁आये	-8581
▁इंत	-8582
▁उली	-8583
▁एंड	-8584
▁कली	-8585
▁कले	-8586
▁कहल	-8587
▁काय	-8588
▁कीट	-8589
▁कूप	-8590
▁खच्	-8591
▁खीं	-8592
▁गड़	-8593
▁गदह	-8594
▁गद्	-8595
▁गधे	-8596
▁गलत	-8597
▁गुर	-8598
▁गूल	-8599
शन	-8600
ोड	-8601
गर्	-8602
जीव	-8603
ताई	-8604
ताव	-8605
तें	-8606
नार	-8607
पटी	-8608
भ्य	-8609
साई	-8610
ीका	-8611
ृजन	-8612
ेंस	-8613
ोंक	-8614
ोदी	-8615
॥84	-8616
▁उद	-8617
▁तस	-8618
▁लथ	-8619
▁लै	-8620
,॥6॥	-8621
आपको	-8622
कलंक	-8623
गंबर	-8624
घातक	-8625
चतुर	-8626
झाने	-8627
वैये	-8628
ाकार	-8629
▁अँक	-8630
▁किं	-8631
▁गेट	-8632
▁घनम	-8633
▁घना	-8634
▁घरफ	-8635
▁चीं	-8636
▁चील	-8637
▁चेल	-8638
▁छंद	-8639
▁छली	-8640
▁जपा	-8641
▁जमद	-8642
▁जली	-8643
▁जाऊ	-8644
▁जीन	-8645
▁जॉन	-8646
▁झँग	-8647
▁झों	-8648
▁टहल	-8649
▁टाप	-8650
▁ठाट	-8651
▁ठिठ	-8652
▁डरी	-8653
▁डरे	-8654
▁ढीठ	-8655
▁तरफ	-8656
▁तरे	-8657
▁तले	-8658
▁तुर	-8659
▁दधि	-8660
▁दली	-8661
▁धरा	-8662
▁धुन	-8663
▁पंथ	-8664
▁पगे	-8665
▁पेश	-8666
▁फूँ	-8667
▁बाप	-8668
▁बिन	-8669
▁बिर	-8670
▁बोध	-8671
▁मनह	-8672
▁मरु	-8673
▁माघ	-8674
▁मात	-8675
▁मिठ	-8676
▁मिड	-8677
▁मिस	-8678
▁मुँ	-8679
▁राय	-8680
▁रें	-8681
▁लंग	-8682
▁लदे	-8683
▁लैस	-8684
▁वत्	-8685
▁वरण	-8686
▁वान	-8687
▁विघ	-8688
▁विड	-8689
▁श्म	-8690
▁सड़	-8691
▁साँ	-8692
▁साइ	-8693
▁साठ	-8694
▁सिम	-8695
▁सीत	-8696
▁सोन	-8697
▁हदय	-8698
▁हरम	-8699
अब	-8700
ोन	-8701
नया	-8702
न्स	-8703
पता	-8704
बान	-8705
मिल	-8706
हड़	-8707
॥52	-8708
॥82	-8709
▁71	-8710
▁आव	-8711
▁चह	-8712
▁टू	-8713
ंचाई	-8714
गलों	-8715
त्मक	-8716
दिता	-8717
पथ्य	-8718
बद्ध	-8719
यजेब	-8720
्राह	-8721
॥102	-8722
॥80॥	-8723
▁कील	-8724
▁पित	-8725
▁बेढ	-8726
▁वेन	-8727
▁सुल	-8728
▁सोर	-8729
▁हुँ	-8730
▁हैथ	-8731
▁॥21	-8732
?॥78॥	-8733
ंछनीय	-8734
ंतुओं	-8735
ंत्रण	-8736
अग्नि	-8737
इंद्र	-8738
किंचन	-8739
कियों	-8740
कुरसु	-8741
गावती	-8742
चंद्र	-8743
चियाँ	-8744
छोलकर	-8745
टियाँ	-8746
ढ़ापे	-8747
ण्ठित	-8748
तालाब	-8749
तिकों	-8750
त्थान	-8751
दम्बा	-8752
दीप्य	-8753
दूतों	-8754
द्धिक	-8755
द्वीप	-8756
नहाकर	-8757
नाहीं	-8758
निकों	-8759
नेंगे	-8760
न्नीस	-8761
पहनकर	-8762
पुष्ट	-8763
पुष्प	-8764
पोर्ट	-8765
प्यास	-8766
प्रेम	-8767
प्रोत	-8768
फूलों	-8769
बताकर	-8770
बूढ़ी	-8771
बूढ़े	-8772
मसलकर	-8773
महीने	-8774
मारकर	-8775
रक्षक	-8776
र्मदा	-8777
र्मुख	-8778
लब्धि	-8779
लसिरी	-8780
वक्ता	-8781
वधुओं	-8782
वाभास	-8783
वासित	-8784
विषाद	-8785
वीरों	-8786
वेद्य	-8787
शर्ते	-8788
शुमार	-8789
सँभाल	-8790
संदेह	-8791
समर्थ	-8792
सम्मत	-8793
सरीखे	-8794
स्तान	-8795
स्तृत	-8796
हत्या	-8797
हीनों	-8798
होत्र	-8799
टभ	-8800
बख	-8801
अगर	-8802
केत	-8803
जूट	-8804
तिस	-8805
दाल	-8806
दूर	-8807
ौवन	-8808
्ती	-8809
॥89	-8810
॥97	-8811
▁नो	-8812
?॥89	-8813
ड्डी	-8814
त्यर	-8815
नाया	-8816
बखान	-8817
बन्ध	-8818
भावक	-8819
माँग	-8820
रासी	-8821
ाकरी	-8822
ुकों	-8823
▁कूब	-8824
▁जोत	-8825
▁थकी	-8826
▁दंत	-8827
▁मरा	-8828
▁मर्	-8829
▁॥29	-8830
ँदोवे	-8831
़ड़ते	-8832
ानापन	-8833
ासियस	-8834
ित्री	-8835
िलाजी	-8836
ुलाती	-8837
ृष्णा	-8838
ेष्टि	-8839
ोपासक	-8840
ौहिणी	-8841
्यादा	-8842
्योता	-8843
्रमेय	-8844
्रवाई	-8845
्राहम	-8846
्वासन	-8847
।।8।।	-8848
॥101॥	-8849
॥112॥	-8850
॥121॥	-8851
॥125॥	-8852
॥133॥	-8853
॥144॥	-8854
॥146॥	-8855
॥148॥	-8856
॥149॥	-8857
॥150॥	-8858
॥153॥	-8859
॥154॥	-8860
॥158॥	-8861
॥162॥	-8862
॥163॥	-8863
॥165॥	-8864
॥169॥	-8865
॥170॥	-8866
॥171॥	-8867
॥173॥	-8868
॥179॥	-8869
॥191॥	-8870
॥192॥	-8871
॥194॥	-8872
॥197॥	-8873
॥198॥	-8874
॥199॥	-8875
॥203॥	-8876
॥204॥	-8877
॥206॥	-8878
॥209॥	-8879
॥228॥	-8880
॥233॥	-8881
॥240॥	-8882
॥242॥	-8883
॥248॥	-8884
॥250॥	-8885
॥253॥	-8886
॥254॥	-8887
॥265॥	-8888
॥268॥	-8889
॥272॥	-8890
॥274॥	-8891
॥281॥	-8892
॥282॥	-8893
॥283॥	-8894
॥286॥	-8895
॥289॥	-8896
॥290॥	-8897
॥291॥	-8898
॥292॥	-8899
॥48	-8900
॥60	-8901
॥67	-8902
खड़ा	-8903
मेंट	-8904
ष्कि	-8905
ाप्य	-8906
ामात	-8907
ितीय	-8908
ूनों	-8909
▁अंज	-8910
▁आशय	-8911
▁छैल	-8912
▁थीन	-8913
▁दशक	-8914
▁लोप	-8915
▁हूह	-8916
क्ष्य	-8917
चारों	-8918
द्रोह	-8919
बजाकर	-8920
़ड़कर	-8921
॥141॥	-8922
॥166॥	-8923
॥241॥	-8924
॥293॥	-8925
॥297॥	-8926
॥3-4॥	-8927
॥301॥	-8928
॥303॥	-8929
॥308॥	-8930
॥309॥	-8931
॥311॥	-8932
॥314॥	-8933
॥316॥	-8934
॥318॥	-8935
॥319॥	-8936
॥321॥	-8937
॥326॥	-8938
▁,॥1॥	-8939
▁?॥3॥	-8940
▁अंजन	-8941
▁अगाध	-8942
▁अज्ञ	-8943
▁अबकी	-8944
▁अभाव	-8945
▁अरणि	-8946
▁अल्प	-8947
▁असंख	-8948
▁असफल	-8949
▁आंसु	-8950
▁आदिक	-8951
▁इक्ष	-8952
▁उचाट	-8953
▁उजड़	-8954
▁उठती	-8955
▁उतरी	-8956
▁उदया	-8957
▁उदित	-8958
▁उबटन	-8959
▁उर्म	-8960
▁एसईस	-8961
▁कक्ष	-8962
▁कपास	-8963
▁कराह	-8964
▁कहनी	-8965
▁कहां	-8966
▁काँख	-8967
▁काटो	-8968
▁काफी	-8969
▁कामद	-8970
▁कार्	-8971
▁कीमत	-8972
▁कोने	-8973
▁खरीद	-8974
▁खिंच	-8975
▁खिसक	-8976
▁गायब	-8977
▁गुहा	-8978
▁गूंज	-8979
▁गूलर	-8980
▁गोले	-8981
▁गोवि	-8982
▁घंटे	-8983
▁घटता	-8984
▁घटने	-8985
▁घड़ा	-8986
▁घुँघ	-8987
▁घृणा	-8988
▁घोंघ	-8989
▁चर्च	-8990
▁चलें	-8991
▁छिपी	-8992
▁छूता	-8993
▁जगदा	-8994
▁जड़ा	-8995
▁जनमी	-8996
▁जबली	-8997
▁जरूर	-8998
▁जलकर	-8999
ंसू	-9000
गोड	-9001
ड़ि	-9002
विष	-9003
॥62	-9004
॥99	-9005
▁wh	-9006
!॥6॥	-9007
कटकर	-9008
झाया	-9009
देवी	-9010
पकार	-9011
बंधन	-9012
बड़ी	-9013
ुमान	-9014
ेरों	-9015
।।11	-9016
▁अधर	-9017
▁उके	-9018
▁ऊसर	-9019
▁कटु	-9020
▁गुँ	-9021
▁झाल	-9022
▁तलव	-9023
▁फली	-9024
▁बरज	-9025
▁लगन	-9026
▁लाई	-9027
दारों	-9028
लेकिन	-9029
ष्ट्र	-9030
॥130॥	-9031
॥143॥	-9032
॥145॥	-9033
॥155॥	-9034
॥172॥	-9035
॥174॥	-9036
॥234॥	-9037
॥298॥	-9038
▁अमान	-9039
▁आंसू	-9040
▁आघात	-9041
▁कुशा	-9042
▁खम्भ	-9043
▁खोटा	-9044
▁जलता	-9045
▁जोंक	-9046
▁झाँझ	-9047
▁टीका	-9048
▁ठहरी	-9049
▁डरपो	-9050
▁डिगे	-9051
▁डोरी	-9052
▁ढंका	-9053
▁ढहाए	-9054
▁तककर	-9055
▁तजकर	-9056
▁तपोम	-9057
▁तबसे	-9058
▁तामस	-9059
▁ताले	-9060
▁तीखी	-9061
▁तेरू	-9062
▁तोशक	-9063
▁थकान	-9064
▁दुरा	-9065
▁दोने	-9066
▁दोहन	-9067
▁दौलत	-9068
▁धनुह	-9069
▁धावा	-9070
▁धोना	-9071
▁नंगी	-9072
▁नंगे	-9073
▁नफरत	-9074
▁नब्ब	-9075
▁नहुष	-9076
▁नारी	-9077
▁नाला	-9078
▁नियत	-9079
▁नीरस	-9080
▁नीला	-9081
▁नेगी	-9082
▁नेता	-9083
▁नैहर	-9084
▁पढ़ी	-9085
▁पाटल	-9086
▁पाणि	-9087
▁पाहु	-9088
▁पिरो	-9089
▁पीटा	-9090
▁पृथक	-9091
▁पृथु	-9092
▁प्रम	-9093
▁प्रय	-9094
▁फर्श	-9095
▁फायर	-9096
▁फीका	-9097
▁फुला	-9098
▁फूँक	-9099
इट	-9100
यह	-9101
ंची	-9102
पशु	-9103
मुँ	-9104
मुझ	-9105
।।7	-9106
॥43	-9107
॥91	-9108
॥92	-9109
॥93	-9110
▁70	-9111
▁vi	-9112
?॥6॥	-9113
कोसल	-9114
पिनी	-9115
मुझे	-9116
॥113	-9117
▁उपे	-9118
▁कंप	-9119
▁खाल	-9120
▁चिं	-9121
▁जँच	-9122
▁जेल	-9123
▁पाव	-9124
▁बेर	-9125
▁मौन	-9126
न्याय	-9127
स्नेह	-9128
ोत्सव	-9129
।।7।।	-9130
॥152॥	-9131
॥224॥	-9132
▁आंतर	-9133
▁उपनि	-9134
▁ऋद्ध	-9135
▁गरीब	-9136
▁गिरे	-9137
▁चरित	-9138
▁धुएं	-9139
▁फैले	-9140
▁बंसी	-9141
▁बढ़ई	-9142
▁बदला	-9143
▁बनना	-9144
▁बनने	-9145
▁बनिए	-9146
▁बरबस	-9147
▁बर्फ	-9148
▁बहुम	-9149
▁बहुर	-9150
▁बाँट	-9151
▁बांध	-9152
▁बाकी	-9153
▁बाजा	-9154
▁बाड़	-9155
▁बारी	-9156
▁बिखर	-9157
▁बीते	-9158
▁बैरी	-9159
▁बोलब	-9160
▁भजकर	-9161
▁भटका	-9162
▁भद्र	-9163
▁भरते	-9164
▁भाती	-9165
▁भाते	-9166
▁भुगत	-9167
▁मछुआ	-9168
▁मनची	-9169
▁मनभा	-9170
▁मरें	-9171
▁माशा	-9172
▁मिलो	-9173
▁मूली	-9174
▁मेधा	-9175
▁मेरु	-9176
▁मेहम	-9177
▁मैरी	-9178
▁मैला	-9179
▁मैले	-9180
▁यौवन	-9181
▁रखूँ	-9182
▁रहीं	-9183
▁रोता	-9184
▁रोना	-9185
▁रोया	-9186
▁लंपट	-9187
▁लगाओ	-9188
▁लगाम	-9189
▁लथपथ	-9190
▁ललाई	-9191
▁लवली	-9192
▁लाउड	-9193
▁लाड़	-9194
▁लावा	-9195
▁लोगे	-9196
▁लोमश	-9197
▁विंध	-9198
▁विफल	-9199
गुन	-9200
तनु	-9201
पट्	-9202
रुप	-9203
॥36	-9204
▁31	-9205
▁73	-9206
केवल	-9207
ण्डप	-9208
न्ना	-9209
फलों	-9210
म्बी	-9211
रणों	-9212
हानि	-9213
्लगी	-9214
▁अही	-9215
▁ठगा	-9216
▁ठहा	-9217
▁ठान	-9218
▁नयन	-9219
▁बची	-9220
▁बहक	-9221
▁बहू	-9222
▁मरो	-9223
▁यवन	-9224
कमलों	-9225
स्तों	-9226
्वाकु	-9227
॥138॥	-9228
॥218॥	-9229
॥266॥	-9230
॥302॥	-9231
▁!॥1॥	-9232
▁?॥2॥	-9233
▁अम्ब	-9234
▁कठपु	-9235
▁खानि	-9236
▁गंदे	-9237
▁गुदा	-9238
▁गोली	-9239
▁चालक	-9240
▁चिंत	-9241
▁धरूँ	-9242
▁पुलक	-9243
▁बहरे	-9244
▁बीता	-9245
▁भूली	-9246
▁वर्ग	-9247
▁विभो	-9248
▁वृथा	-9249
▁वैरी	-9250
▁शंभु	-9251
▁शरत्	-9252
▁शाऊल	-9253
▁शिवल	-9254
▁सकीं	-9255
▁सचेत	-9256
▁सदोम	-9257
▁सहना	-9258
▁सहसा	-9259
▁सहिए	-9260
▁सांत	-9261
▁सामन	-9262
▁साहब	-9263
▁सुधा	-9264
▁सूखा	-9265
▁सूखी	-9266
▁सूखे	-9267
▁सूने	-9268
▁सृजन	-9269
▁सोलह	-9270
▁हारे	-9271
▁होंठ	-9272
?॥283॥	-9273
उमड़कर	-9274
कटाक्ष	-9275
गरिकों	-9276
च्चाटन	-9277
छाड़कर	-9278
ड़िहाई	-9279
डुलाती	-9280
त्तांत	-9281
द्धांग	-9282
निरंतर	-9283
न्दुभी	-9284
पढ़ाकर	-9285
पिन्दा	-9286
प्रताप	-9287
प्रेमी	-9288
बंधुओं	-9289
मंगलों	-9290
माधवजी	-9291
मामंडन	-9292
रघुपति	-9293
रूपिणी	-9294
र्दाना	-9295
वास्तव	-9296
विदिशा	-9297
शालाएँ	-9298
शिभूषण	-9299
-3॥	-9300
भरत	-9301
सुध	-9302
।1॥	-9303
॥66	-9304
॥90	-9305
चरित	-9306
नवाह	-9307
सुता	-9308
ालीन	-9309
िलेश	-9310
्रास	-9311
॥22॥	-9312
▁दाग	-9313
▁पगी	-9314
▁बूट	-9315
▁बेत	-9316
उपहार	-9317
जुलता	-9318
भरहित	-9319
॥122॥	-9320
॥189॥	-9321
॥247॥	-9322
॥264॥	-9323
॥267॥	-9324
॥278॥	-9325
॥300॥	-9326
॥310॥	-9327
॥325॥	-9328
▁अगले	-9329
▁आँवे	-9330
▁कातर	-9331
▁कुवे	-9332
▁खाती	-9333
▁खोकर	-9334
▁खोटे	-9335
▁दाँव	-9336
▁दिलक	-9337
▁पंखे	-9338
▁पांच	-9339
▁माली	-9340
▁मृगत	-9341
▁रचता	-9342
▁रैंक	-9343
▁लगें	-9344
▁सावन	-9345
ंकरहित	-9346
नवाह्न	-9347
विद्या	-9348
सम्मान	-9349
सुनाकर	-9350
हिचाने	-9351
ाहियों	-9352
ुष्टों	-9353
ैलोक्य	-9354
्तेमाल	-9355
्यक्रम	-9356
्याह्न	-9357
्राज्य	-9358
▁अंजलि	-9359
▁अगवान	-9360
▁अचानक	-9361
▁अटपटी	-9362
▁अत्या	-9363
▁अनमोल	-9364
▁अमराई	-9365
▁अरण्य	-9366
▁अवशेष	-9367
▁असभ्य	-9368
▁आक्रम	-9369
▁आखिरी	-9370
▁आशाएँ	-9371
▁आसनों	-9372
▁इत्यर	-9373
▁उकेरा	-9374
▁उछाला	-9375
▁उजाला	-9376
▁उड़ना	-9377
▁उतरना	-9378
▁उतराई	-9379
▁उतारा	-9380
▁उतारी	-9381
▁उत्पा	-9382
▁एकजुट	-9383
▁एकतनु	-9384
▁ओविंस	-9385
▁कंकड़	-9386
▁कंपनी	-9387
▁कदम्ब	-9388
▁कपिला	-9389
▁कबन्ध	-9390
▁कब्जा	-9391
▁कमजोर	-9392
▁कहलाए	-9393
▁कहानी	-9394
▁कहावत	-9395
▁कहोगे	-9396
▁कातिल	-9397
▁कीमती	-9398
▁कुँअर	-9399
मह	-9400
6।।	-9401
kra	-9402
ंबन	-9403
कपट	-9404
खेल	-9405
ञ्च	-9406
मरू	-9407
समय	-9408
सरत	-9409
ूठा	-9410
ोदर	-9411
॥46	-9412
▁ऋण	-9413
!॥5॥	-9414
क्षर	-9415
पक्व	-9416
वंशी	-9417
शिनी	-9418
ुमुक	-9419
ोजित	-9420
॥107	-9421
॥178	-9422
॥73॥	-9423
▁अजन	-9424
▁कटी	-9425
▁नबी	-9426
▁नरम	-9427
▁नशी	-9428
त्मिक	-9429
शिष्ट	-9430
ितव्य	-9431
।।6।।	-9432
॥114॥	-9433
॥142॥	-9434
॥177॥	-9435
▁अरिम	-9436
▁उठाई	-9437
▁ठोकर	-9438
▁डमरू	-9439
▁तरुण	-9440
▁ताड़	-9441
▁बंधी	-9442
▁बसें	-9443
▁भजिए	-9444
▁मरूँ	-9445
▁मेटी	-9446
▁वादे	-9447
▁सारस	-9448
▁॥16॥	-9449
उत्साह	-9450
मणियों	-9451
▁अजनबी	-9452
▁उठाते	-9453
▁उलटकर	-9454
▁काटती	-9455
▁कुकवि	-9456
▁कुठौर	-9457
▁कुमति	-9458
▁कुवेष	-9459
▁कूजते	-9460
▁कूबड़	-9461
▁कृत्य	-9462
▁कृपाल	-9463
▁कृष्ण	-9464
▁कोकिल	-9465
▁कोरकर	-9466
▁कोविद	-9467
▁कोहबर	-9468
▁क्षति	-9469
▁खच्चर	-9470
▁खाँड़	-9471
▁खासकर	-9472
▁खेतों	-9473
▁खोदकर	-9474
▁खोलते	-9475
▁गढ़कर	-9476
▁गदहों	-9477
▁गद्गद	-9478
▁गर्मी	-9479
▁गवैये	-9480
▁गिरती	-9481
▁गुणमय	-9482
▁गूँगा	-9483
▁गूँगे	-9484
▁ग्यार	-9485
▁घंटों	-9486
▁घमंडी	-9487
▁घेरकर	-9488
▁चढ़ता	-9489
▁चढ़ीं	-9490
▁चपेटे	-9491
▁चबेना	-9492
▁चमकने	-9493
▁चम्पा	-9494
▁चरणपा	-9495
▁चाकरी	-9496
▁चातकी	-9497
▁चुंबन	-9498
▁चुपके	-9499
fe	-9500
डूब	-9501
तलि	-9502
मूठ	-9503
ोदन	-9504
॥57	-9505
॥68	-9506
॥81	-9507
॥85	-9508
॥95	-9509
॥96	-9510
॥98	-9511
▁ईश	-9512
▁गठ	-9513
?॥10	-9514
म्बन	-9515
्तिक	-9516
॥100	-9517
॥103	-9518
॥106	-9519
॥111	-9520
॥90॥	-9521
▁डंक	-9522
▁पूर	-9523
▁पों	-9524
▁मून	-9525
क्रोध	-9526
डूबते	-9527
नुचित	-9528
॥109॥	-9529
॥111॥	-9530
॥116॥	-9531
॥117॥	-9532
॥118॥	-9533
॥119॥	-9534
॥180॥	-9535
॥202॥	-9536
▁अकाल	-9537
▁आसान	-9538
▁कायम	-9539
▁कुंद	-9540
▁खुला	-9541
▁चुना	-9542
▁जलाई	-9543
▁ढलान	-9544
▁निमि	-9545
▁रंगे	-9546
▁लंबा	-9547
▁हवाई	-9548
अनुचित	-9549
भिचारी	-9550
वंशमणि	-9551
ानुवाद	-9552
▁अठारह	-9553
▁अनजान	-9554
▁अस्वी	-9555
▁उपभोग	-9556
▁किलों	-9557
▁गुणगण	-9558
▁चरणतल	-9559
▁चूर्ण	-9560
▁चेलों	-9561
▁चैत्र	-9562
▁चौड़े	-9563
▁छटपटा	-9564
▁छावनी	-9565
▁छिद्र	-9566
▁छिपाए	-9567
▁छोड़ी	-9568
▁छोड़ो	-9569
▁जँभाई	-9570
▁जगमगा	-9571
▁जमाकर	-9572
▁जलप्र	-9573
▁जलाते	-9574
▁जाओगी	-9575
▁जाड़े	-9576
▁जानिए	-9577
▁जामुन	-9578
▁जीतता	-9579
▁जुआरी	-9580
▁जुड़े	-9581
▁जोड़ा	-9582
▁ज्ञात	-9583
▁झरोखे	-9584
▁झुककर	-9585
▁टहलनी	-9586
▁डपटते	-9587
▁डराने	-9588
▁डिगता	-9589
▁डुबोई	-9590
▁डूबती	-9591
▁डोलने	-9592
▁ढँकता	-9593
▁तंत्र	-9594
▁तपाने	-9595
▁तपोबल	-9596
▁तमाशे	-9597
▁ताकने	-9598
▁ताज़ा	-9599
बक	-9600
ंटक	-9601
ंभव	-9602
अभी	-9603
कौर	-9604
दरि	-9605
लेप	-9606
ेरू	-9607
्ले	-9608
॥42	-9609
पालन	-9610
बीले	-9611
वत्स	-9612
वृंद	-9613
॥125	-9614
॥52॥	-9615
▁इंड	-9616
▁उलट	-9617
▁खरा	-9618
▁भग्	-9619
▁मंज	-9620
▁सफ़	-9621
▁हॉल	-9622
ग्राम	-9623
बंधित	-9624
रिक्त	-9625
शांति	-9626
॥128॥	-9627
॥129॥	-9628
॥187॥	-9629
॥219॥	-9630
॥226॥	-9631
॥227॥	-9632
॥322॥	-9633
▁उलटी	-9634
▁खोजो	-9635
▁छलनी	-9636
▁जमता	-9637
▁मलते	-9638
▁मादा	-9639
▁वधिक	-9640
▁सादे	-9641
▁अंशों	-9642
▁अविचल	-9643
▁असंभव	-9644
▁अहंता	-9645
▁किलकि	-9646
▁खेलता	-9647
▁गर्जे	-9648
▁जवासा	-9649
▁तुरीय	-9650
▁तोतले	-9651
▁दंडित	-9652
▁दबाते	-9653
▁दबाने	-9654
▁दयनीय	-9655
▁दायरे	-9656
▁दिमाग	-9657
▁दिलकश	-9658
▁दिलों	-9659
▁दुपट्	-9660
▁दुहकर	-9661
▁दूषित	-9662
▁देंगी	-9663
▁देशों	-9664
▁दैवीय	-9665
▁दोपहर	-9666
▁द्वाद	-9667
▁द्वेष	-9668
▁द्वैत	-9669
▁नगरभर	-9670
▁नचाती	-9671
▁नचाने	-9672
▁नफीरी	-9673
▁नब्बे	-9674
▁नरपति	-9675
▁नवाने	-9676
▁नागबे	-9677
▁नाचता	-9678
▁नाचती	-9679
▁निपटा	-9680
▁निभता	-9681
▁निरोग	-9682
▁निस्स	-9683
▁पंचों	-9684
▁पंद्र	-9685
▁पकड़ा	-9686
▁पकवान	-9687
▁पक्का	-9688
▁पक्की	-9689
▁पछताई	-9690
▁पनाले	-9691
▁पन्ने	-9692
▁पपीहा	-9693
▁पम्पा	-9694
▁परवाह	-9695
▁परसने	-9696
▁पराया	-9697
▁परिचय	-9698
▁परिजन	-9699
कूद	-9700
भेद	-9701
॥63	-9702
॥74	-9703
▁फब	-9704
नुओं	-9705
श्वत	-9706
सत्य	-9707
स्या	-9708
होकर	-9709
॥71॥	-9710
॥75॥	-9711
॥76॥	-9712
▁जात	-9713
▁धुत	-9714
▁मरी	-9715
▁मौज	-9716
पुण्य	-9717
भंगुर	-9718
सुनने	-9719
ाद्यय	-9720
॥140॥	-9721
॥185॥	-9722
॥193॥	-9723
॥210॥	-9724
॥220॥	-9725
॥222॥	-9726
॥249॥	-9727
॥284॥	-9728
॥285॥	-9729
॥324॥	-9730
▁?॥1॥	-9731
▁अजगर	-9732
▁अपील	-9733
▁उमँग	-9734
▁काँच	-9735
▁कैकय	-9736
▁घुसे	-9737
▁चेले	-9738
▁जनाई	-9739
▁तबाह	-9740
▁तितर	-9741
▁धोने	-9742
▁पलभर	-9743
▁मकान	-9744
▁रखीं	-9745
चढ़ाकर	-9746
धिरहित	-9747
▁अमरता	-9748
▁आशाओं	-9749
▁उड़ता	-9750
▁कलशों	-9751
▁खींचा	-9752
▁गिराए	-9753
▁छूटता	-9754
▁छूटने	-9755
▁जलाता	-9756
▁तिनका	-9757
▁निवेश	-9758
▁पलकों	-9759
▁पसारा	-9760
▁पहिना	-9761
▁पापमय	-9762
▁पारित	-9763
▁पालता	-9764
▁पिछली	-9765
▁पीटते	-9766
▁पुजार	-9767
▁पुतली	-9768
▁पूँजी	-9769
▁पूजते	-9770
▁प्रथा	-9771
▁प्रशि	-9772
▁फायदा	-9773
▁फूलने	-9774
▁फेरकर	-9775
▁फैसला	-9776
▁बचाइए	-9777
▁बचेगा	-9778
▁बजाते	-9779
▁बड़ों	-9780
▁बताती	-9781
▁बताने	-9782
▁बधावा	-9783
▁बनाईं	-9784
▁बनेगा	-9785
▁बसाया	-9786
▁बसेगी	-9787
▁बहाते	-9788
▁बहुएँ	-9789
▁बार्ड	-9790
▁बाहरी	-9791
▁बाहों	-9792
▁बिछाई	-9793
▁बिताई	-9794
▁बीतती	-9795
▁बीतना	-9796
▁बीहड़	-9797
▁बुद्ध	-9798
▁बेचने	-9799
▁p	-9800
इसे	-9801
ेटे	-9802
▁78	-9803
-॥17	-9804
अधिक	-9805
लगकर	-9806
ससुर	-9807
ाँसी	-9808
॥130	-9809
॥161	-9810
▁ऊँट	-9811
▁जुट	-9812
▁ढाई	-9813
▁दलन	-9814
नामृत	-9815
भिज्ञ	-9816
॥131॥	-9817
॥134॥	-9818
॥136॥	-9819
॥137॥	-9820
॥139॥	-9821
॥151॥	-9822
॥156॥	-9823
॥160॥	-9824
॥164॥	-9825
॥167॥	-9826
॥168॥	-9827
॥175॥	-9828
॥181॥	-9829
॥183॥	-9830
॥184॥	-9831
॥186॥	-9832
॥188॥	-9833
॥190॥	-9834
॥195॥	-9835
॥196॥	-9836
॥200॥	-9837
॥201॥	-9838
॥205॥	-9839
॥207॥	-9840
॥221॥	-9841
॥229॥	-9842
॥235॥	-9843
॥236॥	-9844
॥238॥	-9845
॥239॥	-9846
॥280॥	-9847
॥287॥	-9848
॥288॥	-9849
॥295॥	-9850
॥299॥	-9851
॥305॥	-9852
▁खतरे	-9853
▁दर्द	-9854
▁बधिक	-9855
▁बरतन	-9856
▁भगाओ	-9857
▁भालु	-9858
▁मल्ल	-9859
▁सद्‍	-9860
▁ग्राह	-9861
▁जगहों	-9862
▁जागता	-9863
▁टेढ़े	-9864
▁फाँसी	-9865
▁फेंके	-9866
▁बीचों	-9867
▁बेदाग	-9868
▁बैठती	-9869
▁बोलकर	-9870
▁बोलती	-9871
▁ब्राह	-9872
▁भगवद्	-9873
▁भटकता	-9874
▁भद्दा	-9875
▁भाँडे	-9876
▁भाइयो	-9877
▁भागता	-9878
▁भागों	-9879
▁भूलता	-9880
▁भृंगी	-9881
▁भेजने	-9882
▁भेजीं	-9883
▁भोगते	-9884
▁मण्डप	-9885
▁मनहूस	-9886
▁मनाने	-9887
▁ममतार	-9888
▁मसलकर	-9889
▁मसलते	-9890
▁मसलने	-9891
▁महाजन	-9892
▁महाबल	-9893
▁माँगे	-9894
▁माँजा	-9895
▁माण्ड	-9896
▁मातलि	-9897
▁मानिए	-9898
▁मान्य	-9899
ta	-9900
कौ	-9901
जीं	-9902
॥87	-9903
▁72	-9904
गंगा	-9905
नाभा	-9906
म्भो	-9907
॥159	-9908
▁उगल	-9909
▁जूझ	-9910
▁॥25	-9911
॥120॥	-9912
॥132॥	-9913
॥212॥	-9914
॥213॥	-9915
॥214॥	-9916
॥216॥	-9917
॥217॥	-9918
॥243॥	-9919
॥245॥	-9920
॥246॥	-9921
॥257॥	-9922
॥258॥	-9923
॥260॥	-9924
॥261॥	-9925
॥262॥	-9926
॥263॥	-9927
॥269॥	-9928
॥271॥	-9929
॥275॥	-9930
॥277॥	-9931
॥279॥	-9932
॥312॥	-9933
॥313॥	-9934
॥315॥	-9935
॥317॥	-9936
॥320॥	-9937
॥323॥	-9938
▁अटकल	-9939
▁अनार	-9940
▁कराए	-9941
▁चपेट	-9942
▁पर्य	-9943
▁भूले	-9944
▁लटका	-9945
▁लाएं	-9946
▁कराते	-9947
▁कराने	-9948
▁खुशबू	-9949
▁गहराई	-9950
▁छिड़क	-9951
▁झगड़ा	-9952
▁टूटता	-9953
▁टूटते	-9954
▁पढ़ते	-9955
▁पहनाई	-9956
▁पहनें	-9957
▁भूषित	-9958
▁मर्मी	-9959
▁मायिक	-9960
▁मासिक	-9961
▁मिटाओ	-9962
▁मिठाई	-9963
▁मुड़ा	-9964
▁मुरझा	-9965
▁मोरनी	-9966
▁म्यान	-9967
▁यंत्र	-9968
▁यजमान	-9969
▁यमपुर	-9970
▁यमुना	-9971
▁यहूदा	-9972
▁यातना	-9973
▁योजना	-9974
▁रंगीन	-9975
▁राजसी	-9976
▁रावले	-9977
▁रुष्ट	-9978
▁रोपकर	-9979
▁लघुता	-9980
▁लजाकर	-9981
▁लजाते	-9982
▁लड़कर	-9983
▁लड्डू	-9984
▁लपटें	-9985
▁लाखों	-9986
▁लावें	-9987
▁लिखने	-9988
▁लुढ़क	-9989
▁लेखों	-9990
▁लेतीं	-9991
▁लोकमत	-9992
▁लौटाए	-9993
▁लौटें	-9994
▁वक्रो	-9995
▁वत्सल	-9996
▁वन्दी	-9997
▁वापसी	-9998
▁वासना	-9999
‍ठ	-10000
विश	-10001
▁ढक	-10002
▁सत	-10003
ंबना	-10004
अशुभ	-10005
खुशी	-10006
टिंग	-10007
बनाई	-10008
िरूप	-10009
॥350	-10010
▁ऊँच	-10011
▁लाद	-10012
▁सोए	-10013
अंगों	-10014
तियाँ	-10015
फिरते	-10016
वश्यक	-10017
विवेक	-10018
सुखों	-10019
॥147॥	-10020
॥244॥	-10021
॥306॥	-10022
▁उछले	-10023
▁कोटि	-10024
▁गाड़	-10025
▁छहों	-10026
▁टकरा	-10027
▁दबाव	-10028
▁धोया	-10029
▁नवमी	-10030
▁पतंग	-10031
▁बधाई	-10032
▁मानी	-10033
▁मौजी	-10034
▁वामन	-10035
▁हालत	-10036
▁॥11॥	-10037
▁अक्षत	-10038
▁आध्या	-10039
▁आसमान	-10040
▁उल्ले	-10041
▁कड़वे	-10042
▁घूँसे	-10043
▁घूमने	-10044
▁चमकना	-10045
▁छिपकर	-10046
▁छिपता	-10047
▁टंकार	-10048
▁ठहरती	-10049
▁तरीका	-10050
▁तिरछी	-10051
▁पहनते	-10052
▁पीटने	-10053
▁पुनरु	-10054
▁बँधवा	-10055
▁बदनाम	-10056
▁बाघों	-10057
▁मिस्र	-10058
▁ययाति	-10059
▁राजपद	-10060
▁लवलीन	-10061
▁विकास	-10062
▁विचरो	-10063
▁विदित	-10064
▁विद्य	-10065
▁विनता	-10066
▁विनयी	-10067
▁विरला	-10068
▁विरही	-10069
▁विसूर	-10070
▁वीर्य	-10071
▁वृत्त	-10072
▁वैदिक	-10073
▁वैश्य	-10074
▁व्यथा	-10075
▁व्यास	-10076
▁शम्भो	-10077
▁शापित	-10078
▁शामिल	-10079
▁शारदा	-10080
▁शिल्प	-10081
▁शिशिर	-10082
▁शूरता	-10083
▁शोकवश	-10084
▁शोकों	-10085
▁शौकीन	-10086
▁संगीत	-10087
▁सताता	-10088
▁सनातन	-10089
▁सफ़ेद	-10090
▁सभासद	-10091
▁समझें	-10092
▁समभाव	-10093
▁समरूप	-10094
▁समागम	-10095
▁समाती	-10096
▁सयाना	-10097
▁सरीखी	-10098
▁सर्दी	-10099
पैन	-10100
▁11	-10101
बितर	-10102
संकट	-10103
सिंग	-10104
▁गौं	-10105
▁छान	-10106
जिसने	-10107
ोपदेश	-10108
▁कण्ठ	-10109
▁खराब	-10110
▁धागे	-10111
▁नाले	-10112
▁पराग	-10113
▁भुजद	-10114
▁रूखा	-10115
▁रूखे	-10116
▁लपेट	-10117
प्रपंच	-10118
▁कंधों	-10119
▁बेकार	-10120
▁भुजबल	-10121
▁वाक्य	-10122
▁विलीन	-10123
▁सलोना	-10124
▁सवारी	-10125
▁सहमति	-10126
▁सातों	-10127
▁सानकर	-10128
▁सिखाई	-10129
▁सिधार	-10130
▁सींचा	-10131
▁सुनीं	-10132
▁सुसंग	-10133
▁सेव्य	-10134
▁सौम्य	-10135
▁स्यार	-10136
▁स्वजन	-10137
▁हँसती	-10138
▁हँसना	-10139
▁हकदार	-10140
▁हराया	-10141
▁हलाहल	-10142
▁हल्के	-10143
▁हवाले	-10144
▁हाँका	-10145
▁हारने	-10146
▁।।114	-10147
▁॥215॥	-10148
ंद्रजीत	-10149
कामनाओं	-10150
कार्तिक	-10151
घुमड़कर	-10152
चारियों	-10153
च्छिन्न	-10154
जातियाँ	-10155
जातियों	-10156
जानकीजी	-10157
धुरन्धर	-10158
न्द्रिय	-10159
न्धतीजी	-10160
पहिचाने	-10161
बाँकुरे	-10162
बाणधारी	-10163
ब्रह्मा	-10164
मस्सर्ग	-10165
मुनियों	-10166
रामायणे	-10167
र्षियों	-10168
लक्षणों	-10169
विज्ञान	-10170
विधियों	-10171
विरुद्ध	-10172
शस्सर्ग	-10173
ष्टाचार	-10174
संपत्ति	-10175
संस्कार	-10176
सीताराम	-10177
सुग्रीव	-10178
सुनेंगे	-10179
सुमंत्र	-10180
स्थानों	-10181
ुद्रोही	-10182
▁udders	-10183
▁अँकवार	-10184
▁अँगुली	-10185
▁अंगारे	-10186
▁अंतहीन	-10187
▁अकम्पन	-10188
▁अकिंचन	-10189
▁अखाड़ा	-10190
▁अगुवाई	-10191
▁अद्वैत	-10192
▁अधर्मी	-10193
▁अनाथों	-10194
▁अनुदान	-10195
▁अनुरोध	-10196
▁अन्यथा	-10197
▁अन्याय	-10198
▁अपनाता	-10199
▁अपनाया	-10200
▁अपार्ट	-10201
▁अभाग्य	-10202
▁अभिन्न	-10203
▁अभेद्य	-10204
▁अमूल्य	-10205
▁अवधिभर	-10206
▁असमर्थ	-10207
▁असाध्य	-10208
▁अस्थिर	-10209
▁आंतरिक	-10210
▁आंसुओं	-10211
▁आचरणों	-10212
▁आनंदवश	-10213
▁आराध्य	-10214
▁आवश्यक	-10215
▁आवाजें	-10216
▁इंतजार	-10217
▁इंद्रा	-10218
▁इच्छित	-10219
▁उच्चतम	-10220
▁उठाएगा	-10221
▁उत्तरा	-10222
▁उत्तरी	-10223
▁उत्पाद	-10224
▁उदयाचल	-10225
▁उदारता	-10226
▁उन्नीस	-10227
▁उपमाएँ	-10228
▁उपलब्ध	-10229
▁उमंगकर	-10230
▁ऋतुराज	-10231
▁ऋषिराज	-10232
▁एकान्त	-10233
▁कठिनाई	-10234
▁करामात	-10235
▁कहलाने	-10236
▁कांपते	-10237
▁कांपने	-10238
▁कामादि	-10239
▁कायरों	-10240
▁किरणें	-10241
▁कीड़ों	-10242
▁कुपथ्य	-10243
▁कुबड़े	-10244
▁कृतघ्न	-10245
▁केंद्र	-10246
▁कोपभवन	-10247
▁कौतुकी	-10248
▁क्षमता	-10249
▁खड़ाऊँ	-10250
▁खुशहाल	-10251
▁गरीबों	-10252
▁गवाहों	-10253
▁गांठों	-10254
▁गाथाएँ	-10255
▁गुच्छे	-10256
▁गुजरता	-10257
▁गुफाओं	-10258
▁गोधूलि	-10259
▁गोविंद	-10260
▁ग्रंथि	-10261
▁ग्रसने	-10262
▁ग्रस्त	-10263
▁ग्रहों	-10264
▁घटनाओं	-10265
▁घूँसों	-10266
▁चँदोवे	-10267
▁चकोरों	-10268
▁चमकीले	-10269
▁चलूँगा	-10270
▁चेहरों	-10271
▁चौकोनी	-10272
▁चौरासी	-10273
▁छिड़का	-10274
▁छिपाता	-10275
▁जटाजूट	-10276
▁जपयज्ञ	-10277
▁जलन्धर	-10278
▁जानकार	-10279
▁जाबालि	-10280
▁जीतेगा	-10281
▁जोड़ों	-10282
▁ज्यादा	-10283
▁झँगुली	-10284
▁झालरें	-10285
▁झुंडों	-10286
▁झुकाकर	-10287
▁टुकड़ी	-10288
▁ठकुरसु	-10289
▁ठहराकर	-10290
▁ठहराया	-10291
▁ठिठककर	-10292
▁ठुड्डी	-10293
▁डाँटते	-10294
▁डासियस	-10295
▁तड़पती	-10296
▁तड़पना	-10297
▁तत्काल	-10298
▁तत्वों	-10299
▁तमतमाए	-10300
▁तमोगुण	-10301
▁तर्कना	-10302
▁तुझमें	-10303
▁तृष्णा	-10304
▁तेजहीन	-10305
▁तोड़ना	-10306
▁तोरणों	-10307
▁त्यागी	-10308
▁त्रिया	-10309
▁दंडकवन	-10310
▁दधिमुख	-10311
▁दशकन्ध	-10312
▁दानवों	-10313
▁दिखलाए	-10314
▁दिखाता	-10315
▁दिखाते	-10316
▁दिखाया	-10317
▁दिखावा	-10318
▁दिलाकर	-10319
▁दिलासा	-10320
▁दुःखित	-10321
▁दुश्मन	-10322
▁दूधमुँ	-10323
▁देखेगा	-10324
▁दोधारी	-10325
▁दौड़ती	-10326
▁द्रवित	-10327
▁धर्ममय	-10328
▁धाराओं	-10329
▁नरलीला	-10330
▁नर्मदा	-10331
▁नवयुवक	-10332
▁नारायण	-10333
▁निकलने	-10334
▁निचोड़	-10335
▁निराशा	-10336
▁निर्भर	-10337
▁निवारण	-10338
▁निशाना	-10339
▁निष्फल	-10340
▁नीतिरस	-10341
▁नीलकंठ	-10342
▁न्योता	-10343
▁पकड़ता	-10344
▁पछताकर	-10345
▁पछताती	-10346
▁पड़ेगी	-10347
▁पढ़ाते	-10348
▁पढ़ाने	-10349
▁पतितों	-10350
▁परमदेव	-10351
▁परोसने	-10352
▁पहुँची	-10353
▁पहुंची	-10354
▁पाऊँगी	-10355
▁पाखण्ड	-10356
▁पागलों	-10357
▁पापमयी	-10358
▁पायजेब	-10359
▁पावेगा	-10360
▁पितरों	-10361
▁पिलाने	-10362
▁पुरारि	-10363
▁पैगंबर	-10364
▁प्रलाप	-10365
▁प्रशंस	-10366
▁प्रांत	-10367
▁प्रेसर	-10368
▁फुफकार	-10369
▁बँधाया	-10370
▁बनावें	-10371
▁बर्ताव	-10372
▁बलवाले	-10373
▁बसेंगे	-10374
▁बहुतों	-10375
▁बाँचकर	-10376
▁बाँधने	-10377
▁बालहंस	-10378
▁बावजूद	-10379
▁बिच्छू	-10380
▁बिछाते	-10381
▁बिठाकर	-10382
▁बुलाने	-10383
▁बूंदों	-10384
▁बैंगनी	-10385
▁भक्तजन	-10386
▁भयावनी	-10387
▁भवबंधन	-10388
▁भव्यता	-10389
▁भाईपना	-10390
▁भारीपन	-10391
▁भुगतना	-10392
▁भुनाया	-10393
▁भेड़ों	-10394
▁भ्रमते	-10395
▁भ्रमवश	-10396
▁भ्रष्ट	-10397
▁मँगवाई	-10398
▁मजदूरी	-10399
▁मनचीता	-10400
▁मनभावन	-10401
▁महर्षि	-10402
▁महावीर	-10403
▁मांगता	-10404
▁मागधों	-10405
▁मिलाकर	-10406
▁मुक्ता	-10407
▁मुखकमल	-10408
▁मुदिता	-10409
▁मुनिवर	-10410
▁मुर्दे	-10411
▁मूढ़ता	-10412
▁मेधावी	-10413
▁मैत्री	-10414
▁मैनाजी	-10415
▁याजकों	-10416
▁योगीजन	-10417
▁रक्षों	-10418
▁रखिएगा	-10419
▁रखूँगा	-10420
▁रचनाएँ	-10421
▁रसोइया	-10422
▁रहूँगा	-10423
▁रहूंगा	-10424
▁राजभवन	-10425
▁रामबाण	-10426
▁रावणों	-10427
▁रिझाकर	-10428
▁लंकिनी	-10429
▁लकीरों	-10430
▁लक्ष्य	-10431
▁लगाएगा	-10432
▁ललकारा	-10433
▁लाऊँगा	-10434
▁लाऊंगा	-10435
▁लुभाकर	-10436
▁लुभाया	-10437
▁वंदनीय	-10438
▁वंशजों	-10439
▁वर्णों	-10440
▁वाद्यय	-10441
▁वानरगण	-10442
▁वाहनों	-10443
▁विचारे	-10444
▁विधिवत	-10445
▁विनोदी	-10446
▁वियोगी	-10447
▁विस्मय	-10448
▁वीरासन	-10449
▁वैकुंठ	-10450
▁वैरागी	-10451
▁व्यापी	-10452
▁शतरूपा	-10453
▁शस्त्र	-10454
▁शाश्वत	-10455
▁शिलाएँ	-10456
▁शेषनाग	-10457
▁श्मशान	-10458
▁श्रमों	-10459
▁संख्या	-10460
▁संघर्ष	-10461
▁संपर्क	-10462
▁संबंधी	-10463
▁संभाला	-10464
▁सकेंगी	-10465
▁सक्रिय	-10466
▁सड़कों	-10467
▁सत्यता	-10468
▁सदाचार	-10469
▁समझाता	-10470
▁सम्राट	-10471
▁साँवली	-10472
▁सातवीं	-10473
▁सिंचाई	-10474
▁सिंहों	-10475
▁सिखाता	-10476
▁सिखाती	-10477
▁सिखाया	-10478
▁सीमाओं	-10479
▁सुकृती	-10480
▁सुचतुर	-10481
▁सुद्रा	-10482
▁सुनयनी	-10483
▁सुनाती	-10484
▁सुनाने	-10485
▁सुनेगा	-10486
▁सुमुखी	-10487
▁सुविधा	-10488
▁सोलहों	-10489
▁स्टीयर	-10490
▁स्थायी	-10491
▁स्मृति	-10492
▁स्वरुप	-10493
▁स्वाति	-10494
▁हरिनाम	-10495
▁हरिनों	-10496
▁हरिश्च	-10497
▁हिमालय	-10498
▁हिलाती	-10499
▁हुँकार	-10500
▁होऊँगा	-10501
▁होऊँगी	-10502
तापूर्वक	-10503
त्युपकार	-10504
दीप्यमान	-10505
निर्माता	-10506
पूर्णिमा	-10507
प्रतिदिन	-10508
ब्राह्मण	-10509
व्यभिचार	-10510
▁अंकुरित	-10511
▁अंतःकरण	-10512
▁अंशुमान	-10513
▁अच्छेपन	-10514
▁अधिकांश	-10515
▁अनभिज्ञ	-10516
▁अनुकंपा	-10517
▁अनुगामी	-10518
▁अनुमोदन	-10519
▁अन्यत्र	-10520
▁अपराधों	-10521
▁अप्रमेय	-10522
▁अब्राहम	-10523
▁अभिभावक	-10524
▁अरुणोदय	-10525
▁अवलम्बन	-10526
▁अश्वमेध	-10527
▁आचारहीन	-10528
▁आदमियों	-10529
▁आदरसहित	-10530
▁आनंदकंद	-10531
▁आपूर्ति	-10532
▁आश्वासन	-10533
▁इंद्रिय	-10534
▁इत्यादि	-10535
▁ईर्ष्या	-10536
▁उच्चाटन	-10537
▁उजियाला	-10538
▁उत्पादन	-10539
▁उद्दण्ड	-10540
▁उपयुक्त	-10541
▁उपलब्धि	-10542
▁उपेक्षा	-10543
▁उल्लुओं	-10544
▁ओतप्रोत	-10545
▁कँगूरों	-10546
▁कटकटाते	-10547
▁कठपुतली	-10548
▁कन्याओं	-10549
▁कपटरहित	-10550
▁करतूतें	-10551
▁कल्पलता	-10552
▁कातिलों	-10553
▁किंवाड़	-10554
▁कुण्ठित	-10555
▁कुमुदवन	-10556
▁कुम्हार	-10557
▁कुलनाशक	-10558
▁कुसंगति	-10559
▁कोसलपुर	-10560
▁कौशल्या	-10561
▁क्षुद्र	-10562
▁गर्भवती	-10563
▁गावेंगे	-10564
▁गुणवान्	-10565
▁गौरीपति	-10566
▁घरफोड़ी	-10567
▁घाटियों	-10568
▁चरणधूलि	-10569
▁चित्रित	-10570
▁चुगलखोर	-10571
▁चूकेंगे	-10572
▁छो़ड़कर	-10573
▁जगदम्बा	-10574
▁जगदाधार	-10575
▁जटाधारी	-10576
▁जमदग्नि	-10577
▁जानिएगा	-10578
▁जीतेंगे	-10579
▁ज्ञानमय	-10580
▁ज्योनार	-10581
▁टोपियाँ	-10582
▁डरपोकों	-10583
▁तदनुसार	-10584
▁तलवारों	-10585
▁तीरंदाज	-10586
▁तुलसीजी	-10587
▁त्रिकाल	-10588
▁दक्षिणा	-10589
▁दक्षिणी	-10590
▁दण्डकवन	-10591
▁दयानिधि	-10592
▁दयासागर	-10593
▁दिखलाता	-10594
▁दीजिएगा	-10595
▁दुःखभरी	-10596
▁दुर्मुख	-10597
▁दुश्मनी	-10598
▁दुष्टता	-10599
▁दूल्हों	-10600
▁देवमाया	-10601
▁दोषरहित	-10602
▁द्वीपों	-10603
▁धनवानों	-10604
▁धर्मशील	-10605
▁धोखेबाज	-10606
▁नगरवासी	-10607
▁नवयुवती	-10608
▁नागबेली	-10609
▁नारियों	-10610
▁निकालते	-10611
▁निबाहने	-10612
▁निराकार	-10613
▁निर्बाध	-10614
▁निर्भीक	-10615
▁निर्लेप	-10616
▁निवृत्त	-10617
▁निषादों	-10618
▁निष्पाप	-10619
▁निस्तार	-10620
▁नैवेद्य	-10621
▁पंडितों	-10622
▁पड़ूँगी	-10623
▁पड़ेंगे	-10624
▁पताकाएँ	-10625
▁परिपक्व	-10626
▁परेशानी	-10627
▁पहचानते	-10628
▁पहुँचने	-10629
▁पहुंचने	-10630
▁पीड़ाओं	-10631
▁पुकारता	-10632
▁पुण्यमय	-10633
▁पूछेंगी	-10634
▁प्रकाशक	-10635
▁प्रकृति	-10636
▁प्रतीति	-10637
▁प्रबलता	-10638
▁प्रयोजन	-10639
▁फायरगोद	-10640
▁बकरियों	-10641
▁बड़प्पन	-10642
▁बड़वानल	-10643
▁बनाएँगे	-10644
▁बहुतेरे	-10645
▁बाघम्बर	-10646
▁बिगड़ना	-10647
▁बुढ़ापे	-10648
▁बुलवाकर	-10649
▁बेटियों	-10650
▁बेशुमार	-10651
▁बैठेंगे	-10652
▁बोलेंगे	-10653
▁बौद्धिक	-10654
▁भड़काने	-10655
▁भड़काया	-10656
▁भेजेंगे	-10657
▁भेड़िये	-10658
▁भोगावती	-10659
▁मँगवाईं	-10660
▁मँगवाया	-10661
▁मंगलगीत	-10662
▁मतिभ्रम	-10663
▁मनोरंजन	-10664
▁मरुभूमि	-10665
▁मर्दाना	-10666
▁महामाया	-10667
▁महामूढ़	-10668
▁महायाजक	-10669
▁महासागर	-10670
▁मानेंगे	-10671
▁मायापति	-10672
▁मारेंगे	-10673
▁मिथिलेश	-10674
▁मिश्रित	-10675
▁मुकुटों	-10676
▁मुखवाले	-10677
▁मृगचर्म	-10678
▁मेघसमूह	-10679
▁मेहमानी	-10680
▁मैदानों	-10681
▁मोहरहित	-10682
▁मौलसिरी	-10683
▁रघुनाजी	-10684
▁राज्यों	-10685
▁रामभक्त	-10686
▁राष्ट्र	-10687
▁रास्तों	-10688
▁रिपोर्ट	-10689
▁रीतियों	-10690
▁रूपरहित	-10691
▁लगाऊँगा	-10692
▁वटवृक्ष	-10693
▁वांछनीय	-10694
▁वासियों	-10695
▁वासुदेव	-10696
▁विंडगोड	-10697
▁विचारता	-10698
▁विडंबना	-10699
▁विदेशों	-10700
▁विधवापन	-10701
▁विभूषित	-10702
▁विराजते	-10703
▁विराजित	-10704
▁विराजीं	-10705
▁विवादित	-10706
▁विस्तृत	-10707
▁शशिभूषण	-10708
▁शारीरिक	-10709
▁शीलनिधि	-10710
▁शुभागमन	-10711
▁श्रंगार	-10712
▁श्राद्ध	-10713
▁श्रीमति	-10714
▁श्रीहीन	-10715
▁संचालित	-10716
▁संतानों	-10717
▁संरक्षण	-10718
▁संसारभर	-10719
▁सदाचारी	-10720
▁सभासदों	-10721
▁समझदारी	-10722
▁समयोचित	-10723
▁समाप्ति	-10724
▁समुद्री	-10725
▁सम्राट्	-10726
▁सयानापन	-10727
▁सहावेगा	-10728
▁साइप्रस	-10729
▁सिखलाते	-10730
▁सीतानाथ	-10731
▁सुलोचनी	-10732
▁सुवासित	-10733
▁सुहागिन	-10734
▁सूर्यों	-10735
▁सेवाभाव	-10736
▁स्मरणकर	-10737
▁हँसेंगे	-10738
▁हरिवाहन	-10739
कुत्स्थों	-10740
पार्वतीजी	-10741
सुंदरियाँ	-10742
▁अंतर्धान	-10743
▁अग्रगण्य	-10744
▁अतिरिक्त	-10745
▁अद्वितीय	-10746
▁अनंतकोटि	-10747
▁अनुपलब्ध	-10748
▁अन्तःकरण	-10749
▁अपकीर्ति	-10750
▁अप्रसन्न	-10751
▁अप्सराओं	-10752
▁अरिमर्दन	-10753
▁अवस्थाएँ	-10754
▁अविश्वास	-10755
▁असंख्यों	-10756
▁अस्वीकार	-10757
▁आहुतियाँ	-10758
▁इंद्रजाल	-10759
▁इंद्रजीत	-10760
▁इन्द्रों	-10761
▁इस्तेमाल	-10762
▁उत्साहित	-10763
▁ऋद्धियाँ	-10764
▁करुणाधाम	-10765
▁कर्मनाशा	-10766
▁कलंकरहित	-10767
▁कलहप्रिय	-10768
▁कलाकारों	-10769
▁कारीगरों	-10770
▁कार्रवाई	-10771
▁कृतकृत्य	-10772
▁कृपानिधि	-10773
▁कैकेयीजी	-10774
▁कैलासपति	-10775
▁कोसलपुरी	-10776
▁क्रियाएँ	-10777
▁क्रियाओं	-10778
▁खिसियाकर	-10779
▁गंधर्वों	-10780
▁गाड़ियों	-10781
▁गौरवशाली	-10782
▁घनमूर्ति	-10783
▁चिंतामणि	-10784
▁चिदानन्द	-10785
▁छोड़िएगा	-10786
▁छोड़ूँगी	-10787
▁छोड़ेंगे	-10788
▁जगत्पिता	-10789
▁जन्मरहित	-10790
▁जलप्रपात	-10791
▁जाम्बवान	-10792
▁ज्ञानीजन	-10793
▁तपस्विनी	-10794
▁तोड़ेंगे	-10795
▁दम्भियों	-10796
▁दुनियाओं	-10797
▁दुन्दुभी	-10798
▁दुलहिनें	-10799
▁देवसरोवर	-10800
▁द्रव्यों	-10801
▁धर्मसंकट	-10802
▁नागरिकों	-10803
▁नारदमुनि	-10804
▁निःसंदेह	-10805
▁निछावरें	-10806
▁निरीक्षण	-10807
▁निर्मलता	-10808
▁निष्कंटक	-10809
▁निष्कलंक	-10810
▁पण्डितों	-10811
▁परब्रह्म	-10812
▁परमार्थी	-10813
▁परस्त्री	-10814
▁पहुँचाते	-10815
▁पहुँचाया	-10816
▁पहुंचाते	-10817
▁पुण्यवान	-10818
▁पुरुषत्व	-10819
▁प्रकाशमय	-10820
▁प्रख्यात	-10821
▁प्रतिज्ञ	-10822
▁प्रमाणित	-10823
▁प्रवर्षण	-10824
▁प्रवाहित	-10825
▁प्रश्नों	-10826
▁प्रसंगों	-10827
▁बहुमूल्य	-10828
▁बिगाड़ने	-10829
▁भावप्रिय	-10830
▁भिक्षुओं	-10831
▁मंगलकारी	-10832
▁मक्खियाँ	-10833
▁मध्याह्न	-10834
▁मनःकामना	-10835
▁मन्दोदरी	-10836
▁महाध्वनि	-10837
▁मायारचित	-10838
▁मायारहित	-10839
▁मुनिगणों	-10840
▁मूल्यवान	-10841
▁यज्ञशाला	-10842
▁योगीश्वर	-10843
▁राजमार्ग	-10844
▁रामवियोग	-10845
▁रोमांचित	-10846
▁लड़ाइयाँ	-10847
▁वर्णवाली	-10848
▁विचारशील	-10849
▁विद्याएँ	-10850
▁विद्याओं	-10851
▁विद्याधर	-10852
▁विशालकाय	-10853
▁विशेषज्ञ	-10854
▁वृत्तांत	-10855
▁शहनाइयाँ	-10856
▁श्रमरहित	-10857
▁श्रोताओं	-10858
▁संतुष्टि	-10859
▁सांत्वना	-10860
▁सावित्री	-10861
▁सीमारहित	-10862
▁सूर्यदेव	-10863
▁सेतुबन्ध	-10864
▁स्त्रीमय	-10865
▁स्वेच्छा	-10866
▁अँगुलियाँ	-10867
▁अंतरात्मा	-10868
▁अंधकारमयी	-10869
▁अनुरागिणी	-10870
▁अपराधियों	-10871
▁अमोघशक्ति	-10872
▁अरुंधतीजी	-10873
▁अविनाशिनी	-10874
▁आत्महत्या	-10875
▁आदिकाव्ये	-10876
▁इंद्रियाँ	-10877
▁इक्ष्वाकु	-10878
▁इन्द्रजनी	-10879
▁उपाधिरहित	-10880
▁उर्मिलाजी	-10881
▁करुणाकन्द	-10882
▁कामधेनुओं	-10883
▁कृपासिंधु	-10884
▁क्षणभंगुर	-10885
▁क्षणमात्र	-10886
▁गन्धर्वों	-10887
▁गुणानुवाद	-10888
▁चक्रवर्ती	-10889
▁चिन्तामणि	-10890
▁जनजातियाँ	-10891
▁ज्ञानवान्	-10892
▁तपोमूर्ति	-10893
▁त्रेतायुग	-10894
▁त्रैलोक्य	-10895
▁दृष्टिकोण	-10896
▁देवदुर्लभ	-10897
▁धर्मशीलता	-10898
▁धैर्यवान्	-10899
▁नास्तिकों	-10900
▁निर्देशित	-10901
▁निर्विघ्न	-10902
▁नीतिपरायण	-10903
▁पच्चीकारी	-10904
▁परमार्थतः	-10905
▁पाठ्यक्रम	-10906
▁पाणिग्रहण	-10907
▁पुजारियों	-10908
▁पूर्वजन्म	-10909
▁पूर्वाभास	-10910
▁प्रतिभाएँ	-10911
▁प्रत्यंचा	-10912
▁प्रस्तावक	-10913
▁प्रामाणिक	-10914
▁बड़भागिनी	-10915
▁ब्रह्मबाण	-10916
▁ब्रह्मसुख	-10917
▁ब्रह्माणी	-10918
▁भगवद्भक्त	-10919
▁भाग्यवान्	-10920
▁भाग्यशाली	-10921
▁भिक्षुकों	-10922
▁मंगलोत्सव	-10923
▁महिमामंडन	-10924
▁माण्डवीजी	-10925
▁माल्यवान्	-10926
▁मुखचन्द्र	-10927
▁मुनिवृन्द	-10928
▁मुनीश्वरो	-10929
▁मुस्कराते	-10930
▁मूर्तिमान	-10931
▁मृगतृष्णा	-10932
▁रघुकुलमणि	-10933
▁रणबाँकुरे	-10934
▁रामप्रताप	-10935
▁वक्रोक्ति	-10936
▁वाक्पटुता	-10937
▁वानप्रस्थ	-10938
▁वृत्तान्त	-10939
▁व्यक्तिगत	-10940
▁व्यभिचारी	-10941
▁शिवद्रोही	-10942
▁श्रोत्रिय	-10943
▁संसाररूपी	-10944
▁संस्थानों	-10945
▁सद्‍गुणों	-10946
▁समयानुसार	-10947
▁सर्वदर्शी	-10948
▁सर्वसमर्थ	-10949
▁सर्वोत्तम	-10950
▁साम्राज्य	-10951
▁सुलक्षणों	-10952
▁सूर्यास्त	-10953
▁स्वामियों	-10954
▁हरिभक्तों	-10955
▁हिनहिनाते	-10956
प्रत्युत्तर	-10957
▁अक्षयकुमार	-10958
▁अपार्टमेंट	-10959
▁अरुन्धतीजी	-10960
▁आध्यात्मिक	-10961
▁इन्द्रियाँ	-10962
▁कपिश्रेष्ठ	-10963
▁कल्याणप्रद	-10964
▁कृपाकटाक्ष	-10965
▁कृपापूर्वक	-10966
▁गतिविधियों	-10967
▁गुरुद्रोही	-10968
▁चिग्घाड़ने	-10969
▁जनकपुरवासी	-10970
▁ठकुरसुहाती	-10971
▁त्रिवेणीजी	-10972
▁दक्षकुमारी	-10973
▁दुर्वासाजी	-10974
▁धीरधुरन्धर	-10975
▁पुनरुत्थान	-10976
▁पुलस्त्यजी	-10977
▁प्रतिबंधित	-10978
▁प्रतिबिम्ब	-10979
▁प्रदक्षिणा	-10980
▁प्रभावशाली	-10981
▁प्रशिक्षित	-10982
▁प्राणमात्र	-10983
▁ब्रह्मवाणी	-10984
▁मंदाकिनीजी	-10985
▁मनःकामनाएँ	-10986
▁मुस्कुराईं	-10987
▁मुस्कुराने	-10988
▁रघुवंशियों	-10989
▁रघुश्रेष्ठ	-10990
▁रहस्ययुक्त	-10991
▁रामेश्वरजी	-10992
▁लक्ष्मीपते	-10993
▁विष्णुभक्त	-10994
▁वेणीमाधवजी	-10995
▁वेदमंत्रों	-10996
▁वेदविरुद्ध	-10997
▁सत्पुरुषों	-10998
▁सिद्धाश्रम	-10999
▁सुमन्त्रजी	-11000
नवाह्नपारायण	-11001
▁अयोध्याकांड	-11002
▁अयोध्यावासी	-11003
▁उत्साहपूर्ण	-11004
▁कान्तियुक्त	-11005
▁क्रोधपूर्वक	-11006
▁क्षीरसमुद्र	-11007
▁चतुरशिरोमणि	-11008
▁चरणपादुकाओं	-11009
▁ज्योतिषियों	-11010
▁द्वैतबुद्धि	-11011
▁प्रतिभाशाली	-11012
▁प्रत्युपकार	-11013
▁ब्रह्मज्ञान	-11014
▁ब्रह्मनिष्ठ	-11015
▁भक्तवत्सलता	-11016
▁भविष्यवक्ता	-11017
▁लक्ष्मीकांत	-11018
▁व्यापारियों	-11019
▁श्रीजानकीजी	-11020
▁श्रुतकीर्ति	-11021
▁सुतीक्ष्णजी	-11022
▁सौभाग्यशाली	-11023
▁हरिश्चन्द्र	-11024
▁कल्याणस्वरूप	-11025
▁क्षेत्ररक्षक	-11026
▁जगत्प्रसिद्ध	-11027
▁त्रियाचरित्र	-11028
▁देवसुंदरियाँ	-11029
▁नम्रतापूर्वक	-11030
▁पक्षीश्रेष्ठ	-11031
▁परिणामस्वरूप	-11032
▁ब्रह्माण्डभर	-11033
▁राजकुमारियों	-11034
▁लक्ष्मीनिवास	-11035
▁वाद्ययंत्रों	-11036
▁विश्वासयोग्य	-11037
▁शरत्पूर्णिमा	-11038
▁सम्मानपूर्वक	-11039
▁अयोध्याकाण्डे	-11040
▁गांधारवासियों	-11041
▁प्रतिद्वंद्वी	-11042
▁ब्रह्मचारियों	-11043
▁भविष्यद्वक्ता	-11044
▁रघुकुलश्रेष्ठ	-11045
▁स्वामिकार्तिक	-11046
▁अयोध्यावासियों	-11047
▁परमानन्दस्वरूप	-11048
▁श्रीमतिरामायणे	-11049
▁भविष्यद्वक्ताओं	-11050
121	-11051
atī	-11052
dre	-11053
eat	-11054
eta	-11055
lay	-11056
lic	-11057
pat	-11058
uis	-11059
ंटव	-11060
इंट	-11061
उलर	-11062
नोट	-11063
फरन	-11064
फुट	-11065
फेज	-11066
लैश	-11067
लौट	-11068
ैटभ	-11069
ोडश	-11070
ोनष	-11071
।..	-11072
।13	-11073
।15	-11074
▁..	-11075
▁aś	-11076
▁fe	-11077
▁mi	-11078
▁po	-11079
▁yi	-11080
!॥1।	-11081
,॥1।	-11082
-॥83	-11083
-॥93	-11084
1093	-11085
?॥48	-11086
akra	-11087
ayan	-11088
dity	-11089
dreg	-11090
leat	-11091
ouch	-11092
pati	-11093
quis	-11094
ratī	-11095
rods	-11096
अदाल	-11097
कसाई	-11098
कैटभ	-11099
उंट	-11100
ैडल	-11101
,॥83	-11102
?॥94	-11103
ँखुए	-11104
खरीद	-11105
गहने	-11106
गिरि	-11107
गूओं	-11108
गौतम	-11109
ग्वि	-11110
चुने	-11111
जपते	-11112
जिसे	-11113
जीतो	-11114
झुंड	-11115
ञ्चश	-11116
टापे	-11117
टामी	-11118
टैडल	-11119
डाबा	-11120
डि़त	-11121
तरीन	-11122
थफेज	-11123
नझना	-11124
पतला	-11125
पहले	-11126
फरनह	-11127
फेक्	-11128
बियन	-11129
बेमौ	-11130
भोजी	-11131
मौजी	-11132
रखाव	-11133
लाइट	-11134
लागू	-11135
लूला	-11136
लौटो	-11137
ष्‍ठ	-11138
सियत	-11139
सियर	-11140
सूचक	-11141
िमाम	-11142
ुल्क	-11143
ूंघट	-11144
ेटेस	-11145
ोपाय	-11146
।109	-11147
‍ठजी	-11148
▁218	-11149
▁daw	-11150
▁man	-11151
▁pow	-11152
▁vre	-11153
▁vro	-11154
▁wic	-11155
▁आवभ	-11156
▁औघट	-11157
▁ख़ब	-11158
▁गठज	-11159
▁घमो	-11160
▁चपत	-11161
▁चहच	-11162
▁ज़ू	-11163
▁झाग	-11164
▁टाँ	-11165
▁टाट	-11166
▁नोई	-11167
▁पटल	-11168
▁पोख	-11169
▁रॉक	-11170
▁‍िल	-11171
!॥114	-11172
!॥33॥	-11173
!॥57॥	-11174
!॥68॥	-11175
-॥107	-11176
-॥63॥	-11177
-॥72॥	-11178
-॥83॥	-11179
10935	-11180
?॥105	-11181
?॥111	-11182
?॥30॥	-11183
?॥62॥	-11184
?॥69॥	-11185
dakra	-11186
layer	-11187
quish	-11188
wtras	-11189
ytras	-11190
āratī	-11191
ँड़ें	-11192
ंगोपा	-11193
अच्छे	-11194
अदालत	-11195
असंगत	-11196
उत्तम	-11197
कलौते	-11198
कासित	-11199
दैव	-11200
▁षड	-11201
!॥80	-11202
keds	-11203
डंबर	-11204
धापन	-11205
पादक	-11206
ब्बर	-11207
ब्बा	-11208
हाहट	-11209
▁शेड	-11210
ंकीकि	-11211
ंगतें	-11212
ंधनुष	-11213
कुकवि	-11214
कूदकर	-11215
केशों	-11216
क्येय	-11217
खूनों	-11218
गिरते	-11219
घाटित	-11220
चरणों	-11221
चौड़ा	-11222
छबीले	-11223
छिद्र	-11224
जवाते	-11225
ज़ाबे	-11226
जामिल	-11227
जिंगल	-11228
जुलकर	-11229
झगड़ा	-11230
टकारा	-11231
टेबाज	-11232
ठुमुक	-11233
ड़खड़	-11234
ढ़ूँढ	-11235
तियाड	-11236
दाश्त	-11237
दीर्घ	-11238
द्देन	-11239
नगुना	-11240
नलाइट	-11241
नाचूर	-11242
निहाल	-11243
न्सॉल	-11244
पताका	-11245
पवनगौ	-11246
पाइंट	-11247
पापों	-11248
प्राग	-11249
फ्रास	-11250
बड़ाई	-11251
बढ़ता	-11252
बढ़ाव	-11253
महिला	-11254
मूत्र	-11255
यातना	-11256
युज्य	-11257
लोचनि	-11258
ल्लगी	-11259
विनला	-11260
विरही	-11261
विशाल	-11262
वृत्त	-11263
शबाजी	-11264
शांबी	-11265
श्याम	-11266
षासुर	-11267
सुधन्	-11268
हमस्म	-11269
़ड़जी	-11270
ालिके	-11271
िकुंड	-11272
िप्पा	-11273
ियन्स	-11274
ोटिंग	-11275
ोडशोप	-11276
्रिंक	-11277
।135॥	-11278
।157॥	-11279
॥361॥	-11280
॥।121	-11281
▁211॥	-11282
▁?॥63	-11283
▁dain	-11284
▁savi	-11285
▁thin	-11286
▁varu	-11287
▁veta	-11288
▁vrea	-11289
▁अबाध	-11290
▁आलसी	-11291
▁उदधि	-11292
▁उलीच	-11293
▁ऊंची	-11294
▁एकदम	-11295
▁कंबल	-11296
▁कडुए	-11297
▁कढ़े	-11298
▁कतर्	-11299
610	-11300
ith	-11301
tar	-11302
5610	-11303
aras	-11304
इसके	-11305
उमंग	-11306
मीठी	-11307
।।10	-11308
▁ओछी	-11309
▁यदस	-11310
▁रईस	-11311
65610	-11312
baras	-11313
ञ्चवि	-11314
टरब्र	-11315
▁कसरत	-11316
▁कागज	-11317
▁कुँआ	-11318
▁कैटभ	-11319
▁कोठी	-11320
▁खंडन	-11321
▁खंभे	-11322
▁खर्च	-11323
▁गामी	-11324
▁गारल	-11325
▁गारु	-11326
▁गेरू	-11327
▁गोधा	-11328
▁घमोई	-11329
▁घसीट	-11330
▁चखने	-11331
▁ज़ोर	-11332
▁जाऊं	-11333
▁जेठे	-11334
▁टलती	-11335
▁टिके	-11336
▁टिटि	-11337
▁टूटा	-11338
▁टूटे	-11339
▁टोकर	-11340
▁ट्रि	-11341
▁ढोने	-11342
▁दोनो	-11343
▁धंधा	-11344
▁धराण	-11345
▁नंदी	-11346
▁नंबर	-11347
▁पाँख	-11348
▁पूरब	-11349
▁पोंछ	-11350
▁फँसा	-11351
▁फँसे	-11352
▁फुलम	-11353
▁बंटव	-11354
▁बबूल	-11355
▁बाउल	-11356
▁बेमौ	-11357
▁भटके	-11358
▁मँगा	-11359
▁मलहम	-11360
▁मसले	-11361
▁मिशन	-11362
▁मुँद	-11363
▁मोमब	-11364
▁म्ले	-11365
▁याजक	-11366
▁रेंग	-11367
▁रेंड	-11368
▁लकीर	-11369
▁लटके	-11370
▁लेडी	-11371
▁लॉर्	-11372
▁शगुन	-11373
▁शाइन	-11374
▁शेडे	-11375
▁षट्च	-11376
▁सतरु	-11377
▁समेट	-11378
▁सिमट	-11379
▁सेटर	-11380
▁सोफे	-11381
▁स्टै	-11382
▁स्टो	-11383
▁हतभा	-11384
▁हलचल	-11385
▁हलदी	-11386
▁हुलस	-11387
▁॥43॥	-11388
▁॥49॥	-11389
▁॥52॥	-11390
▁॥58॥	-11391
▁‍िलए	-11392
!॥113॥	-11393
!॥165॥	-11394
!॥180॥	-11395
!॥199॥	-11396
'॥295॥	-11397
,॥117॥	-11398
,॥4-5॥	-11399
▁yo	-11400
▁yok	-11401
!॥36॥	-11402
!॥47॥	-11403
,॥118	-11404
-॥51॥	-11405
?॥36॥	-11406
?॥50॥	-11407
?॥59॥	-11408
टियां	-11409
प्रेस	-11410
मन्दा	-11411
्पांत	-11412
्रिंग	-11413
▁2186	-11414
▁yoke	-11415
▁अचरज	-11416
▁धीमी	-11417
▁नैमि	-11418
▁पौरस	-11419
▁बकरी	-11420
▁मचाई	-11421
▁मामा	-11422
▁मामू	-11423
▁मूसा	-11424
▁सजीव	-11425
▁॥21॥	-11426
-॥145॥	-11427
-॥176॥	-11428
-॥210॥	-11429
-॥252॥	-11430
-॥255॥	-11431
-॥266॥	-11432
-॥270॥	-11433
-॥273॥	-11434
-॥276॥	-11435
-॥284॥	-11436
-॥297॥	-11437
-॥314॥	-11438
?॥110॥	-11439
?॥222॥	-11440
?॥231॥	-11441
?॥237॥	-11442
?॥299॥	-11443
?॥304॥	-11444
?॥307॥	-11445
aspati	-11446
dityas	-11447
hāratī	-11448
licity	-11449
ndakra	-11450
ouchsa	-11451
tyayan	-11452
ंगलोपा	-11453
ंटियों	-11454
ंदीमुख	-11455
अवसरों	-11456
उमंगकर	-11457
कपालों	-11458
क्सिंग	-11459
खड़ाना	-11460
खस्तान	-11461
गड़ाहट	-11462
गर्जना	-11463
ग्यादि	-11464
ग्विजय	-11465
ज़ाबेथ	-11466
टुकडि़	-11467
टैडल्स	-11468
ठिकाने	-11469
तस्थों	-11470
तिव्रत	-11471
तृद्री	-11472
दरिद्र	-11473
दूसरों	-11474
नझनाहट	-11475
निन्दा	-11476
निर्भर	-11477
न्दिनी	-11478
पवनगढ़	-11479
पापिनी	-11480
प्यारे	-11481
प्रसंग	-11482
फुलाकर	-11483
बशर्ते	-11484
बिन्दु	-11485
बुझाया	-11486
भक्ष्य	-11487
भिकुंड	-11488
भुनाने	-11489
माँगकर	-11490
राक्षस	-11491
लद्वीप	-11492
वितर्क	-11493
विनलाव	-11494
विशारद	-11495
शनिकों	-11496
शाक्षर	-11497
शान्ति	-11498
श्वरीय	-11499
खोज	-11500
छठा	-11501
ठाट	-11502
नरक	-11503
पहन	-11504
पूत	-11505
फ़र	-11506
रफ़	-11507
ैठा	-11508
▁38	-11509
ands	-11510
saty	-11511
कम्प	-11512
खोरी	-11513
पूती	-11514
पूवक	-11515
पृथक	-11516
बैठा	-11517
रचना	-11518
र्टल	-11519
ाघात	-11520
िंगर	-11521
ूँठा	-11522
ैलिल	-11523
▁चखो	-11524
▁छठे	-11525
▁शैल	-11526
▁हफ़	-11527
?'॥4॥	-11528
āsaty	-11529
ंदुभि	-11530
उपयोग	-11531
खोजता	-11532
ग्वेल	-11533
पहनती	-11534
फ़ानी	-11535
भोगों	-11536
मुग्ध	-11537
रफ़ॉक	-11538
र्टार	-11539
र्वहन	-11540
वैताल	-11541
सलर्स	-11542
ादरें	-11543
िनगार	-11544
ीलर्स	-11545
▁अमिट	-11546
▁निषे	-11547
▁शाखो	-11548
nāsaty	-11549
ंसलर्स	-11550
फ़रेंट	-11551
ष्किन्	-11552
सकराकर	-11553
सुन्दर	-11554
सुयाजी	-11555
सूयाजी	-11556
स्ताचल	-11557
स्याओं	-11558
स्वामी	-11559
हमस्मि	-11560
ारदादि	-11561
ारागार	-11562
ार्ट्स	-11563
िकालीन	-11564
िकुमार	-11565
िकॉर्ड	-11566
िमामयी	-11567
ियोजित	-11568
िस्तान	-11569
ोपायचन	-11570
्तीदार	-11571
्योढ़े	-11572
▁!॥97॥	-11573
▁21860	-11574
▁65610	-11575
▁bleat	-11576
▁manch	-11577
▁power	-11578
▁saith	-11579
▁thine	-11580
▁vread	-11581
▁yoked	-11582
▁अकारण	-11583
▁अघाकर	-11584
▁अनूठा	-11585
▁अवंती	-11586
▁अवलंब	-11587
▁अष्टप	-11588
▁आँवले	-11589
▁आएँगी	-11590
▁आकृति	-11591
▁आटामी	-11592
▁आलस्य	-11593
▁आवभगत	-11594
▁आवेगी	-11595
▁उखड़ी	-11596
▁उद्यत	-11597
▁उद्यम	-11598
▁एंड्र	-11599
!॥24॥	-11600
!॥26॥	-11601
!॥27॥	-11602
,॥41॥	-11603
▁नहाए	-11604
चिल्ला	-11605
▁एकोनष	-11606
▁कंपति	-11607
▁कछुवे	-11608
▁कठिना	-11609
▁कठौते	-11610
▁कडुवे	-11611
▁कदापि	-11612
▁कफरनह	-11613
▁कमोरी	-11614
▁करवाए	-11615
▁करीबी	-11616
▁करोगी	-11617
▁कसमसा	-11618
▁कांधा	-11619
▁कीटाण	-11620
▁कुंती	-11621
▁कुकुर	-11622
▁कुठाट	-11623
▁कुदाल	-11624
▁कुभोग	-11625
▁कुरोग	-11626
▁कूकने	-11627
▁केसरी	-11628
▁क्यार	-11629
▁खंडों	-11630
▁खट्टी	-11631
▁ख़ड़ा	-11632
▁ख़ुशी	-11633
▁खाद्य	-11634
▁खीझना	-11635
▁खुदाई	-11636
▁खोहों	-11637
▁गद्दे	-11638
▁गन्ने	-11639
▁गाढ़ी	-11640
▁गार्ड	-11641
▁गीदड़	-11642
▁गुँथी	-11643
▁गैलिल	-11644
▁घटाने	-11645
▁घटेगी	-11646
▁घबराए	-11647
▁घूंघट	-11648
▁घोंघे	-11649
▁चलोगी	-11650
▁चहकने	-11651
▁चांदी	-11652
▁चिकित	-11653
▁चिरजी	-11654
▁चीरते	-11655
▁चुगती	-11656
▁चुनते	-11657
▁चुनने	-11658
▁चुभने	-11659
▁चूमने	-11660
▁छत्ता	-11661
▁छबीले	-11662
▁छूतीं	-11663
▁छेदों	-11664
▁छोरों	-11665
▁जडि़त	-11666
▁जिद्द	-11667
▁जीनिय	-11668
▁जुटता	-11669
▁जुटाई	-11670
▁जॉर्ड	-11671
▁झुकाए	-11672
▁झोंटा	-11673
▁ठहराव	-11674
▁ठहरीं	-11675
▁ठहाका	-11676
▁ठुकरा	-11677
▁डपटकर	-11678
▁डराते	-11679
▁डरावे	-11680
▁डिगते	-11681
▁डिगने	-11682
▁डेरों	-11683
▁तसवीर	-11684
▁तागों	-11685
▁तानों	-11686
▁थरथरा	-11687
▁दस्यु	-11688
▁दामाद	-11689
▁दीपशि	-11690
▁दीर्घ	-11691
▁दुराव	-11692
▁धँसने	-11693
▁धधकते	-11694
▁धनुही	-11695
▁धुनने	-11696
▁नन्दी	-11697
▁नशीली	-11698
▁नशीले	-11699
ढरद	-11700
-5।।	-11701
ंकुश	-11702
छेदन	-11703
जिये	-11704
प्पल	-11705
प्पी	-11706
रदों	-11707
िफ्ट	-11708
ुतोष	-11709
ैरते	-11710
▁आयो	-11711
▁खट्	-11712
▁फुट	-11713
▁फुस	-11714
▁यौन	-11715
▁वयो	-11716
!॥17॥	-11717
?॥24॥	-11718
?॥71॥	-11719
?॥73॥	-11720
?॥77॥	-11721
?॥79॥	-11722
कुऋतु	-11723
तैरते	-11724
दनखों	-11725
नछेदन	-11726
प्पड़	-11727
बनाने	-11728
बुलंद	-11729
रहवाँ	-11730
िप्पी	-11731
ैंड्स	-11732
॥3-5॥	-11733
▁आठों	-11734
▁खप्प	-11735
▁गैंड	-11736
▁झटका	-11737
▁ठगते	-11738
▁ढेरी	-11739
▁नवीं	-11740
▁नीछे	-11741
▁पटका	-11742
▁फ़िल	-11743
▁फीके	-11744
▁मयंद	-11745
▁शौचा	-11746
▁॥30॥	-11747
▁॥31॥	-11748
▁॥38॥	-11749
कराकृत	-11750
ढरदानी	-11751
रघुकुल	-11752
▁4-5।।	-11753
▁आठवीं	-11754
▁करवाई	-11755
▁खट्टा	-11756
▁गूँथे	-11757
▁गैंडा	-11758
▁चप्पल	-11759
▁चिपटे	-11760
▁नहलाए	-11761
▁नहाने	-11762
▁नासरत	-11763
▁निषेध	-11764
▁नैमिष	-11765
▁नोटों	-11766
▁पंथों	-11767
▁पकाया	-11768
▁पदगर्	-11769
▁परोसो	-11770
▁पश्चा	-11771
▁पसीना	-11772
▁पहिये	-11773
▁पाओगे	-11774
▁पित्त	-11775
▁पुताई	-11776
▁पुश्त	-11777
▁पूंजी	-11778
▁पोखरे	-11779
▁पोर्च	-11780
▁प्रमथ	-11781
▁प्रलय	-11782
▁फलतीं	-11783
▁फाउलर	-11784
▁फुलने	-11785
▁फुसफु	-11786
▁फैसले	-11787
▁बकरों	-11788
▁बगुली	-11789
▁बडाबा	-11790
▁बप्पा	-11791
▁बब्बर	-11792
▁बरजने	-11793
▁बरसता	-11794
▁बलकंद	-11795
▁बसूला	-11796
▁बहकने	-11797
▁बहिष्	-11798
▁ब़ड़े	-11799
िनें	-11800
ुरसत	-11801
▁आकृ	-11802
▁बटो	-11803
▁उगता	-11804
▁उगती	-11805
▁कताई	-11806
▁खुली	-11807
▁गड्ढ	-11808
▁घंटा	-11809
▁चावल	-11810
▁भ्रु	-11811
▁भ्रृ	-11812
▁॥120	-11813
▁॥18॥	-11814
यशस्वी	-11815
विह्वल	-11816
▁आर्ची	-11817
▁एकरूप	-11818
▁खोलना	-11819
▁चौकें	-11820
▁जलेगी	-11821
▁झपटकर	-11822
▁झपटने	-11823
▁डुबोए	-11824
▁दर्शा	-11825
▁फुरसत	-11826
▁बटोरा	-11827
▁बटोही	-11828
▁बदलने	-11829
▁बाँचो	-11830
▁बिनती	-11831
▁बिरला	-11832
▁बुझती	-11833
▁बेतहा	-11834
▁बेधकर	-11835
▁बेसुध	-11836
▁बैरिन	-11837
▁भगदड़	-11838
▁भग्गु	-11839
▁भट्टी	-11840
▁भूलीं	-11841
▁मंचों	-11842
▁मंजूर	-11843
▁मचाते	-11844
▁मत्थे	-11845
▁मनगढ़	-11846
▁मरकतम	-11847
▁मर्जी	-11848
▁मल्लय	-11849
▁महोदय	-11850
▁महोदर	-11851
▁महोदा	-11852
▁माउंट	-11853
▁मातहत	-11854
▁मापने	-11855
▁मिसाल	-11856
▁मीजते	-11857
▁मुँडे	-11858
▁मुदित	-11859
▁मुरदे	-11860
▁युद्द	-11861
▁रमायी	-11862
▁रायता	-11863
▁रिसाई	-11864
▁रीझते	-11865
▁रुकीं	-11866
▁लंकेश	-11867
▁लच्छी	-11868
▁लटकाओ	-11869
▁लत्ता	-11870
▁लपटों	-11871
▁लम्बी	-11872
▁ललमुन	-11873
▁लिपटी	-11874
▁वयोवृ	-11875
▁वरेगा	-11876
▁वल्लभ	-11877
▁वल्ली	-11878
▁वशिष्	-11879
▁विकृत	-11880
▁विभेद	-11881
▁विह्न	-11882
▁व्यसन	-11883
▁शंकित	-11884
▁शिकाय	-11885
▁शुल्क	-11886
▁शेरों	-11887
▁श्वपच	-11888
▁संकेत	-11889
▁सकारण	-11890
▁सकोगी	-11891
▁सघनता	-11892
▁सताते	-11893
▁सत्तर	-11894
▁सराहा	-11895
▁सर्वा	-11896
▁सहेगा	-11897
▁सिंची	-11898
▁सिंधु	-11899
ads	-11900
फरो	-11901
रोम	-11902
oads	-11903
चकती	-11904
पटाए	-11905
माथे	-11906
याचक	-11907
वर्स	-11908
़ड़ो	-11909
िफरो	-11910
▁नजर	-11911
goads	-11912
जुर्ग	-11913
ढ़ाने	-11914
पुंसक	-11915
िकाएँ	-11916
▁कथित	-11917
▁नाइट	-11918
▁रेजर	-11919
▁सूचक	-11920
▁॥33॥	-11921
ouvins	-11922
पक़ड़ो	-11923
िफरोजे	-11924
▁goads	-11925
▁अयाचक	-11926
▁नाइटव	-11927
▁परदेस	-11928
▁पिलाई	-11929
▁पिलाओ	-11930
▁बरसने	-11931
▁बाजूब	-11932
▁मायके	-11933
▁रुकती	-11934
▁लपटाए	-11935
▁वासुस	-11936
▁वेदमत	-11937
▁साहनी	-11938
▁सुघड़	-11939
▁सैंडल	-11940
▁सोरठे	-11941
▁सोहता	-11942
▁सोहना	-11943
▁सौंपा	-11944
▁सौतें	-11945
▁सौतों	-11946
▁स्टीड	-11947
▁स्लैश	-11948
▁स्वतः	-11949
▁हल्दी	-11950
▁हेमपे	-11951
▁होतें	-11952
▁।।1।।	-11953
▁॥100॥	-11954
▁॥103॥	-11955
▁॥123॥	-11956
▁॥129॥	-11957
▁॥146॥	-11958
▁॥149॥	-11959
▁॥170॥	-11960
▁॥192॥	-11961
▁॥2-3॥	-11962
▁॥220॥	-11963
▁॥251॥	-11964
▁॥261॥	-11965
▁॥294॥	-11966
▁॥296॥	-11967
▁॥303॥	-11968
?॥222॥।	-11969
haspati	-11970
quisher	-11971
tyayana	-11972
ंकीकिंग	-11973
ंगलियां	-11974
ंगोपांग	-11975
उंसलर्स	-11976
कन्याओं	-11977
कालिकता	-11978
कुत्स्थ	-11979
कौसल्या	-11980
गिस्तान	-11981
ग्निरूप	-11982
ग्रंथों	-11983
घंटियों	-11984
घुनाथजी	-11985
घ्रचर्म	-11986
जन्तुओं	-11987
ञ्चविंश	-11988
ट्टेबाज	-11989
ढ़ूँढते	-11990
तियाडाह	-11991
त्तरार्	-11992
त्रहवाँ	-11993
दरिद्री	-11994
दिग्राम	-11995
दिल्लगी	-11996
दूकियों	-11997
धिग्रहण	-11998
नन्दिनी	-11999
लोड	-12000
सोऽ	-12001
ायस	-12002
ईसों	-12003
खासो	-12004
बयनी	-12005
सोते	-12006
सोमा	-12007
ैतिक	-12008
्मेन	-12009
▁अदृ	-12010
▁खलब	-12011
▁पोत	-12012
▁पौल	-12013
अच्छी	-12014
ग्रेन	-12015
चासों	-12016
थोड़ी	-12017
धुनकर	-12018
पातिक	-12019
ल्मेन	-12020
स्रोत	-12021
हरीला	-12022
ुकीले	-12023
ुरंधर	-12024
▁उलझन	-12025
▁कंगन	-12026
▁जगाओ	-12027
▁जनाए	-12028
▁डायस	-12029
▁नसों	-12030
▁नायब	-12031
▁पौढ़	-12032
▁पौधे	-12033
▁पौलु	-12034
▁रटते	-12035
▁रिसा	-12036
▁सपना	-12037
▁हटते	-12038
खासोती	-12039
मासक्त	-12040
ुपातिक	-12041
▁आऊंगा	-12042
▁उजड़े	-12043
▁काँजी	-12044
▁क्लोड	-12045
▁खलबला	-12046
▁छंदों	-12047
▁छीनकर	-12048
▁जनाते	-12049
▁जनाया	-12050
▁जयशील	-12051
▁ढँककर	-12052
▁देवलो	-12053
▁पटकते	-12054
▁पोतकर	-12055
▁पौढ़ा	-12056
▁पौलुस	-12057
▁बच्ची	-12058
▁मढ़कर	-12059
▁मेटते	-12060
▁रईसों	-12061
▁रिक्त	-12062
▁रुकता	-12063
▁हैरान	-12064
नावश्यक	-12065
निर्मित	-12066
न्त्रित	-12067
न्दकांड	-12068
पताकाएँ	-12069
पताकाओं	-12070
पवनगौड़	-12071
पाहियों	-12072
पुकारकर	-12073
भड़िहाई	-12074
महिलाओं	-12075
माहियों	-12076
मित्रजी	-12077
म्भरहित	-12078
म्भावना	-12079
राकेशों	-12080
राक्षसी	-12081
रिवाजों	-12082
विशिष्ट	-12083
वेकरहित	-12084
शत्रुओं	-12085
श्राद्ध	-12086
सपिन्दा	-12087
सुधन्वा	-12088
स्तित्व	-12089
िंगरप्र	-12090
ितव्यता	-12091
ितव्ययी	-12092
िलिप्पी	-12093
िशरफ़ॉक	-12094
ैंडसियर	-12095
▁?॥177॥	-12096
▁aśvins	-12097
▁dainty	-12098
▁midreg	-12099
eer	-12100
per	-12101
ंडा	-12102
ंडु	-12103
इये	-12104
गेड	-12105
जनक	-12106
धजल	-12107
रपो	-12108
▁ओन	-12109
▁ओम	-12110
चुनी	-12111
तैसे	-12112
पानी	-12113
यक्त	-12114
िगेड	-12115
ॉरपो	-12116
▁खंड	-12117
▁भाथ	-12118
?॥121	-12119
isper	-12120
क्यों	-12121
त्सपो	-12122
पुटों	-12123
पूर्व	-12124
प्रथम	-12125
रियाँ	-12126
॥343॥	-12127
▁अवती	-12128
▁अवसे	-12129
▁उपर्	-12130
▁झंडा	-12131
▁बगुल	-12132
▁बागड	-12133
▁रखवा	-12134
▁रूठा	-12135
▁षडान	-12136
▁हटना	-12137
▁हरते	-12138
eering	-12139
तरियों	-12140
ारियाँ	-12141
ॉरपोरे	-12142
▁अवसेर	-12143
▁पांडु	-12144
▁रमणीक	-12145
▁शतनाम	-12146
▁षडानन	-12147
क्योंकि	-12148
ड़सियों	-12149
त्सपोके	-12150
प्रतिभा	-12151
यावस्था	-12152
ॉरपोरेट	-12153
▁nāsaty	-12154
▁powerf	-12155
▁viands	-12156
▁अकण्टक	-12157
▁अग्रणी	-12158
▁अग्रसर	-12159
▁अज्ञात	-12160
▁अज्ञेय	-12161
▁अतिथिग	-12162
▁अनिकेत	-12163
▁अपूर्ण	-12164
▁अप्रिय	-12165
▁अबाधित	-12166
▁अमानुष	-12167
▁अमीरों	-12168
▁अर्धजल	-12169
▁अवसरों	-12170
▁अविरोध	-12171
▁अशिष्ट	-12172
▁असंतुल	-12173
▁अहितकर	-12174
▁आंगर्स	-12175
▁आक्रमण	-12176
▁आदेशों	-12177
▁आवरणों	-12178
▁आशुतोष	-12179
▁इन्सॉल	-12180
▁उजड़ने	-12181
▁उड़ाता	-12182
▁उत्थान	-12183
▁उद्योग	-12184
▁उमँगते	-12185
▁उलझनें	-12186
▁उल्लास	-12187
▁उल्लेख	-12188
▁कंकड़ी	-12189
▁कटकटाए	-12190
▁कढ़ाने	-12191
▁कतर्मा	-12192
▁कतारें	-12193
▁कनछेदन	-12194
▁कल्पतक	-12195
▁कहलाना	-12196
▁काँचों	-12197
▁कातरता	-12198
▁कामकाज	-12199
!॥3	-12200
ani	-12201
काट	-12202
खिक	-12203
नगर	-12204
पका	-12205
ादय	-12206
ोकि	-12207
ोखा	-12208
किसी	-12209
खाने	-12210
धाएँ	-12211
भांड	-12212
मानस	-12213
रीति	-12214
र्णी	-12215
वर्ल	-12216
विरह	-12217
स्तू	-12218
िताप	-12219
्शीश	-12220
▁ani	-12221
▁घरघ	-12222
▁जुझ	-12223
▁दलक	-12224
▁नाद	-12225
▁नाब	-12226
▁नीं	-12227
▁सगर	-12228
थ्यों	-12229
पर्णी	-12230
भांडक	-12231
रवर्ल	-12232
ानुभव	-12233
िधाएँ	-12234
ोकिशा	-12235
्यस्त	-12236
▁कामक	-12237
▁खण्ड	-12238
▁चखना	-12239
▁चरने	-12240
▁चांड	-12241
▁टपका	-12242
▁नींव	-12243
▁पीढ़	-12244
▁भगीर	-12245
▁मरिय	-12246
▁शोका	-12247
▁सिरम	-12248
खानेगा	-12249
रक्षित	-12250
स्तूरी	-12251
्शीशें	-12252
।।10।।	-12253
▁अनोखा	-12254
▁उड़ान	-12255
▁खण्डन	-12256
▁जयमाल	-12257
▁जुझार	-12258
▁दिग्ग	-12259
▁दीवार	-12260
▁पुस्त	-12261
▁भगीरथ	-12262
▁मनोबल	-12263
▁मरियम	-12264
▁मौखिक	-12265
▁योगिन	-12266
▁सजाते	-12267
▁सहनीय	-12268
▁हिलते	-12269
ंडरवर्ल	-12270
विश्वास	-12271
ादयुक्त	-12272
्रपर्णी	-12273
▁कामकला	-12274
▁कार्ति	-12275
▁कालीजी	-12276
▁काव्यम	-12277
▁किष्कि	-12278
▁किस्मत	-12279
▁कीटाणु	-12280
▁कुँआरी	-12281
▁कुँआरे	-12282
▁कुअवसर	-12283
▁कुचलकर	-12284
▁कुयोगी	-12285
▁क्रमिक	-12286
▁खड़खड़	-12287
▁खम्भों	-12288
▁ख़बरों	-12289
▁खुलासा	-12290
▁खेलाइए	-12291
▁खोपड़ी	-12292
▁गंगाजल	-12293
▁गड्ढों	-12294
▁गर्जकर	-12295
▁गर्जते	-12296
▁गाथाएं	-12297
▁गूँजते	-12298
▁गूंजता	-12299
अं	-12300
अरे	-12301
चाह	-12302
ढेर	-12303
ुषा	-12304
्रे	-12305
▁वफ	-12306
कुला	-12307
गमनी	-12308
चाहे	-12309
तनया	-12310
न्दे	-12311
न्मय	-12312
न्हा	-12313
पड़े	-12314
वड़े	-12315
िरते	-12316
ृष्ठ	-12317
ोत्र	-12318
▁अदे	-12319
▁तान	-12320
▁पूआ	-12321
▁सकं	-12322
पृष्ठ	-12323
्रेगन	-12324
▁अदेय	-12325
▁अबीर	-12326
▁कोढ़	-12327
▁क्रॉ	-12328
▁जामन	-12329
▁ढीली	-12330
▁फबता	-12331
▁बोते	-12332
▁माहा	-12333
▁मीटर	-12334
▁वफाद	-12335
▁विशद	-12336
▁समझी	-12337
▁सिरस	-12338
▁सोहा	-12339
अंकुरा	-12340
न्हावे	-12341
र्तिहर	-12342
▁आँतें	-12343
▁काष्ठ	-12344
▁क्रॉस	-12345
▁गन्दे	-12346
▁चरणोद	-12347
▁जलाशय	-12348
▁पूजता	-12349
▁बकुला	-12350
▁लगाती	-12351
▁समझती	-12352
▁सोर्य	-12353
▁सोहाग	-12354
ंकपृष्ठ	-12355
▁काकुषा	-12356
▁गोलकों	-12357
▁गोशाला	-12358
▁ग्रसकर	-12359
▁ग्रसता	-12360
▁ग्राहक	-12361
▁घबड़ाई	-12362
▁घरघराह	-12363
▁घसीटते	-12364
▁घसीटने	-12365
▁घुमाकर	-12366
▁घोंसले	-12367
▁चँवरों	-12368
▁चढ़ाते	-12369
▁चमकाया	-12370
▁चरणोदक	-12371
▁चरागाह	-12372
▁चांडाल	-12373
▁चातुरी	-12374
▁चिंतित	-12375
▁चिनगार	-12376
▁चिन्मय	-12377
▁चुकाता	-12378
▁चोंचों	-12379
▁छन्दों	-12380
▁छुपाने	-12381
▁जहरीला	-12382
▁जाऊंगी	-12383
▁जीनियल	-12384
▁जीनियस	-12385
▁जुझारू	-12386
▁जुड़ती	-12387
▁जुड़वा	-12388
▁जॉर्डन	-12389
▁झाँककर	-12390
▁झाँझें	-12391
▁झुकाते	-12392
▁झोंटों	-12393
▁झोटिंग	-12394
▁ट्रिपल	-12395
▁डरावनी	-12396
▁डाकिनी	-12397
▁डिगाना	-12398
▁डिब्बा	-12399
जीब	-12400
णता	-12401
ेदा	-12402
ेलर	-12403
ैली	-12404
▁नज	-12405
ऊँचे	-12406
दाता	-12407
राजू	-12408
वादि	-12409
सुनो	-12410
हनुम	-12411
हर्ष	-12412
ादित	-12413
‍॥1॥	-12414
▁110	-12415
▁अनौ	-12416
▁कलर	-12417
▁किम	-12418
▁कृश	-12419
▁दाख	-12420
▁दुस	-12421
▁फँस	-12422
▁मूठ	-12423
▁रतन	-12424
▁राइ	-12425
▁विछ	-12426
▁संय	-12427
असाधु	-12428
विषयक	-12429
ारण्य	-12430
ियादि	-12431
▁अजीब	-12432
▁अनंग	-12433
▁अनिय	-12434
▁आपदा	-12435
▁कलरव	-12436
▁काना	-12437
▁कामन	-12438
▁कृति	-12439
▁कौशि	-12440
▁छेदा	-12441
▁तरना	-12442
▁ताँत	-12443
▁थैली	-12444
▁दरार	-12445
▁नजदी	-12446
▁परदा	-12447
▁बिसे	-12448
▁मन्त	-12449
▁संकु	-12450
▁साढ़	-12451
▁साता	-12452
▁सुनि	-12453
ग्विला	-12454
हर्षित	-12455
▁छिन्न	-12456
▁तराजू	-12457
▁तिरछा	-12458
▁नजदीक	-12459
▁फँसें	-12460
▁बचाता	-12461
▁बिंदु	-12462
▁बिसेक	-12463
▁रहेगी	-12464
▁राइज़	-12465
▁लौटिए	-12466
▁विछोह	-12467
▁शूलों	-12468
▁संयमी	-12469
▁सोवें	-12470
ग्विलास	-12471
च्छादित	-12472
मिश्रित	-12473
हनुमान्	-12474
▁अनौचित	-12475
▁कृतिका	-12476
▁कृपणता	-12477
▁कौशिका	-12478
▁ठहराने	-12479
▁डुबाती	-12480
▁ड्रिंक	-12481
▁ढूँढकर	-12482
▁तरेरकर	-12483
▁तुरन्त	-12484
▁त्रिकृ	-12485
▁थप्पड़	-12486
▁दरारें	-12487
▁दलीलों	-12488
▁दांतों	-12489
▁दिखेगा	-12490
▁दिलवाए	-12491
▁दिलाता	-12492
▁दिलाने	-12493
▁दीनबंध	-12494
▁दुलराए	-12495
▁दुसाना	-12496
▁देवकुल	-12497
▁देवालय	-12498
▁धुरंधर	-12499
रन	-12500
वम	-12501
जात	-12502
टाई	-12503
थिव	-12504
नले	-12505
पाई	-12506
यवम	-12507
रेथ	-12508
▁गि	-12509
▁डस	-12510
ंदूर	-12511
अन्य	-12512
टारी	-12513
नलेस	-12514
निकल	-12515
माणु	-12516
माते	-12517
र्नि	-12518
वानि	-12519
वैसे	-12520
शयों	-12521
्थिव	-12522
▁चपे	-12523
▁स्न	-12524
▁हाव	-12525
ंख्यक	-12526
गम्बर	-12527
छिपाई	-12528
जनपाल	-12529
वेरेथ	-12530
▁अपढ़	-12531
▁करूं	-12532
▁क्रौ	-12533
▁खटाई	-12534
▁गिना	-12535
▁गूदा	-12536
▁चराओ	-12537
▁चुने	-12538
▁जबरन	-12539
▁जलना	-12540
▁जोते	-12541
▁ब्रे	-12542
▁भयवश	-12543
▁भरतक	-12544
▁माथा	-12545
▁मारू	-12546
▁शठों	-12547
▁सुखा	-12548
▁सुमा	-12549
▁स्ले	-12550
▁हयवम	-12551
▁हावी	-12552
!॥288॥	-12553
जनपालक	-12554
टेनलेस	-12555
निकलकर	-12556
र्निंग	-12557
संख्यक	-12558
्यादेश	-12559
।।11।।	-12560
▁अलंकर	-12561
▁असह्म	-12562
▁उन्हे	-12563
▁कक्षा	-12564
▁गुनाह	-12565
▁तरुणी	-12566
▁दिलाई	-12567
▁धनहीन	-12568
▁सहोदर	-12569
▁स्लेथ	-12570
मानदारी	-12571
▁अलंकरण	-12572
▁क्रौंच	-12573
▁चपेटों	-12574
▁जंतुओं	-12575
▁धोखेबा	-12576
▁नपुंसक	-12577
▁नरभोजी	-12578
▁नवग्रह	-12579
▁नाइटवॉ	-12580
▁निःशंक	-12581
▁निःसंत	-12582
▁निन्दा	-12583
▁निहोरे	-12584
▁नुकीले	-12585
▁नौकरान	-12586
▁नौकरों	-12587
▁न्यायल	-12588
▁पंगतें	-12589
▁पंचकौर	-12590
▁पंद्रह	-12591
▁पंपासर	-12592
▁पछाड़ो	-12593
▁पटरानी	-12594
▁पड़तीं	-12595
▁पदगर्भ	-12596
▁पद्मरा	-12597
▁परफेक्	-12598
▁परमाणु	-12599
चुर	-12600
फार	-12601
ासी	-12602
ूसी	-12603
देड़	-12604
भाने	-12605
मेरे	-12606
▁अनू	-12607
▁आसी	-12608
▁घाम	-12609
▁सकि	-12610
▁सजन	-12611
▁सान	-12612
?॥25॥	-12613
ँवड़े	-12614
ँवारा	-12615
करोड़	-12616
ड़ाते	-12617
धियों	-12618
न्में	-12619
फारिश	-12620
बेकार	-12621
भाद्र	-12622
मालवा	-12623
ुलक्ष	-12624
ेंचुर	-12625
्बन्ध	-12626
▁आपसी	-12627
▁आसीस	-12628
▁चरणव	-12629
▁चारा	-12630
▁चूसा	-12631
▁तागे	-12632
▁नामु	-12633
▁निवृ	-12634
▁बिलख	-12635
▁भगवा	-12636
▁मोड़	-12637
▁रघुन	-12638
▁रेमन	-12639
!॥223॥	-12640
खेलाकर	-12641
फड़ाते	-12642
बेमौका	-12643
भावकों	-12644
्बन्धी	-12645
▁अनूकल	-12646
▁काढ़ा	-12647
▁कालीन	-12648
▁खदेड़	-12649
▁निहित	-12650
▁बढ़ना	-12651
▁बरसाओ	-12652
▁भगवा्	-12653
▁॥234॥	-12654
पाँवड़े	-12655
भाद्रपद	-12656
▁कंजूसी	-12657
▁खेड़ों	-12658
▁गिराकर	-12659
▁जन्में	-12660
▁नामुकी	-12661
▁निभाने	-12662
▁परातों	-12663
▁पलटवार	-12664
▁प़ड़ते	-12665
▁पावनाम	-12666
▁पाहुनी	-12667
▁पाहुने	-12668
▁पिंजरे	-12669
▁पिघलता	-12670
▁पिघलते	-12671
▁पिटारी	-12672
▁पिलाती	-12673
▁पिलातु	-12674
▁पिलाया	-12675
▁पुन्ना	-12676
▁पुरखों	-12677
▁पुश्तै	-12678
▁पुष्टि	-12679
▁पूछेगा	-12680
▁पोंछकर	-12681
▁प्रमाद	-12682
▁फलीभूत	-12683
▁फ़िल्ट	-12684
▁फाड़ते	-12685
▁फाड़ने	-12686
▁फुलनेस	-12687
▁फेंककर	-12688
▁फोड़कर	-12689
▁फोड़ते	-12690
▁बँचाने	-12691
▁बँधाइए	-12692
▁बँधाते	-12693
▁बगुलों	-12694
▁बताएगा	-12695
▁बनावटी	-12696
▁बहिनें	-12697
▁बहुविध	-12698
▁बाँचते	-12699
डस	-12700
ंगर	-12701
कोप	-12702
तुल	-12703
पिक	-12704
सोस	-12705
स्क	-12706
ुदी	-12707
्सक	-12708
▁खग	-12709
,॥10	-12710
?॥21	-12711
घुरा	-12712
ठनों	-12713
डरते	-12714
नीचे	-12715
लांग	-12716
लाओं	-12717
वेदन	-12718
ुलते	-12719
ूमता	-12720
ूर्व	-12721
▁ऐरा	-12722
▁कलम	-12723
▁गंद	-12724
▁नवल	-12725
▁सको	-12726
▁सखि	-12727
▁सीर	-12728
ंगरौर	-12729
ंगुदी	-12730
ंपियन	-12731
तीनों	-12732
तुलसी	-12733
पिकुर	-12734
फ़सोस	-12735
॥348॥	-12736
▁अघोर	-12737
▁असाम	-12738
▁उड़े	-12739
▁चमगा	-12740
▁जूडस	-12741
▁पैंज	-12742
▁भरजी	-12743
▁मुझी	-12744
▁स्तव	-12745
▁हुओं	-12746
घुराता	-12747
मित्रि	-12748
▁उपकृत	-12749
▁ऐरावत	-12750
▁कलमला	-12751
▁कोनों	-12752
▁खगराज	-12753
▁गंदला	-12754
▁घूमता	-12755
▁छलांग	-12756
▁जुलते	-12757
▁तुरवा	-12758
▁तुस्क	-12759
▁दुरंत	-12760
▁पलायन	-12761
▁बरजकर	-12762
▁बलाओं	-12763
▁बिताए	-12764
▁सकोगे	-12765
तुलसीजी	-12766
दुष्टों	-12767
पिकुरिय	-12768
▁अघोरों	-12769
▁अच्छाई	-12770
▁अपूर्व	-12771
▁अफ़सोस	-12772
▁असामंज	-12773
▁इंगुदी	-12774
▁कलियों	-12775
▁तामजान	-12776
▁नागिनी	-12777
▁निवेदन	-12778
▁पैंजनी	-12779
▁प्रकोप	-12780
▁बाँहों	-12781
▁बांधते	-12782
▁बागडोर	-12783
▁बारहबा	-12784
▁बालविन	-12785
▁बिखरने	-12786
▁बिगड़ा	-12787
▁बिछवाए	-12788
▁बिठाया	-12789
▁बिताकर	-12790
▁बिताता	-12791
▁बिलखता	-12792
▁बिल्ली	-12793
▁बुझाकर	-12794
▁बुझाने	-12795
▁बेढंगे	-12796
▁बेथफेज	-12797
▁बैकुंठ	-12798
▁ब्याहा	-12799
रर	-12800
कोष	-12801
जोग	-12802
ोली	-12803
▁पच	-12804
किसम	-12805
कोड़	-12806
कोरर	-12807
जाते	-12808
णिक्	-12809
तिनी	-12810
मच्छ	-12811
मलिन	-12812
सादे	-12813
ह्मण	-12814
ोगति	-12815
▁केश	-12816
▁तर्	-12817
▁निठ	-12818
▁निध	-12819
▁बदह	-12820
▁बौछ	-12821
▁भगु	-12822
▁भास	-12823
▁माध	-12824
▁माफ	-12825
▁मूँ	-12826
▁सोई	-12827
द्धति	-12828
बिगड़	-12829
र्द्ध	-12830
लापति	-12831
ार्गा	-12832
▁आओगी	-12833
▁टोली	-12834
▁तकीं	-12835
▁दोना	-12836
▁माधव	-12837
▁लड़े	-12838
▁लिखी	-12839
▁वारी	-12840
▁साती	-12841
किसमैन	-12842
घातिनी	-12843
धाइयाँ	-12844
बिरंगी	-12845
वास्तु	-12846
ह्मण्य	-12847
▁केशों	-12848
▁कोड़ा	-12849
▁डालना	-12850
▁निठुर	-12851
▁पालिए	-12852
▁बसाकर	-12853
▁बौछार	-12854
▁भासित	-12855
▁मांगा	-12856
▁लालची	-12857
▁वणिक्	-12858
▁वधुओं	-12859
▁वारीश	-12860
▁सुप्र	-12861
▁सूत्र	-12862
बधाइयाँ	-12863
बारियाँ	-12864
बिगड़ना	-12865
र्द्धान	-12866
▁अधोगति	-12867
▁कुटिया	-12868
▁गार्गा	-12869
▁तर्जनी	-12870
▁दिखाती	-12871
▁पद्धति	-12872
▁प्रवरण	-12873
▁बदहवास	-12874
▁भँवरों	-12875
▁भटकाया	-12876
▁भयातुर	-12877
▁भरतकूप	-12878
▁भरवाया	-12879
▁भृकुटि	-12880
▁भेंटने	-12881
▁भेजिये	-12882
▁भैंसों	-12883
▁भौंरें	-12884
▁मँगाकर	-12885
▁मँगाया	-12886
▁मचानों	-12887
▁मच्छरप	-12888
▁मछुआरे	-12889
▁मददगार	-12890
▁मद्देन	-12891
▁मधुवनम	-12892
▁मनभाया	-12893
▁मनमौजी	-12894
▁मन्दरा	-12895
▁मरवाते	-12896
▁मर्दान	-12897
▁महाशिव	-12898
▁मामूली	-12899
'-	-12900
उच	-12901
छौ	-12902
हू	-12903
ौज	-12904
Esa	-12905
ंपन	-12906
गेट	-12907
तरण	-12908
नीच	-12909
वंत	-12910
साए	-12911
सास	-12912
िंत	-12913
िकी	-12914
्सा	-12915
॥6।	-12916
Esai	-12917
उचसे	-12918
क्की	-12919
छौनी	-12920
डिया	-12921
तरणी	-12922
हूति	-12923
्ताह	-12924
▁कुय	-12925
▁घुट	-12926
▁घुर	-12927
▁पाश	-12928
▁फौज	-12929
▁यदु	-12930
▁लखा	-12931
▁सकी	-12932
▁सली	-12933
उचसेफ	-12934
क्कीस	-12935
प्ताह	-12936
ित्सा	-12937
▁Esai	-12938
▁कुका	-12939
▁गड़ा	-12940
▁चर्म	-12941
▁पासा	-12942
▁लोकर	-12943
▁समार	-12944
▁स्तन	-12945
तनन्तर	-12946
त्विकी	-12947
▁अकंपन	-12948
▁अत्यु	-12949
▁एहसास	-12950
▁कुकाठ	-12951
▁चरणसे	-12952
▁ज़ूडी	-12953
▁पक्ष‍	-12954
▁बिचार	-12955
▁बेगेट	-12956
▁लगाइए	-12957
▁विघटन	-12958
▁शांतर	-12959
▁सलीके	-12960
▁सेवार	-12961
न्मांतर	-12962
प्रेतों	-12963
िकित्सा	-12964
▁Esaias	-12965
▁इक्कीस	-12966
▁घुटनों	-12967
▁जुडिया	-12968
▁पक्ष‍ी	-12969
▁पिरोकर	-12970
▁बतलाईं	-12971
▁बिचारि	-12972
▁मायाएँ	-12973
▁मिटेगी	-12974
▁मुद्दे	-12975
▁मुरदों	-12976
▁मुर्गा	-12977
▁मूँगों	-12978
▁मोड़कर	-12979
▁मौजूदा	-12980
▁यक्षों	-12981
▁यदुवंश	-12982
▁यादगार	-12983
▁यूथपति	-12984
▁रखरखाव	-12985
▁रचनाओं	-12986
▁रजपूती	-12987
▁रणलीला	-12988
▁रतनारे	-12989
▁राजकाज	-12990
▁राजकोष	-12991
▁राजघाट	-12992
▁रिसाकर	-12993
▁लंगड़ा	-12994
▁ललचाकर	-12995
▁ललचाते	-12996
▁ललचाया	-12997
▁ल़ड़ते	-12998
▁लाड़ली	-12999
ंतक	-13000
चाप	-13001
युर	-13002
ामे	-13003
ीले	-13004
ूपी	-13005
▁39	-13006
▁डो	-13007
मुत्	-13008
लेने	-13009
ामया	-13010
ूपति	-13011
॥2॥॥	-13012
▁आरद	-13013
▁गाओ	-13014
▁चबा	-13015
▁छके	-13016
▁मेट	-13017
चिंतक	-13018
बनाते	-13019
युरोग	-13020
सर्वो	-13021
़ामया	-13022
▁कटिस	-13023
▁जब्त	-13024
▁झींख	-13025
▁टिकी	-13026
▁डोकल	-13027
▁तारण	-13028
▁थामे	-13029
▁पातक	-13030
▁पेशे	-13031
▁मिता	-13032
▁मेला	-13033
▁लम्प	-13034
▁वेले	-13035
▁सराफ	-13036
मुत्ते	-13037
▁अघाती	-13038
▁उगलता	-13039
▁कटिसू	-13040
▁काढ़ी	-13041
▁चबाने	-13042
▁टाँकी	-13043
▁भूपति	-13044
▁लम्पट	-13045
▁समेटे	-13046
▁सारथि	-13047
▁हिमाल	-13048
़ामयाबी	-13049
।।111।।	-13050
▁उपजाने	-13051
▁चुपचाप	-13052
▁प्रमथी	-13053
▁लड़ाकर	-13054
▁लावण्य	-13055
▁लेटस्ट	-13056
▁लोहबान	-13057
▁लोहमयी	-13058
▁लौटोगी	-13059
▁वनदेवी	-13060
▁वनसहित	-13061
▁वफादार	-13062
▁वांछित	-13063
▁वातग्र	-13064
▁वासुकी	-13065
▁विंध्य	-13066
▁विकर्ण	-13067
▁विनयवश	-13068
▁विनीते	-13069
▁विपक्ष	-13070
▁विफलता	-13071
▁विरासत	-13072
▁विषपान	-13073
▁विह्नल	-13074
▁वीलर्स	-13075
▁वेनारा	-13076
▁वेलेवल	-13077
▁वैतरणी	-13078
▁व्याया	-13079
▁व्रतों	-13080
▁शचीपति	-13081
▁शांतरस	-13082
▁शाखाओं	-13083
▁शाखोच्	-13084
▁शान्ति	-13085
▁शिकायत	-13086
▁शिकारी	-13087
▁शिवलोक	-13088
▁शिशुपन	-13089
▁शिशुली	-13090
▁शुक्रा	-13091
▁शेडेमो	-13092
▁शौचादि	-13093
▁श्रीको	-13094
▁श्रीहत	-13095
▁षोडशोप	-13096
▁सँभाला	-13097
▁संसर्ग	-13098
▁सकंल्प	-13099
ंडो	-13100
गाँ	-13101
गाए	-13102
डवा	-13103
पूँ	-13104
फ्त	-13105
लाई	-13106
लाज	-13107
वाण	-13108
ोगे	-13109
॥56	-13110
)॥3॥	-13111
गाती	-13112
पूँछ	-13113
भिषण	-13114
वडवा	-13115
वाता	-13116
ान्न	-13117
िंकर	-13118
ूँढे	-13119
▁उपह	-13120
▁औला	-13121
▁कूच	-13122
▁जूस	-13123
▁टार	-13124
▁तवा	-13125
▁धाए	-13126
▁पछा	-13127
▁सगा	-13128
ँगड़ा	-13129
ंगाधी	-13130
ंडोले	-13131
गाँडर	-13132
चित्र	-13133
न्धुम	-13134
लाकार	-13135
ारदार	-13136
॥2-3॥	-13137
॥304॥	-13138
▁dawn	-13139
▁अनपा	-13140
▁इलाज	-13141
▁औलाद	-13142
▁झड़े	-13143
▁दलदल	-13144
▁पाली	-13145
▁बढ़ो	-13146
▁बदना	-13147
▁वान्	-13148
?॥271॥	-13149
mbaras	-13150
▁dawns	-13151
▁अंगुल	-13152
▁अनपाय	-13153
▁गूँगी	-13154
▁चढ़ाई	-13155
▁चींटी	-13156
▁डिगाए	-13157
▁ढूँढे	-13158
▁दाम्प	-13159
▁भागना	-13160
▁मनाता	-13161
▁मुफ्त	-13162
▁विमोह	-13163
▁सिलाई	-13164
▁सोमाड	-13165
▁हटोगे	-13166
▁हीरों	-13167
ambaras	-13168
चित्रों	-13169
द्रिंकर	-13170
▁उड़ाना	-13171
▁दीप्ति	-13172
▁दुलारे	-13173
▁धारदार	-13174
▁निकलीं	-13175
▁पछाड़े	-13176
▁बदनामी	-13177
▁रक्षको	-13178
▁लँगड़ा	-13179
▁विभिषण	-13180
▁शिवनाम	-13181
▁सकिन्ध	-13182
▁सतानंद	-13183
▁सनाज्य	-13184
▁सप्ताह	-13185
▁समझौते	-13186
▁समस्या	-13187
▁समानता	-13188
▁सवालों	-13189
▁सिकोड़	-13190
▁सिमटकर	-13191
▁सिरमौर	-13192
▁सींचता	-13193
▁सींचने	-13194
▁सुखासन	-13195
▁सुझाने	-13196
▁सुनवाई	-13197
▁सुनहरी	-13198
▁सुनाते	-13199
?"	-13200
आद	-13201
चीस	-13202
परी	-13203
मरी	-13204
शलम	-13205
िनय	-13206
ूदे	-13207
▁फं	-13208
आदमी	-13209
केले	-13210
गाओं	-13211
जोखा	-13212
तेरी	-13213
नाका	-13214
मरीन	-13215
रांग	-13216
रोकर	-13217
विका	-13218
हिता	-13219
ोन्म	-13220
॥2॥।	-13221
▁खरी	-13222
▁पका	-13223
▁बीक	-13224
▁मैन	-13225
▁रहन	-13226
▁राश	-13227
अकेले	-13228
कंदरा	-13229
ज्यों	-13230
दिक्र	-13231
न्हें	-13232
रुशलम	-13233
▁ऊपरी	-13234
▁गूदे	-13235
▁थाती	-13236
▁दूने	-13237
▁पचीस	-13238
▁पलटे	-13239
▁फंसे	-13240
▁फर्म	-13241
▁बिदा	-13242
▁मैया	-13243
▁वरों	-13244
▁सीने	-13245
जीविका	-13246
रांगोड	-13247
▁अविनय	-13248
▁आचारी	-13249
▁उत्पी	-13250
▁खरीदा	-13251
▁घड़ों	-13252
▁चिकने	-13253
▁पाछकर	-13254
▁पासंग	-13255
▁पिसकर	-13256
▁प्रसव	-13257
▁बीतकर	-13258
▁मजदूर	-13259
▁वॉर्ड	-13260
▁सार्व	-13261
▁सूखने	-13262
▁हास्य	-13263
कंदरायण	-13264
जिन्हें	-13265
दिक्रवन	-13266
ोन्मत्त	-13267
▁कब्ज़ा	-13268
▁काटेगा	-13269
▁पलटेगी	-13270
▁मालकिन	-13271
▁यरुशलम	-13272
▁वृद्धा	-13273
▁संहिता	-13274
▁सदाशिव	-13275
▁सबमरीन	-13276
▁सार्वज	-13277
▁सुप्रद	-13278
▁सुभीते	-13279
▁सुमादन	-13280
▁सुमेरू	-13281
▁सुरुचि	-13282
▁सुलच्छ	-13283
▁सुशीले	-13284
▁सूटिंग	-13285
▁सेवानि	-13286
▁सौनाका	-13287
▁स्कोरर	-13288
▁स्टोक्	-13289
▁स्नाना	-13290
▁स्पेलर	-13291
▁स्वकीय	-13292
▁हफ़्ते	-13293
▁हरकारा	-13294
▁हाँकते	-13295
▁हाँकिए	-13296
▁हिचकती	-13297
▁हिमऋतु	-13298
▁हिम्मत	-13299
ंजा	-13300
जाग	-13301
वाओ	-13302
वाल	-13303
ुमत	-13304
्चस	-13305
▁थल	-13306
▁थू	-13307
▁फे	-13308
अक्ष	-13309
क्षु	-13310
जीगर	-13311
धरों	-13312
हारा	-13313
ौत्र	-13314
्याश	-13315
▁चिउ	-13316
▁जिम	-13317
▁थों	-13318
▁निग	-13319
▁फंद	-13320
▁बरन	-13321
क्षति	-13322
जागते	-13323
जुलते	-13324
णहारा	-13325
न्यान	-13326
पौत्र	-13327
लालची	-13328
सायों	-13329
॥273॥	-13330
▁अध्व	-13331
▁इसहा	-13332
▁कटार	-13333
▁करवट	-13334
▁कैदी	-13335
▁कोरे	-13336
▁ज्ञा	-13337
▁देखर	-13338
▁नदीश	-13339
▁निगृ	-13340
▁फंदा	-13341
▁फूटे	-13342
▁बरनब	-13343
▁लेखा	-13344
▁लेटे	-13345
▁सन्त	-13346
्याशित	-13347
▁इसहाक	-13348
▁कछुओं	-13349
▁गांजा	-13350
▁गुहने	-13351
▁घटेगा	-13352
▁चक्षु	-13353
▁जबानी	-13354
▁जिम्म	-13355
▁थूकता	-13356
▁थोंग्	-13357
▁दीवाल	-13358
▁फेस्ट	-13359
▁बतिया	-13360
▁बहाती	-13361
▁बूढ़ी	-13362
▁मल्चस	-13363
▁मृगों	-13364
▁शातिर	-13365
▁॥209॥	-13366
न्यानवे	-13367
▁?॥148॥	-13368
▁अणहारा	-13369
▁अध्वर्	-13370
▁आर्तों	-13371
▁चिउड़ा	-13372
▁थोंग्स	-13373
▁निगृही	-13374
▁पुरवाओ	-13375
▁प्रदोष	-13376
▁फँसाने	-13377
▁फेस्टस	-13378
▁बरनबास	-13379
▁बाजीगर	-13380
▁साधुमत	-13381
▁स्वाती	-13382
▁हेमपेन	-13383
▁हैसियत	-13384
▁होंठों	-13385
ehaspati	-13386
isperers	-13387
ँतड़ियाँ	-13388
ँतुलियाँ	-13389
ंगाधींगी	-13390
अंकुरादि	-13391
अधिग्रहण	-13392
अस्तित्व	-13393
उत्तरार्	-13394
कामेष्टि	-13395
किष्किन्	-13396
कुतस्थों	-13397
चन्द्रजी	-13398
चिकित्सा	-13399
);	-13400
:।	-13401
इल	-13402
गॉ	-13403
िझ	-13404
ॉप	-13405
ॉम	-13406
‍े	-13407
उमा	-13408
गकर	-13409
गॉड	-13410
बसे	-13411
ॉमस	-13412
्रस	-13413
▁कच	-13414
▁कफ	-13415
▁जज	-13416
▁थव	-13417
▁मक	-13418
इनपो	-13419
उपवन	-13420
गोपा	-13421
ठगकर	-13422
ड़जी	-13423
ताजा	-13424
फाइल	-13425
वहां	-13426
सबसे	-13427
िझके	-13428
्रॉप	-13429
्वित	-13430
‍मिल	-13431
▁कचो	-13432
▁जजस	-13433
▁थवई	-13434
▁भरण	-13435
▁मकई	-13436
▁रटन	-13437
▁स‍े	-13438
लियां	-13439
स्तिक	-13440
ेरेमी	-13441
ोफाइल	-13442
्रायण	-13443
▁आगें	-13444
▁कौसल	-13445
▁गाएँ	-13446
▁छूटी	-13447
▁थॉमस	-13448
▁निशठ	-13449
▁बबूर	-13450
▁मानू	-13451
▁मुंड	-13452
▁लगना	-13453
▁लहरा	-13454
साइनपो	-13455
ान्वित	-13456
ुण्ड्र	-13457
‍मिलित	-13458
▁कच्चा	-13459
▁कुसमा	-13460
▁चाहें	-13461
▁जजसकी	-13462
▁झिझके	-13463
▁नवाएँ	-13464
▁प्रवण	-13465
▁फायदे	-13466
▁भवनों	-13467
▁भेदों	-13468
▁शीर्ष	-13469
▁षट्रस	-13470
पुण्ड्र	-13471
▁आस्तिक	-13472
▁कचोटता	-13473
▁जलरहित	-13474
▁जेरेमी	-13475
▁नरसिंह	-13476
▁फिराकर	-13477
▁मुंडवा	-13478
▁यमपुरी	-13479
▁लहराता	-13480
▁सज्जनो	-13481
▁सुनानी	-13482
▁सुरलोक	-13483
▁सेनाओं	-13484
▁स‍ेवित	-13485
अग्निोदय	-13486
चिल्लाती	-13487
जन्मांतर	-13488
जिंगलिंग	-13489
टरब्रिंग	-13490
ड़फड़ाते	-13491
त्येष्टि	-13492
त्सपोकेन	-13493
दरिद्रता	-13494
न्धुमारा	-13495
पक्षियों	-13496
पत्नियों	-13497
पूर्वजों	-13498
प्रागपति	-13499
23	-13500
Od	-13501
io	-13502
ul	-13503
एड	-13504
षद	-13505
ुु	-13506
ion	-13507
कएड	-13508
किड	-13509
तून	-13510
ियर	-13511
ुुि	-13512
▁23	-13513
▁Od	-13514
गोते	-13515
ुकिड	-13516
॥2॥\	-13517
▁ओढ़	-13518
▁कास	-13519
▁तहल	-13520
▁पवा	-13521
▁शकु	-13522
▁सीड	-13523
▁सुआ	-13524
▁हठी	-13525
भरतजी	-13526
लैकएड	-13527
▁क्रि	-13528
▁गरमी	-13529
▁चौकी	-13530
▁जूती	-13531
▁धारी	-13532
▁नग्न	-13533
▁पवाम	-13534
▁बनाव	-13535
▁बेला	-13536
▁मानक	-13537
▁रीगल	-13538
▁सुआस	-13539
▁हियर	-13540
त्यादि	-13541
विधाओं	-13542
ेलुकिड	-13543
▁ओढ़ना	-13544
▁करतीं	-13545
▁जैतून	-13546
▁तहलका	-13547
▁तुड़ा	-13548
▁दुधार	-13549
▁परिषद	-13550
▁परुुि	-13551
▁फोड़ा	-13552
▁बिस्त	-13553
▁वर्णस	-13554
▁॥321॥	-13555
इत्यादि	-13556
ब्लैकएड	-13557
▁चौगुना	-13558
▁छिपाने	-13559
▁जगत्पा	-13560
▁दुधारू	-13561
▁देवाधि	-13562
▁पवामना	-13563
▁बशर्ते	-13564
▁भिगोते	-13565
▁शकुनों	-13566
इत्यादिश	-13567
रघुनाथजी	-13568
रचनात्मक	-13569
राक्षसों	-13570
र्तकियों	-13571
र्द्धांग	-13572
लिज़ाबेथ	-13573
वारोकिशा	-13574
व्यवस्था	-13575
शक्तिमान	-13576
श्वरवादी	-13577
संरक्षित	-13578
सुविधाओं	-13579
सूर्यकुल	-13580
ानिर्मित	-13581
ारावस्था	-13582
िंगरप्रो	-13583
िलाग्रेन	-13584
ृष्टान्त	-13585
ेंचुरियन	-13586
्यावस्था	-13587
▁anivins	-13588
▁bhāratī	-13589
▁odityas	-13590
▁vouchsa	-13591
▁अंतरहित	-13592
▁अकम्पना	-13593
▁अखाड़ों	-13594
▁अगवानों	-13595
▁अग्रभाग	-13596
▁अग्रायण	-13597
▁अच्छापन	-13598
▁अणिमादि	-13599
थु	-13600
धज	-13601
पग	-13602
गाण	-13603
डों	-13604
थुन	-13605
नून	-13606
पढ़	-13607
ससे	-13608
ाथम	-13609
ेंत	-13610
▁कत	-13611
▁शव	-13612
गाणु	-13613
ट्ठे	-13614
रीले	-13615
वाहा	-13616
स्टल	-13617
॥230	-13618
▁अहि	-13619
▁काश	-13620
▁तरस	-13621
▁नाई	-13622
▁बाट	-13623
ंबवान	-13624
जड़ित	-13625
पढ़ाई	-13626
राहकर	-13627
ससेपा	-13628
ाग्नि	-13629
ाथमिक	-13630
ानंदन	-13631
ृंगार	-13632
॥230।	-13633
▁अभिय	-13634
▁उठाओ	-13635
▁कतरा	-13636
▁घेरे	-13637
▁चमका	-13638
▁पड़ो	-13639
▁बेंत	-13640
▁रहति	-13641
▁सीज़	-13642
▁सुजी	-13643
▁सुपा	-13644
धिकारी	-13645
मोहिनी	-13646
वाहादि	-13647
सराहकर	-13648
▁अनुया	-13649
▁घट्ठे	-13650
▁जुनून	-13651
▁तरसती	-13652
▁तुष्ट	-13653
▁बहाता	-13654
▁बाडों	-13655
▁भेजिए	-13656
▁मथानी	-13657
▁मदादि	-13658
▁मानें	-13659
▁मैथुन	-13660
▁लड़ना	-13661
▁सान्त	-13662
▁सीज़र	-13663
▁अंगारा	-13664
▁अहिंसा	-13665
▁आयुहीन	-13666
▁चादरें	-13667
▁जन्मीं	-13668
▁तुष्टि	-13669
▁दीपकों	-13670
▁दुविधा	-13671
▁पड़ोसी	-13672
▁पथरीले	-13673
▁पदनखों	-13674
▁पारुति	-13675
▁रोगाणु	-13676
▁सुजीवन	-13677
▁सुपाइन	-13678
श्रृंगार	-13679
सुनससेपा	-13680
▁अनन्तजी	-13681
▁अनुयायी	-13682
▁अभ्यस्त	-13683
▁अमानवीय	-13684
▁अम्बिका	-13685
▁अरुंधती	-13686
▁अरेबियन	-13687
▁अवतीर्ण	-13688
▁अवशेषों	-13689
▁अविरोधी	-13690
▁अश्विनी	-13691
▁असंतुलन	-13692
▁अस्ताचल	-13693
▁आजीविका	-13694
▁आर्तिहर	-13695
▁आर्यमान	-13696
▁आवाज़ें	-13697
▁इत्यरषे	-13698
▁ईश्वरीय	-13699
भन	-13700
ुह	-13701
▁I	-13702
ंशा	-13703
आकर	-13704
गता	-13705
दुल	-13706
पुल	-13707
रका	-13708
सफल	-13709
ुहस	-13710
▁जट	-13711
▁नग	-13712
▁हन	-13713
ण्डि	-13714
मन्द	-13715
मादि	-13716
हानी	-13717
▁van	-13718
▁उबर	-13719
▁खपत	-13720
▁घूर	-13721
▁फसह	-13722
▁लहल	-13723
▁सला	-13724
▁॥9॥	-13725
-॥23॥	-13726
ंशावल	-13727
गिनकर	-13728
दुलहि	-13729
बनाया	-13730
मिलाह	-13731
शण्डि	-13732
॥208॥	-13733
▁अनदे	-13734
▁कुसा	-13735
▁गूँज	-13736
▁जटित	-13737
▁ढरका	-13738
▁बोझे	-13739
▁मेंड	-13740
▁मैथि	-13741
▁मौके	-13742
▁रूठी	-13743
▁वंदी	-13744
▁सींक	-13745
पुलकित	-13746
मिलाहट	-13747
मुहानी	-13748
▁उदगता	-13749
▁खरादे	-13750
▁गिनकर	-13751
▁गिरीं	-13752
▁जगज्ज	-13753
▁दैन्य	-13754
▁धुलवा	-13755
▁बछड़ा	-13756
▁लहलहा	-13757
▁सलामी	-13758
▁हटाना	-13759
▁हरहाई	-13760
▁ह्रास	-13761
▁॥160॥	-13762
शण्डिजी	-13763
▁अनदेखा	-13764
▁अमृतफल	-13765
▁द्रुहस	-13766
▁पीढ़ों	-13767
▁मिलाते	-13768
▁मेंडिस	-13769
▁मैथिली	-13770
▁वंशावल	-13771
▁संगिनी	-13772
▁सजवाईं	-13773
▁सुधाकर	-13774
▁सुशोभन	-13775
▁हनमान्	-13776
अनावश्यक	-13777
दुलहिनें	-13778
िलमिलाहट	-13779
▁Indakra	-13780
▁उजाड़ने	-13781
▁उजियाले	-13782
▁उत्पाती	-13783
▁उनचासों	-13784
▁उपदेशों	-13785
▁उपनिवेश	-13786
▁उपहारों	-13787
▁औषधियाँ	-13788
▁कंगालों	-13789
▁कमलापति	-13790
▁कल्पभेद	-13791
▁कल्पांत	-13792
▁कसमसाती	-13793
▁कसमसाने	-13794
▁कस्तूरी	-13795
▁कहलवाते	-13796
▁काँवरें	-13797
▁काँवरों	-13798
▁कानूनों	-13799
,॥	-13800
ईथ	-13801
कश	-13802
जग	-13803
नई	-13804
मद	-13805
रत	-13806
एगी	-13807
जवा	-13808
मनच	-13809
लीफ	-13810
हैं	-13811
ूँध	-13812
द्गर	-13813
मूलक	-13814
र्वस	-13815
▁उचक	-13816
▁रम्	-13817
▁लवण	-13818
चार्य	-13819
जगनाथ	-13820
जवाइए	-13821
तकलीफ	-13822
दूर्य	-13823
पराया	-13824
मनचोर	-13825
ित्या	-13826
॥332॥	-13827
▁किरी	-13828
▁कौवे	-13829
▁गड़ै	-13830
▁चलूँ	-13831
▁डरके	-13832
▁डराव	-13833
▁तरकश	-13834
▁बहका	-13835
▁रूँध	-13836
▁लुटे	-13837
▁साईथ	-13838
▁सूरत	-13839
ित्याग	-13840
▁prods	-13841
▁आपमें	-13842
▁उचकते	-13843
▁करताल	-13844
▁खोजें	-13845
▁टापों	-13846
▁दैविक	-13847
▁दोहों	-13848
▁पलड़े	-13849
▁रम्भा	-13850
▁सुरति	-13851
▁सैन्य	-13852
बारियों	-13853
▁डरावने	-13854
▁तुर्वस	-13855
▁बहकावे	-13856
▁मुद्गर	-13857
▁योजनभर	-13858
▁वननिधि	-13859
▁सौगुना	-13860
▁ऋक्षपति	-13861
▁एकरूपता	-13862
▁कहतेहैं	-13863
▁कामदनाथ	-13864
▁कारागार	-13865
▁कार्तिक	-13866
▁कालरूपी	-13867
▁कालसर्प	-13868
▁कालिंदी	-13869
▁काशीपति	-13870
▁किरीटों	-13871
▁किलकिला	-13872
▁कुटम्बी	-13873
▁कुत्तों	-13874
▁कुपुत्र	-13875
▁कुबड़ों	-13876
▁कुमंत्र	-13877
▁कुयंत्र	-13878
▁कुरेदना	-13879
▁कुलघातक	-13880
▁कुलरीति	-13881
▁कुलवाली	-13882
▁कुवेषता	-13883
▁कुशनाभा	-13884
▁कुसनाभा	-13885
▁कैकयराज	-13886
▁कौसलनाथ	-13887
▁क्रशिंग	-13888
▁क्रेटेस	-13889
▁क्षुभित	-13890
▁खप्परों	-13891
▁ख़ड़ाऊँ	-13892
▁खिसियाए	-13893
▁गठजोड़ी	-13894
▁गड़ैयों	-13895
▁गाधिकुल	-13896
▁गारुड़ी	-13897
▁गुणगणों	-13898
▁गृहस्थी	-13899
आन	-13900
मण	-13901
यत	-13902
हथ	-13903
िम	-13904
-2॥	-13905
चकर	-13906
ताब	-13907
सनी	-13908
▁अछ	-13909
ंदजी	-13910
आनंद	-13911
क्टर	-13912
क्री	-13913
तायत	-13914
तोड़	-13915
दानी	-13916
न्ति	-13917
ामती	-13918
ारमण	-13919
ूद्र	-13920
ोक्त	-13921
▁अछू	-13922
▁कच्	-13923
▁तूँ	-13924
▁नाल	-13925
▁बुल	-13926
▁रिस	-13927
ग़ड़े	-13928
नाचकर	-13929
भूतमय	-13930
रीयों	-13931
र्तित	-13932
शूद्र	-13933
हथिनी	-13934
िदानी	-13935
िसिया	-13936
॥1-2॥	-13937
॥357॥	-13938
▁कौओं	-13939
▁खच्च	-13940
▁निगा	-13941
▁पहिन	-13942
▁महाछ	-13943
▁मुड़	-13944
▁वालि	-13945
▁विरध	-13946
▁स्टड	-13947
टेक्टर	-13948
ताबारा	-13949
द्रव्य	-13950
वर्तित	-13951
▁अछूता	-13952
▁अविगत	-13953
▁उठाएं	-13954
▁कच्चे	-13955
▁कर्ता	-13956
▁कालाप	-13957
▁कुपूत	-13958
▁कोयों	-13959
▁चोटें	-13960
▁तूँबी	-13961
▁पहरभर	-13962
▁पापिन	-13963
▁बचाकर	-13964
▁रन्ति	-13965
▁लोटते	-13966
▁साधने	-13967
▁॥357॥	-13968
▁आसामती	-13969
▁इकलौते	-13970
▁कालापन	-13971
▁टिसिया	-13972
▁धमकाया	-13973
▁निकटतम	-13974
▁परातें	-13975
▁महाछवि	-13976
▁माँगूँ	-13977
▁रग़ड़े	-13978
▁रमारमण	-13979
▁व्यसनी	-13980
▁सुनसान	-13981
▁हाहाकर	-13982
रिवर्तित	-13983
▁कुचक्री	-13984
▁खच्चरों	-13985
▁गोमतीजी	-13986
▁ग्रहदशा	-13987
▁घंटियाँ	-13988
▁घनश्याम	-13989
▁घरघराहट	-13990
▁चमगादड़	-13991
▁चरणवन्द	-13992
▁चरणसेवा	-13993
▁चलायमान	-13994
▁चहचहाहट	-13995
▁चिंगारी	-13996
▁चिंताओं	-13997
▁चिदानंद	-13998
▁चिरजीवी	-13999
63	-14000
आम	-14001
गस	-14002
नः	-14003
षि	-14004
सद	-14005
631	-14006
जाह	-14007
टती	-14008
रीण	-14009
सना	-14010
िनन	-14011
▁ऊख	-14012
▁दफ	-14013
▁फि	-14014
▁भं	-14015
▁हद	-14016
-॥9॥	-14017
कृषि	-14018
ण्डल	-14019
दुता	-14020
पुनः	-14021
लेते	-14022
सदृश	-14023
ुमके	-14024
॥1॥॥	-14025
▁जम्	-14026
▁नन्	-14027
▁भंय	-14028
▁यगस	-14029
▁समर	-14030
जाहिर	-14031
धुरीण	-14032
▁1631	-14033
▁अविर	-14034
▁उड़ी	-14035
▁छलते	-14036
▁ढाले	-14037
▁तेज़	-14038
▁दोहा	-14039
▁फिसल	-14040
▁बहाए	-14041
▁बोने	-14042
▁लिनन	-14043
▁हेकर	-14044
109350	-14045
त्यक्ष	-14046
राधर्ष	-14047
▁अगूढ़	-14048
▁अनासु	-14049
▁अविरल	-14050
▁कुत्त	-14051
▁क्षयी	-14052
▁चाटती	-14053
▁चूसना	-14054
▁झुमके	-14055
▁भंयकर	-14056
▁मरीचि	-14057
▁मेखला	-14058
▁सुनती	-14059
▁109350	-14060
▁अँधेरे	-14061
▁आयोजित	-14062
▁कुण्डल	-14063
▁कुत्तस	-14064
▁जम्हाई	-14065
▁दफनाने	-14066
▁दुर्वच	-14067
▁पिलाते	-14068
▁मृदुता	-14069
▁लिवाकर	-14070
आमंत्रित	-14071
मस्सर्गो	-14072
▁savitar	-14073
▁अनासुया	-14074
▁कमलसदृश	-14075
▁क्षेमकर	-14076
▁चैंपियन	-14077
▁चौकन्ना	-14078
▁चौपायों	-14079
▁चौराहों	-14080
▁छटपटाते	-14081
▁छतरियों	-14082
▁छबिवाले	-14083
▁छूटेंगे	-14084
▁छोड़ेगा	-14085
▁जगजाहिर	-14086
▁जगज्जनी	-14087
▁जन्मजात	-14088
▁जयध्वनि	-14089
▁जलाशयों	-14090
▁जांबवान	-14091
▁जातकर्म	-14092
▁जिम्मेद	-14093
▁जुगनुओं	-14094
▁जुड़वाँ	-14095
▁जूतियाँ	-14096
▁ज्ञानघन	-14097
▁झनझनाहट	-14098
▁टालेंगे	-14099
एल	-14100
ंठा	-14101
ईति	-14102
ओगे	-14103
तीर	-14104
रोह	-14105
शेश	-14106
िर्	-14107
्टस	-14108
ंचवा	-14109
ंदगी	-14110
णिका	-14111
तड़प	-14112
तलगत	-14113
त्तक	-14114
दन्त	-14115
मानव	-14116
मुखी	-14117
रेगी	-14118
विदा	-14119
ीरों	-14120
ुकधु	-14121
ुशेश	-14122
▁चौथ	-14123
▁टला	-14124
▁ढेक	-14125
▁तोय	-14126
▁यान	-14127
ंचवां	-14128
कार्य	-14129
कोरों	-14130
वर्धन	-14131
ष्टित	-14132
िंदगी	-14133
्राएल	-14134
▁गिरी	-14135
▁जीवा	-14136
▁धुना	-14137
▁नावर	-14138
▁पौनी	-14139
▁वरन्	-14140
▁शुक्	-14141
घाड़ता	-14142
रोहिता	-14143
ारुशेश	-14144
िर्वाह	-14145
ुकधुकी	-14146
ुरमुखी	-14147
▁उपजते	-14148
▁कहाने	-14149
▁किसान	-14150
▁गणिका	-14151
▁गावें	-14152
▁ढहाती	-14153
▁दत्तक	-14154
▁नावरि	-14155
▁प्रसे	-14156
▁बदलकर	-14157
▁रात्र	-14158
▁रोओगे	-14159
▁लिप्त	-14160
▁लौटती	-14161
▁शुक्ल	-14162
▁समाया	-14163
▁सरेगी	-14164
▁साँगी	-14165
▁सीपचर	-14166
▁सूखते	-14167
कामनाएँ	-14168
पांचवां	-14169
यारुशेश	-14170
▁अम्बरी	-14171
▁करतलगत	-14172
▁कुट्टस	-14173
▁गिराने	-14174
▁झकोरों	-14175
▁निर्जल	-14176
▁निविदा	-14177
▁परिघों	-14178
▁प्रसेन	-14179
▁याचकगण	-14180
▁ललाटों	-14181
▁हितभरी	-14182
क्रवर्ती	-14183
र्मिंदगी	-14184
▁अंगलोपा	-14185
▁अम्बरीष	-14186
▁अश्वपति	-14187
▁इस्राएल	-14188
▁उघाड़ता	-14189
▁उत्कंठा	-14190
▁गंगातीर	-14191
▁डंडियों	-14192
▁डार्ट्स	-14193
▁डालेंगी	-14194
▁ढ़ूँढते	-14195
▁तमतमाया	-14196
▁तसवीरों	-14197
▁तारणायण	-14198
▁तालियाँ	-14199
कण	-14200
खर	-14201
ाक	-14202
केय	-14203
टिए	-14204
पाठ	-14205
भ्र	-14206
मक्	-14207
िरस	-14208
▁लद	-14209
ंदित	-14210
ंपरा	-14211
लंबी	-14212
ल्दी	-14213
ान्ध	-14214
िपाल	-14215
ूर्ख	-14216
▁इहल	-14217
▁ढाक	-14218
▁दीए	-14219
▁धरे	-14220
जल्दी	-14221
पीटिए	-14222
मक्खी	-14223
मूर्ख	-14224
्याना	-14225
▁अरोग	-14226
▁ओलों	-14227
▁कडुआ	-14228
▁छलने	-14229
▁जनधन	-14230
▁रजकण	-14231
▁शेखर	-14232
!॥292॥	-14233
?॥291॥	-14234
ंदिपाल	-14235
भ्रष्ट	-14236
र्गिरस	-14237
्वचित्	-14238
▁अभिने	-14239
▁इहलोक	-14240
▁उमाजी	-14241
▁झाड़ू	-14242
▁नवाता	-14243
▁बाँका	-14244
▁बुझाई	-14245
▁मनाही	-14246
▁समाकर	-14247
▁अनुपाल	-14248
▁अन्यों	-14249
▁अरोग्य	-14250
▁इंड्रा	-14251
▁कलियाँ	-14252
▁ध्वस्त	-14253
▁परंपरा	-14254
▁फुलाना	-14255
▁बिताते	-14256
▁ब्याना	-14257
▁लदवाकर	-14258
▁wickeds	-14259
▁अनिंदित	-14260
▁अनुपालन	-14261
▁अर्गिरस	-14262
▁कामान्ध	-14263
▁क्वचित्	-14264
▁तीर्थजल	-14265
▁तुड़ाकर	-14266
▁तूफ़ानी	-14267
▁तेरहवाँ	-14268
▁तोड़ेगा	-14269
▁तोयनिधि	-14270
▁त्रिकृद	-14271
▁त्रिविध	-14272
▁त्वचाएँ	-14273
▁दतनन्तर	-14274
▁दर्शाती	-14275
▁दामादों	-14276
▁दासियों	-14277
▁दिखलाने	-14278
▁दिखावटी	-14279
▁दिगम्बर	-14280
▁दिग्गजो	-14281
▁दिल्लगी	-14282
▁दीनबंधो	-14283
▁दीपशिखा	-14284
▁दीवारें	-14285
▁दुंदुभि	-14286
▁दुखियों	-14287
▁दुपट्टा	-14288
▁दुरमुखी	-14289
▁देवगणों	-14290
▁देववृंद	-14291
▁देवहूति	-14292
▁देहजनित	-14293
▁दैत्यगण	-14294
▁धर्मसभा	-14295
▁धारीदार	-14296
▁धार्मिक	-14297
▁धुकधुकी	-14298
▁धुलवाकर	-14299
आच	-14300
छछ	-14301
नद	-14302
भे	-14303
लं	-14304
ुढ	-14305
ेड	-14306
ोस	-14307
ठने	-14308
तंक	-14309
दना	-14310
नाक	-14311
़ुढ	-14312
ुता	-14313
▁इप	-14314
▁चप	-14315
▁थन	-14316
'॥7॥	-14317
ंसान	-14318
आचमन	-14319
कासन	-14320
छछूँ	-14321
जबकि	-14322
भेदी	-14323
मधुर	-14324
लंबा	-14325
हकौर	-14326
़ुढक	-14327
▁करण	-14328
▁जूठ	-14329
▁ठोस	-14330
▁तमि	-14331
▁तुग	-14332
▁दाद	-14333
▁सील	-14334
!॥21॥	-14335
ओंकार	-14336
क्रेड	-14337
तरनाक	-14338
युगान	-14339
लंबाई	-14340
ीनध्व	-14341
ुड़ना	-14342
▁अवहे	-14343
▁आतंक	-14344
▁कराई	-14345
▁कुंड	-14346
▁जूठन	-14347
▁तमिस	-14348
▁पूंछ	-14349
▁बैंड	-14350
▁मगरी	-14351
▁रामद	-14352
▁रूपा	-14353
▁लगिए	-14354
▁वदना	-14355
▁विषै	-14356
▁वीरो	-14357
▁साका	-14358
?॥262॥	-14359
क्षणभर	-14360
छछूँदर	-14361
छुड़ना	-14362
नदियाँ	-14363
पत्नीक	-14364
ीनध्वज	-14365
▁अवहेल	-14366
▁इंसान	-14367
▁ओंकार	-14368
▁चपलता	-14369
▁चलाईं	-14370
▁तैरकर	-14371
▁नेवले	-14372
▁लहकौर	-14373
▁ल़ुढक	-14374
▁श्रवण	-14375
▁स्तंभ	-14376
दासियों	-14377
युगान्त	-14378
▁खतरनाक	-14379
▁गँवारू	-14380
▁पक्षों	-14381
▁विषैले	-14382
▁श्रुता	-14383
▁सुजाति	-14384
▁सुयज्ञ	-14385
बिछुड़ना	-14386
युगान्तर	-14387
▁अवहेलना	-14388
▁इपफ्रास	-14389
▁गुनगुना	-14390
▁तमिस्रा	-14391
▁तुगर्या	-14392
▁त्यागता	-14393
▁द्वारों	-14394
▁ध्रुवजी	-14395
▁ध्रुवसा	-14396
▁नरकगामी	-14397
▁नरमुण्ड	-14398
▁नाखूनों	-14399
कू	-14400
वज	-14401
ेग	-14402
▁:	-14403
▁U	-14404
कती	-14405
खार	-14406
भाँ	-14407
मन्	-14408
▁be	-14409
कतीस	-14410
खावज	-14411
मलकर	-14412
सेवक	-14413
ौलता	-14414
▁beu	-14415
▁उभर	-14416
▁खाई	-14417
▁चरे	-14418
▁पके	-14419
▁परक	-14420
अर्था	-14421
द्वेग	-14422
ावतार	-14423
ूंखार	-14424
॥113॥	-14425
▁करवा	-14426
▁गालव	-14427
▁गुणा	-14428
▁गेरु	-14429
▁चेते	-14430
▁थेंस	-14431
▁बिठा	-14432
▁हरती	-14433
?॥173॥	-14434
मन्थरा	-14435
यनामृत	-14436
वानस्व	-14437
▁इकतीस	-14438
▁करतार	-14439
▁खौलता	-14440
▁छोटों	-14441
▁ठहरिए	-14442
▁दुघड़	-14443
▁निर्म	-14444
▁पखावज	-14445
▁बतावे	-14446
▁बिकता	-14447
▁महानद	-14448
▁वंशों	-14449
▁सोचती	-14450
अर्थात्	-14451
भाँड़ों	-14452
वानस्वा	-14453
▁उद्वेग	-14454
▁खूंखार	-14455
▁चतुरों	-14456
▁भूषणों	-14457
▁भेंटती	-14458
▁मतवाली	-14459
▁लड़ाकू	-14460
▁समझोगे	-14461
▁करवाएगा	-14462
▁कालक्रम	-14463
▁गुणातीत	-14464
▁नयनामृत	-14465
▁नारदादि	-14466
▁नास्तिक	-14467
▁निकलेगी	-14468
▁निकालीं	-14469
▁निगाहों	-14470
▁निगृहीत	-14471
▁नितान्त	-14472
▁निधियाँ	-14473
▁निपटाने	-14474
▁निमिराज	-14475
▁नियमादि	-14476
▁नियोजित	-14477
▁निर्गुन	-14478
▁निर्भरा	-14479
▁निर्मित	-14480
▁निर्मूल	-14481
▁निर्वहन	-14482
▁निर्वाण	-14483
▁निस्संग	-14484
▁निहारकर	-14485
▁निहारता	-14486
▁निहारते	-14487
▁नीतियाँ	-14488
▁नीरनिधि	-14489
▁नीलकण्ठ	-14490
▁नूपुरों	-14491
▁नौकरानी	-14492
▁न्यायलय	-14493
▁पंखुड़ी	-14494
▁पकवानों	-14495
▁पखवाड़ा	-14496
▁पचासवाँ	-14497
▁पचासवें	-14498
▁पछताएगी	-14499
:-	-14500
खट	-14501
यः	-14502
▁i	-14503
आने	-14504
बकर	-14505
लसी	-14506
शाब	-14507
ातृ	-14508
िगो	-14509
▁इफ	-14510
▁जठ	-14511
▁डा	-14512
▁तौ	-14513
ंगजी	-14514
दूषक	-14515
द्रू	-14516
र्णा	-14517
ाधार	-14518
॥।5॥	-14519
▁एकल	-14520
▁कदम	-14521
▁छठी	-14522
▁जलच	-14523
▁ज्य	-14524
▁तरन	-14525
▁तिस	-14526
▁दहा	-14527
▁फटक	-14528
▁बचन	-14529
करणों	-14530
किरात	-14531
चीनों	-14532
नियाँ	-14533
ादुर्	-14534
्यारी	-14535
॥331॥	-14536
॥352॥	-14537
▁अहीर	-14538
▁चौखट	-14539
▁जठरा	-14540
▁डाँस	-14541
▁ढाला	-14542
▁दोहे	-14543
▁परसे	-14544
▁मापा	-14545
▁मोटे	-14546
▁सताए	-14547
अपर्णा	-14548
कुजाति	-14549
▁कद्रू	-14550
▁खोजूँ	-14551
▁खोलती	-14552
▁चुआने	-14553
▁तौलकर	-14554
▁दहाड़	-14555
▁दाबकर	-14556
▁पलासा	-14557
▁पाओगी	-14558
▁पालना	-14559
▁पेशाब	-14560
▁फटकते	-14561
▁बिल्ड	-14562
▁भेदने	-14563
▁राजरस	-14564
▁सिखाए	-14565
▁हिलता	-14566
▁हुलसी	-14567
▁॥256॥	-14568
▁इंडिगो	-14569
▁जलचरों	-14570
▁न्यारी	-14571
▁पच्चीस	-14572
▁प्रायः	-14573
▁बिल्डर	-14574
▁भ्रातृ	-14575
▁मतंगजी	-14576
▁मतिधीर	-14577
▁ललनाओं	-14578
▁लाउड्स	-14579
▁विदूषक	-14580
स्पतियाँ	-14581
ादुर्भाव	-14582
▁इत्यरुष	-14583
▁उपकरणों	-14584
▁चमकेंगी	-14585
▁छिद्रों	-14586
▁जूतियों	-14587
▁ज्येष्ठ	-14588
▁दहाड़ें	-14589
▁पंखधारी	-14590
▁पद्मराग	-14591
▁पद्मासन	-14592
▁परद्रोह	-14593
▁परफेक्ट	-14594
▁परिपालन	-14595
▁परिषदों	-14596
▁पहिचाने	-14597
▁पहुँचता	-14598
▁पहुँचाओ	-14599
],	-14600
sv	-14601
ऐँ	-14602
गाव	-14603
छों	-14604
न्थ	-14605
लें	-14606
वों	-14607
शें	-14608
ौढ़	-14609
ौना	-14610
svas	-14611
तुर्	-14612
पुंज	-14613
लगिर	-14614
श्रण	-14615
सर्ट	-14616
हवास	-14617
▁अती	-14618
▁औरत	-14619
▁केक	-14620
▁पीत	-14621
▁भवश	-14622
▁वन्	-14623
न्द्य	-14624
म्बार	-14625
लगिरि	-14626
्यादे	-14627
॥340॥	-14628
▁आएगी	-14629
▁कुली	-14630
▁तीतर	-14631
▁धमकी	-14632
▁भ्रू	-14633
▁रचूँ	-14634
▁रसिक	-14635
▁लाऊँ	-14636
▁सुरा	-14637
ग्रन्थ	-14638
तुर्भु	-14639
त्तलें	-14640
त्वारि	-14641
प्यादे	-14642
बच्चों	-14643
वसियों	-14644
सकराते	-14645
▁अंडों	-14646
▁अलगाव	-14647
▁उतरीं	-14648
▁उपश्र	-14649
▁गरजकर	-14650
▁घूमना	-14651
▁चलावे	-14652
▁तैरते	-14653
▁पहनना	-14654
▁बरछों	-14655
▁भवशूल	-14656
▁मुनीश	-14657
▁मोड़ा	-14658
▁लाशें	-14659
▁वन्गु	-14660
▁सर्पद	-14661
▁सोचना	-14662
▁हममें	-14663
क्षेत्र	-14664
तुर्भुज	-14665
▁उपश्रे	-14666
▁कानूनन	-14667
▁गाँठों	-14668
▁घुँघची	-14669
▁दुर्जय	-14670
▁द्रवों	-14671
▁प्रौढ़	-14672
▁बिछौना	-14673
▁भुजाऐँ	-14674
▁मिलाया	-14675
▁मिश्रण	-14676
▁मृतकों	-14677
▁रामघाट	-14678
▁रोसर्ट	-14679
▁सु्रवा	-14680
ज्जलगिरि	-14681
त्वारिंश	-14682
▁उत्पीड़	-14683
▁घंटियों	-14684
▁जीवनसाथ	-14685
▁तेजपुंज	-14686
▁पत्तलें	-14687
▁पहुँचें	-14688
▁पहुंचता	-14689
▁पाखण्डी	-14690
▁पापराशि	-14691
▁पार्थिव	-14692
▁पावनामे	-14693
▁पिंजड़े	-14694
▁पुजवाते	-14695
▁पूर्णतम	-14696
▁पेलुकिड	-14697
▁पौढ़ाया	-14698
▁प्रतिफल	-14699
चू	-14700
भग	-14701
ंघा	-14702
ऐसा	-14703
खले	-14704
चूक	-14705
भीर	-14706
!॥23	-14707
अयोध	-14708
तारन	-14709
पाही	-14710
प्रण	-14711
सक्त	-14712
सुरा	-14713
▁अनख	-14714
▁अवर	-14715
▁कीन	-14716
▁कोर	-14717
▁कोस	-14718
▁चहल	-14719
▁चौब	-14720
▁छज्	-14721
▁टाइ	-14722
▁तकी	-14723
▁नौज	-14724
▁बधि	-14725
▁मथन	-14726
▁रोह	-14727
उपदेश	-14728
गात्र	-14729
्रावन	-14730
॥296॥	-14731
▁-॥1॥	-14732
▁आभीर	-14733
▁करो़	-14734
▁जिता	-14735
▁जिते	-14736
▁जुझा	-14737
▁ताजी	-14738
▁तैना	-14739
▁नकली	-14740
▁बनाओ	-14741
▁भंजन	-14742
▁मिट्	-14743
▁योना	-14744
▁लगभग	-14745
▁सुधर	-14746
▁सौते	-14747
च्रावन	-14748
ज्ञाओं	-14749
▁उम़ड़	-14750
▁कोरथी	-14751
▁खोखले	-14752
▁गंधों	-14753
▁चलेगी	-14754
▁छज्जे	-14755
▁जबड़े	-14756
▁जुझाऊ	-14757
▁झुकने	-14758
▁टाइगर	-14759
▁तैनात	-14760
▁सूंघा	-14761
अयोध्या	-14762
रूपसिंग	-14763
▁अपनावण	-14764
▁चौबारे	-14765
▁बधिकों	-14766
▁भक्तिम	-14767
▁भ्रमरी	-14768
▁मिट्टी	-14769
▁रोहिणी	-14770
▁लीलामय	-14771
▁सिखाते	-14772
▁सिपाही	-14773
▁सीधेपन	-14774
▁सौतेला	-14775
▁अनासक्त	-14776
▁छुटकारा	-14777
▁तुड़ाती	-14778
▁दशगात्र	-14779
▁दौड़ाया	-14780
▁प्रयत्न	-14781
▁प्रशांत	-14782
▁प्रेतों	-14783
▁प्रेषित	-14784
▁फटकारने	-14785
▁फ़िल्टर	-14786
▁फिरेंगे	-14787
▁बंटवारा	-14788
▁बखानेगा	-14789
▁बचाएंगे	-14790
▁बढ़ाइये	-14791
▁बतबढ़ाव	-14792
▁बतावेगा	-14793
▁बहुतायत	-14794
▁बहुरंगे	-14795
▁बाँसुरी	-14796
▁बाजारों	-14797
▁बाजूबंद	-14798
▁बारहबाट	-14799
▁.	-14800
जली	-14801
ताए	-14802
तात	-14803
वता	-14804
हता	-14805
्रै	-14806
▁18	-14807
▁77	-14808
?॥12	-14809
करकर	-14810
करार	-14811
करों	-14812
नाशन	-14813
भूरे	-14814
माही	-14815
▁एहे	-14816
▁जहे	-14817
▁जाय	-14818
▁टोह	-14819
▁ठौर	-14820
▁राई	-14821
▁लाग	-14822
▁शाद	-14823
▁श्ल	-14824
▁सेर	-14825
?॥123	-14826
उलझकर	-14827
पृथक्	-14828
पोसकर	-14829
▁असत्	-14830
▁कैरी	-14831
▁घुणा	-14832
▁जताए	-14833
▁जिले	-14834
▁दंभी	-14835
▁बैना	-14836
▁भावत	-14837
▁महीन	-14838
▁लिली	-14839
▁वामम	-14840
▁हरता	-14841
हिकरकर	-14842
ुरियों	-14843
▁कड़ुए	-14844
▁कहाना	-14845
▁खुजली	-14846
▁जोहता	-14847
▁नेवता	-14848
▁पढ़ाई	-14849
▁प्रेस	-14850
▁बर्रै	-14851
▁वैताल	-14852
▁शान्त	-14853
▁श्लोक	-14854
▁हरिता	-14855
▁कैरीज़	-14856
▁तथ्यों	-14857
▁तिमाही	-14858
▁दंतकथा	-14859
▁बरकरार	-14860
▁बहेंगे	-14861
▁मँगनों	-14862
▁मार्था	-14863
▁रणयज्ञ	-14864
▁राजराज	-14865
▁विलखते	-14866
▁शासकों	-14867
▁शीलवती	-14868
▁समझाऊँ	-14869
▁हरिताभ	-14870
▁जायेंगे	-14871
▁दयारहित	-14872
▁दर्शकों	-14873
▁पंडितजन	-14874
▁पापनाशन	-14875
▁बारहवें	-14876
▁बालचरित	-14877
▁बालतोड़	-14878
▁बावलिया	-14879
▁बिगड़ता	-14880
▁बुजुर्ग	-14881
▁बेतहाशा	-14882
▁बेहतरीन	-14883
▁बोलबाले	-14884
▁ब्राह्म	-14885
▁ब्राह्य	-14886
▁ब्रिगेड	-14887
▁ब्रेड्स	-14888
▁भग्गुओं	-14889
▁भग्गूओं	-14890
▁भड़काता	-14891
▁भड़काती	-14892
▁भड़िहाई	-14893
▁भावनाएं	-14894
▁भिजवाइए	-14895
▁भूमियों	-14896
▁भृगुपति	-14897
▁मकराकृत	-14898
▁मछलियां	-14899
रग	-14900
ois	-14901
उसी	-14902
पदा	-14903
बेच	-14904
यास	-14905
लबी	-14906
शरण	-14907
स्प	-14908
तरित	-14909
दासी	-14910
हजार	-14911
ियरी	-14912
्युत	-14913
्लेड	-14914
्वरी	-14915
॥5॥*	-14916
▁अड़	-14917
▁अवश	-14918
▁उरग	-14919
▁कर्	-14920
▁गोप	-14921
▁जर्	-14922
▁नटी	-14923
▁नही	-14924
▁बही	-14925
▁बोर	-14926
▁मचल	-14927
▁हिच	-14928
▁हेय	-14929
▁होम	-14930
खियाँ	-14931
पड़कर	-14932
पदाएँ	-14933
पेटकर	-14934
बेचैन	-14935
हारने	-14936
॥230॥	-14937
॥252॥	-14938
▁चूके	-14939
▁तरफा	-14940
▁दबाओ	-14941
▁निजी	-14942
▁प्रथ	-14943
▁फहरा	-14944
▁बजाय	-14945
▁बदरि	-14946
▁मोहे	-14947
▁रूखी	-14948
▁लागू	-14949
▁सम्य	-14950
▁सिर्	-14951
▁सुअर	-14952
▁होड़	-14953
-॥230॥	-14954
त्रिमा	-14955
दासीगण	-14956
स्पष्ट	-14957
हेश्वर	-14958
ियरीयम	-14959
▁whois	-14960
▁अड़चन	-14961
▁अप्री	-14962
▁असमान	-14963
▁कर्दम	-14964
▁खम्भे	-14965
▁चिपटा	-14966
▁चीरकर	-14967
▁च्युत	-14968
▁जर्जर	-14969
▁फैलती	-14970
▁ब्लेड	-14971
▁मचलना	-14972
▁मतलबी	-14973
▁मूंगा	-14974
▁सिर्फ	-14975
क्खियाँ	-14976
दत्रिमा	-14977
निपुणता	-14978
निहारने	-14979
फलयुक्त	-14980
महेश्वर	-14981
स्ट्रेट	-14982
▁अनायास	-14983
▁अवतरित	-14984
▁उपवनों	-14985
▁गोपनीय	-14986
▁बजाओगी	-14987
▁बढ़ाती	-14988
▁बैरभाव	-14989
▁भरोसों	-14990
▁लपेटकर	-14991
▁लिपटीं	-14992
▁वरूँगी	-14993
▁समारोह	-14994
▁सम्यक्	-14995
▁सिंदूर	-14996
▁हिचकता	-14997
िस्ट्रेट	-14998
▁अप्रीति	-14999
,)	-15000
;)	-15001
yu	-15002
यद	-15003
yus	-15004
ँसी	-15005
कौए	-15006
नाव	-15007
नित	-15008
यित	-15009
ौटी	-15010
▁आब	-15011
▁गच	-15012
!॥7॥	-15013
टाकर	-15014
समझे	-15015
▁आबा	-15016
▁दाल	-15017
▁नेक	-15018
▁लूत	-15019
कपालु	-15020
कोड़े	-15021
विरोध	-15022
सहारे	-15023
ो़ड़े	-15024
▁byus	-15025
▁छिदे	-15026
▁जबसे	-15027
▁तकिए	-15028
▁ताली	-15029
▁धँसी	-15030
▁धारक	-15031
▁पयोध	-15032
▁पिया	-15033
▁भरने	-15034
▁महोख	-15035
▁लाठी	-15036
▁लिंग	-15037
▁लिडा	-15038
▁वार्	-15039
▁शायद	-15040
▁सीपी	-15041
दशरथजी	-15042
मकोड़े	-15043
ालायित	-15044
▁अनंता	-15045
▁अवधभर	-15046
▁आबादी	-15047
▁इशारा	-15048
▁कसौटी	-15049
▁चूकता	-15050
▁ढेरों	-15051
▁पयोधि	-15052
▁लगाएँ	-15053
▁लाएगा	-15054
▁लादकर	-15055
▁वैश्र	-15056
▁सजाती	-15057
▁सींचे	-15058
▁सोमदा	-15059
र्गधनुष	-15060
▁थो़ड़े	-15061
▁बंधनों	-15062
▁यज्ञीय	-15063
▁लिटाकर	-15064
▁वार्ता	-15065
▁सजातीय	-15066
ंर्गधनुष	-15067
▁अमानुषी	-15068
▁उखाड़ते	-15069
▁कालधर्म	-15070
▁गिरेंगी	-15071
▁गुणकारी	-15072
▁घड़ियाँ	-15073
▁त्रिताप	-15074
▁बदरिकाश	-15075
▁भृगुनाथ	-15076
▁मछुआरों	-15077
▁मधुपर्क	-15078
▁मनगढ़ंत	-15079
▁मनुष्यभ	-15080
▁मन्त्रस	-15081
▁मन्त्री	-15082
▁महामलिन	-15083
▁महासर्प	-15084
▁महोदाया	-15085
▁मायाजाल	-15086
▁मायारूप	-15087
▁माहात्म	-15088
▁मिलनसार	-15089
▁मिलूँगा	-15090
▁मीनध्वज	-15091
▁मुण्डों	-15092
▁मुनिकुल	-15093
▁मूलकारण	-15094
▁मृगछौनी	-15095
▁मोक्षपद	-15096
▁मोक्षों	-15097
▁यमदूतों	-15098
▁युद्धरस	-15099
आं	-15100
9।।	-15101
अति	-15102
केक	-15103
चते	-15104
मनी	-15105
िएँ	-15106
ंडली	-15107
आपका	-15108
नहीं	-15109
मुकु	-15110
ारका	-15111
▁आदी	-15112
▁आपे	-15113
▁कुह	-15114
▁कौश	-15115
▁चका	-15116
▁छड़	-15117
▁जरी	-15118
▁तरा	-15119
▁भोज	-15120
▁विम	-15121
अतिथि	-15122
उसमें	-15123
गंधित	-15124
जंजाल	-15125
तुरंत	-15126
मालिक	-15127
मुकुट	-15128
लादकर	-15129
श्रुत	-15130
।।9।।	-15131
॥211॥	-15132
▁खेवे	-15133
▁खोली	-15134
▁जगद्	-15135
▁जिएँ	-15136
▁धुआं	-15137
▁बहना	-15138
▁मोर्	-15139
▁रामम	-15140
▁वेदि	-15141
▁॥36॥	-15142
कल्पिक	-15143
▁ककड़ी	-15144
▁कलेवा	-15145
▁कौशिक	-15146
▁चकाचौ	-15147
▁चरणचि	-15148
▁चरणाम	-15149
▁चिमनी	-15150
▁जड़ों	-15151
▁जरूरत	-15152
▁टिटिह	-15153
▁नाचना	-15154
▁परात्	-15155
▁बनानी	-15156
▁बायाँ	-15157
▁मांगी	-15158
▁वारिस	-15159
▁सूखकर	-15160
दक्षिणा	-15161
सुगंधित	-15162
▁अलारका	-15163
▁कुहराम	-15164
▁खिलाया	-15165
▁घुँघरू	-15166
▁निर्जन	-15167
▁प्यासी	-15168
▁फर्शें	-15169
▁मणिरूप	-15170
▁मोर्चे	-15171
▁वेदिका	-15172
▁सकुचते	-15173
▁youvins	-15174
▁चकाचौंध	-15175
▁चरणामृत	-15176
▁चित्रलि	-15177
▁परात्पर	-15178
▁योगरहित	-15179
▁रघुनन्द	-15180
▁रघुवंशी	-15181
▁रसयुक्त	-15182
▁राजधर्म	-15183
▁रामविरह	-15184
▁राशियाँ	-15185
▁रिकॉर्ड	-15186
▁रुचियाँ	-15187
▁रोटियां	-15188
▁लंगड़ों	-15189
▁लड्डुओं	-15190
▁लर्निंग	-15191
▁लवणसागर	-15192
▁लहलहाते	-15193
▁लालायित	-15194
▁लुटेरों	-15195
▁लुढ़कते	-15196
▁लॉर्ड्स	-15197
▁लोकरीति	-15198
▁वचनामृत	-15199
वो	-15200
़त	-15201
जोह	-15202
व्व	-15203
हिक	-15204
इसकी	-15205
उसको	-15206
नुमा	-15207
भंगा	-15208
राओं	-15209
स्रम	-15210
़तवर	-15211
▁कोट	-15212
▁जोस	-15213
▁मसौ	-15214
▁मु्	-15215
▁सिक	-15216
अरबों	-15217
जोहार	-15218
तरूपा	-15219
वोदास	-15220
▁अनुज	-15221
▁उठने	-15222
▁उठें	-15223
▁ऋष्य	-15224
▁जेम्	-15225
▁थकाए	-15226
▁नहरु	-15227
▁पहिए	-15228
▁फव्व	-15229
▁भ्रा	-15230
▁मायू	-15231
▁रटती	-15232
▁सबला	-15233
▁सुपु	-15234
▁हीरा	-15235
शतरूपा	-15236
स्रमुख	-15237
▁अमोरा	-15238
▁अशकुन	-15239
▁उलझती	-15240
▁चूड़ा	-15241
▁जेम्स	-15242
▁दैहिक	-15243
▁नहरुआ	-15244
▁परिवह	-15245
▁पृथक्	-15246
▁भागवत	-15247
▁मसौदे	-15248
▁वर्णा	-15249
▁विहीन	-15250
▁ऋष्यमू	-15251
▁कँगूरे	-15252
▁कारनाम	-15253
▁जहाजों	-15254
▁देवताओ	-15255
▁धारणकर	-15256
▁निर्लि	-15257
▁परिवहन	-15258
▁पहियों	-15259
▁भ्राता	-15260
▁मायूसी	-15261
▁राजरूप	-15262
▁रेंगने	-15263
▁वनभूमि	-15264
▁सरभंगा	-15265
▁सिकुड़	-15266
▁सितारे	-15267
▁सीधापन	-15268
कन्दराओं	-15269
▁ऋष्यमूक	-15270
▁ताक़तवर	-15271
▁दिवोदास	-15272
▁देवसमूह	-15273
▁निरंकुश	-15274
▁फव्वारे	-15275
▁बकरियाँ	-15276
▁बालसिंह	-15277
▁महलनुमा	-15278
▁वज्रघात	-15279
▁वन्दीजन	-15280
▁वर्षाशन	-15281
▁वाउचसेफ	-15282
▁वानरकुल	-15283
▁वान्छित	-15284
▁वाममार्	-15285
▁वासनाएं	-15286
▁विंडगॉड	-15287
▁विघ्नों	-15288
▁विचारती	-15289
▁विचारते	-15290
▁विदेहजी	-15291
▁विधियाँ	-15292
▁विपुलता	-15293
▁विभांडक	-15294
▁विभागों	-15295
▁विमोहित	-15296
▁विराजता	-15297
▁विवाहित	-15298
▁विशेषता	-15299
छोटी	-15300
मुँह	-15301
वासन	-15302
विनय	-15303
शंकर	-15304
ातुर	-15305
ास्य	-15306
ुभाव	-15307
॥1॥।	-15308
▁कटे	-15309
▁चरम	-15310
-॥41॥	-15311
ंगलों	-15312
उड़कर	-15313
दड़ों	-15314
वाड़ी	-15315
॥336॥	-15316
▁अड़ा	-15317
▁आमों	-15318
▁कैफा	-15319
▁चीनी	-15320
▁छींक	-15321
▁जनकर	-15322
▁जाएं	-15323
▁ज्वल	-15324
▁थाना	-15325
▁दबाई	-15326
▁धावन	-15327
▁नरसं	-15328
▁निपट	-15329
▁नीकी	-15330
▁मधुम	-15331
▁रोएँ	-15332
▁सबों	-15333
▁हलका	-15334
▁॥13॥	-15335
सलियाँ	-15336
ुभावों	-15337
▁अधमरे	-15338
▁आवेगा	-15339
▁उमड़ी	-15340
▁जड़कर	-15341
▁नावों	-15342
▁पालती	-15343
▁बनाएँ	-15344
▁भटकाव	-15345
▁योगों	-15346
▁वज्रत	-15347
▁वेदना	-15348
्रामदेव	-15349
▁गुरुओं	-15350
▁जनकराज	-15351
▁ज्वलंत	-15352
▁निपटने	-15353
▁बाधाएं	-15354
▁वर्षभर	-15355
▁विवासन	-15356
▁व्यापा	-15357
▁समूहमय	-15358
▁स्वांग	-15359
▁हलकापन	-15360
चन्द्रमा	-15361
ार्थियों	-15362
▁अंगदादि	-15363
▁गीदड़ों	-15364
▁धर्मध्व	-15365
▁नरसंहार	-15366
▁निरन्तर	-15367
▁पसलियाँ	-15368
▁पहचानने	-15369
▁भाँड़ें	-15370
▁वज्रतुल	-15371
▁विधवाओं	-15372
▁विश्रवा	-15373
▁विश्ववि	-15374
▁विषयभोग	-15375
▁विसूरती	-15376
▁वीरभद्र	-15377
▁वृद्धों	-15378
▁वेदान्त	-15379
▁वेदोक्त	-15380
▁वेवेरेथ	-15381
▁वेषवाला	-15382
▁वैदूर्य	-15383
▁वैश्रवण	-15384
▁व्यवस्थ	-15385
▁व्यापार	-15386
▁व्याप्य	-15387
▁शतुलक्ष	-15388
▁शत्रुता	-15389
▁शय्याएँ	-15390
▁शय्याओं	-15391
▁शस्त्री	-15392
▁शादियों	-15393
▁शुभाशुभ	-15394
▁शुरुआती	-15395
▁शेडेमोन	-15396
▁शैतानों	-15397
▁शोकप्रद	-15398
▁शोकाकुल	-15399
कटी	-15400
ूहो	-15401
ंगंध	-15402
ंचाव	-15403
बुरी	-15404
महान	-15405
वेगी	-15406
हाला	-15407
▁चाम	-15408
▁चूह	-15409
▁तेन	-15410
▁फटा	-15411
▁बुध	-15412
▁मंध	-15413
▁यहू	-15414
▁सिख	-15415
सारकर	-15416
▁अपेल	-15417
▁चूहे	-15418
▁छाला	-15419
▁जनता	-15420
▁जाटा	-15421
▁तेली	-15422
▁थाले	-15423
▁दलील	-15424
▁दार्	-15425
▁भाला	-15426
▁मेवे	-15427
▁यूहो	-15428
▁लेटा	-15429
▁लोवे	-15430
▁शाला	-15431
▁समाई	-15432
जान्या	-15433
ज्ञासा	-15434
▁अटपटे	-15435
▁अनुभू	-15436
▁अपनाम	-15437
▁उत्कट	-15438
▁जिंगल	-15439
▁जूँठा	-15440
▁डालीं	-15441
▁पौत्र	-15442
▁यहूदी	-15443
▁लगाऊँ	-15444
▁सुखकर	-15445
दासियाँ	-15446
रामचरित	-15447
वेदियों	-15448
हालांकि	-15449
▁अनैतिक	-15450
▁आवेंगी	-15451
▁उत्तान	-15452
▁खिंचाव	-15453
▁गर्भों	-15454
▁गिरावे	-15455
▁झुलाती	-15456
▁तंतुओं	-15457
▁निडरता	-15458
▁परवशता	-15459
▁पसारकर	-15460
▁पूँछें	-15461
▁बदसूरत	-15462
▁मंधाता	-15463
▁मन्देह	-15464
▁मुखिया	-15465
▁विचारक	-15466
▁वृत्ति	-15467
▁संज्ञा	-15468
▁सिखाना	-15469
▁सिखायी	-15470
▁सौंगंध	-15471
▁अनुभूति	-15472
▁अभिलाषी	-15473
▁आज्ञाओं	-15474
▁चामुण्ड	-15475
▁दबावेगी	-15476
▁पहचानता	-15477
▁रोटियों	-15478
▁लगाऊँगी	-15479
▁लोवेस्ट	-15480
▁शोधवाकर	-15481
▁शोधवाया	-15482
▁शोभाहीन	-15483
▁सँभालकर	-15484
▁संकुचित	-15485
▁संगठनों	-15486
▁संपदाएँ	-15487
▁संभालने	-15488
▁संभावना	-15489
▁संशयहीन	-15490
▁सतरुघ्न	-15491
▁सताएंगे	-15492
▁सत्ताईस	-15493
▁सत्तासी	-15494
▁सपत्नीक	-15495
▁सपिन्दा	-15496
▁समझेंगे	-15497
▁समधियों	-15498
▁समिधाएँ	-15499
-।	-15500
-6॥	-15501
तुम	-15502
ंचुआ	-15503
जित्	-15504
दरजी	-15505
दांश	-15506
धांग	-15507
वासु	-15508
सड़क	-15509
सीधा	-15510
ावली	-15511
्राइ	-15512
।॥5॥	-15513
▁आदत	-15514
▁चकई	-15515
▁नेम	-15516
▁याक	-15517
▁लगो	-15518
▁लाड	-15519
!॥12॥	-15520
कान्त	-15521
प्रभु	-15522
ब्राइ	-15523
वीर्य	-15524
ुष्टा	-15525
॥5-6॥	-15526
▁झंडे	-15527
▁तात्	-15528
▁धरके	-15529
▁बाली	-15530
▁बाले	-15531
▁भगवन	-15532
▁लगूँ	-15533
▁लाटी	-15534
▁लाती	-15535
▁लावे	-15536
▁सन्म	-15537
▁सोचे	-15538
▁हरिन	-15539
▁॥86॥	-15540
ब्दांश	-15541
▁अनूठी	-15542
▁उतथ्य	-15543
▁कूंडे	-15544
▁प्रणत	-15545
▁भागें	-15546
▁भेजती	-15547
▁भेदकर	-15548
▁मिलूँ	-15549
▁लाडला	-15550
▁लूँगी	-15551
▁समग्र	-15552
▁हंसते	-15553
▁हृष्ट	-15554
▁॥110॥	-15555
▁॥246॥	-15556
विपत्ति	-15557
स्ववासु	-15558
▁अजामिल	-15559
▁करिएगा	-15560
▁केंचुआ	-15561
▁गुणधाम	-15562
▁झरोखों	-15563
▁दुःखने	-15564
▁दुष्टा	-15565
▁नादरजी	-15566
▁निकलवा	-15567
▁बत्तीस	-15568
▁मिटाया	-15569
▁वर्गों	-15570
▁वैश्या	-15571
▁सुनाएँ	-15572
कान्तमणि	-15573
ब्राइड्स	-15574
▁अकुलाते	-15575
▁अभिजित्	-15576
▁अर्धांग	-15577
▁एंड्रयू	-15578
▁कुटिलपन	-15579
▁कैदियों	-15580
▁ड्योढ़े	-15581
▁बावलेपन	-15582
▁मोर्टार	-15583
▁वेदशिरा	-15584
▁शब्दांश	-15585
▁सम्हलकर	-15586
▁सम्हाला	-15587
▁सर्पदंश	-15588
▁सर्वांग	-15589
▁सहिदानी	-15590
▁सायुज्य	-15591
▁सिंगरौर	-15592
▁सिखलाती	-15593
▁सिखाएगा	-15594
▁सिफारिश	-15595
▁सीपियाँ	-15596
▁सुकृतों	-15597
▁सुचित्त	-15598
▁सुपुर्द	-15599
ाएँ	-15600
्बल	-15601
▁".	-15602
-॥12	-15603
थरों	-15604
फलने	-15605
भागी	-15606
विंग	-15607
सम्प	-15608
▁झड़	-15609
▁डफल	-15610
▁ढाँ	-15611
▁पीस	-15612
▁बहस	-15613
!॥2॥।	-15614
काटकर	-15615
विष्ट	-15616
▁गरजे	-15617
▁छड़ी	-15618
▁छूटा	-15619
▁दायक	-15620
▁दुवि	-15621
▁नवाज	-15622
▁पकते	-15623
▁फलता	-15624
▁बचना	-15625
▁बीती	-15626
▁योगि	-15627
▁लायी	-15628
▁सदाब	-15629
▁सौतन	-15630
▁॥101	-15631
द्वारा	-15632
▁अंगदा	-15633
▁कम्बल	-15634
▁घूमती	-15635
▁जनाकर	-15636
▁जन्मी	-15637
▁ढाँचा	-15638
▁ताककर	-15639
▁नरकों	-15640
▁बैठाए	-15641
▁भारों	-15642
▁महावत	-15643
▁मुड़ी	-15644
▁वनदेव	-15645
▁वेदवि	-15646
▁सहवास	-15647
▁साड़ी	-15648
▁सीरों	-15649
पत्थरों	-15650
सर्वनाम	-15651
▁कहारों	-15652
▁कामसुख	-15653
▁ड्रेगन	-15654
▁तड़पने	-15655
▁बनूँगा	-15656
▁मनोहार	-15657
▁महाकाल	-15658
▁मायाओं	-15659
▁लुभाने	-15660
▁शोभाओं	-15661
▁सहभागी	-15662
सम्पत्ति	-15663
▁अंगारों	-15664
▁कुरेदने	-15665
▁जन्तुओं	-15666
▁डफलियाँ	-15667
▁दुविधाम	-15668
▁महावतों	-15669
▁माणिक्य	-15670
▁वेदविधि	-15671
▁व्यायाम	-15672
▁सदाबहार	-15673
▁सुमिरते	-15674
▁सुराज्य	-15675
▁सुलक्षण	-15676
▁सुलझाया	-15677
▁सुशांति	-15678
▁सेक्रेड	-15679
▁सैनिकों	-15680
▁सोचरहित	-15681
▁सोलहवाँ	-15682
▁स्टैड्स	-15683
▁स्वजनों	-15684
▁स्वयंभू	-15685
▁स्वरूपा	-15686
▁स्वास्थ	-15687
▁स्विफ्ट	-15688
▁हंसगमनी	-15689
▁हतभाग्य	-15690
▁हास्यरस	-15691
▁हिंडोले	-15692
▁हिमराशि	-15693
▁हेल्मेन	-15694
▁।।112।।	-15695
▁।।115।।	-15696
▁‍हर्षित	-15697
▁‍िफरोजे	-15698
ंडरवर्ल्ड	-15699
52॥	-15700
tta	-15701
असल	-15702
इसल	-15703
घूम	-15704
चाव	-15705
मगध	-15706
।3॥	-15707
▁ऋक	-15708
गार्	-15709
छत्र	-15710
पलँग	-15711
िलित	-15712
्मात	-15713
▁tta	-15714
▁चरु	-15715
▁परस	-15716
▁रँग	-15717
?-॥2॥	-15718
इसलिए	-15719
कासुर	-15720
घूमते	-15721
ण्डलु	-15722
मुक्त	-15723
र्यों	-15724
लौटकर	-15725
िकाना	-15726
॥341॥	-15727
॥।52॥	-15728
▁?॥4॥	-15729
▁जलधि	-15730
▁ठोड़	-15731
[...]
