<unk>	0
<s>	0
</s>	0
[start]	0
[end]	0
[PAD]	0
[UNK]	0
<hi2>	0
▁स	-0
▁क	-1
▁ब	-2
▁प	-3
▁म	-4
हि	-5
▁न	-6
▁ज	-7
रा	-8
▁त	-9
▁अ	-10
्र	-11
▁भ	-12
▁द	-13
▁बि	-14
▁सु	-15
ान	-16
रि	-17
ति	-18
▁ग	-19
हिं	-20
नि	-21
ार	-22
हु	-23
▁प्र	-24
▁ह	-25
▁र	-26
▁ल	-27
▁रा	-28
न्	-29
नु	-30
▁च	-31
ही	-32
ाई	-33
▁नि	-34
▁कर	-35
▁आ	-36
॥1	-37
न्ह	-38
▁ध	-39
▁राम	-40
▁दे	-41
▁सब	-42
॥2	-43
▁उ	-44
▁कह	-45
▁सो	-46
ुनि	-47
्य	-48
▁सम	-49
॥3	-50
ता	-51
ाव	-52
4॥	-53
सु	-54
धि	-55
ना	-56
॥1॥	-57
॥2॥	-58
सि	-59
ाल	-60
॥3॥	-61
॥4॥	-62
हीं	-63
ें	-64
▁सि	-65
▁मो	-66
ित	-67
▁ना	-68
ुर	-69
▁जा	-70
ारी	-71
भु	-72
▁मन	-73
ंद	-74
ाना	-75
▁पर	-76
ाग	-77
हा	-78
ानी	-79
घु	-80
▁देख	-81
▁सक	-82
ुम	-83
▁सं	-84
हुँ	-85
सा	-86
▁की	-87
रु	-88
नी	-89
▁मा	-90
▁को	-91
▁रघु	-92
▁प्रभु	-93
▁ख	-94
उँ	-95
मि	-96
▁ते	-97
▁बा	-98
चन	-99
ुल	-100
बि	-101
▁हो	-102
री	-103
▁जो	-104
रत	-105
▁ए	-106
ृप	-107
▁का	-108
ुम्	-109
▁मुनि	-110
ंग	-111
▁अति	-112
हँ	-113
▁के	-114
ले	-115
पि	-116
▁करि	-117
ने	-118
वा	-119
▁तुम्	-120
▁छ	-121
▁पा	-122
ुन	-123
तु	-124
ुख	-125
मा	-126
▁सा	-127
▁सुख	-128
जा	-129
हित	-130
ूप	-131
▁बर	-132
ला	-133
▁जे	-134
▁तुम्ह	-135
ड़	-136
▁ता	-137
ीर	-138
▁सकल	-139
वन	-140
हू	-141
▁बिधि	-142
▁सी	-143
▁जान	-144
ती	-145
▁अस	-146
का	-147
▁सुनि	-148
▁फ	-149
▁बचन	-150
्रा	-151
▁भा	-152
यँ	-153
▁निज	-154
र्	-155
पति	-156
▁हर	-157
▁दी	-158
▁जि	-159
▁नहिं	-160
था	-161
ृद	-162
▁कि	-163
▁अनु	-164
▁बहु	-165
▁सुन	-166
लि	-167
▁सुर	-168
ैं	-169
▁पुनि	-170
ढ़	-171
▁कु	-172
रन	-173
ेउ	-174
▁बो	-175
धु	-176
▁अव	-177
या	-178
▁पद	-179
भा	-180
दा	-181
चि	-182
ावा	-183
▁मोहि	-184
ोक	-185
▁कृप	-186
▁कीन्ह	-187
टि	-188
▁बस	-189
▁से	-190
▁देखि	-191
श्र	-192
▁जन	-193
▁कहि	-194
▁भय	-195
सी	-196
▁बिस	-197
ौं	-198
प्र	-199
▁नर	-200
▁जग	-201
▁तब	-202
▁उर	-203
▁एक	-204
▁भरत	-205
जन	-206
▁सर	-207
ेम	-208
ंत	-209
्व	-210
▁घ	-211
▁दि	-212
▁बन	-213
छु	-214
जु	-215
▁गुन	-216
▁मैं	-217
▁कपि	-218
▁हरष	-219
्या	-220
▁धर	-221
दे	-222
▁भग	-223
जि	-224
▁लो	-225
5॥	-226
▁मु	-227
▁कछु	-228
▁बिल	-229
िय	-230
▁बे	-231
▁पु	-232
▁लाग	-233
खि	-234
▁श्र	-235
▁बिच	-236
ोर	-237
ारे	-238
न्हि	-239
ंड	-240
▁होइ	-241
कर	-242
▁परम	-243
▁हरि	-244
▁कै	-245
▁मि	-246
▁जनु	-247
ीति	-248
▁ति	-249
▁पू	-250
▁परि	-251
▁जाइ	-252
धा	-253
ानि	-254
▁उप	-255
▁हृद	-256
▁बै	-257
चर	-258
▁बल	-259
▁चले	-260
▁पाव	-261
हे	-262
मु	-263
▁दो	-264
रे	-265
▁दुख	-266
▁रघुब	-267
▁य	-268
▁बिनु	-269
▁चरन	-270
षा	-271
ारि	-272
▁सन	-273
▁भू	-274
▁सहित	-275
मल	-276
▁पुर	-277
पु	-278
कु	-279
यन	-280
▁इ	-281
िरि	-282
ंधु	-283
▁अप	-284
▁सने	-285
बा	-286
▁तेहि	-287
▁प्रेम	-288
▁अब	-289
गा	-290
▁दस	-291
▁सत	-292
ुझ	-293
▁गुर	-294
▁नृप	-295
▁समा	-296
ली	-297
▁बड़	-298
रित	-299
ठि	-300
▁सह	-301
▁जल	-302
ेत	-303
ाला	-304
॥5॥	-305
▁भाँ	-306
▁भए	-307
▁मम	-308
▁महि	-309
दि	-310
▁नाथ	-311
▁बिर	-312
गि	-313
मन	-314
▁बिलोक	-315
▁रि	-316
▁हित	-317
ाए	-318
▁अन	-319
▁धरि	-320
▁सोइ	-321
▁हृदयँ	-322
▁दा	-323
▁कृपा	-324
▁बानी	-325
▁जहँ	-326
▁प्रिय	-327
द्	-328
▁दु	-329
▁बार	-330
▁दीन्ह	-331
ाइ	-332
▁तो	-333
ते	-334
ाईं	-335
▁लख	-336
▁तहँ	-337
6॥	-338
▁आय	-339
दर	-340
कुल	-341
▁जी	-342
▁जिमि	-343
ंगल	-344
▁माहीं	-345
ंक	-346
▁भव	-347
्यान	-348
दित	-349
▁यह	-350
▁मातु	-351
▁रामु	-352
▁दू	-353
▁हम	-354
▁बिन	-355
कल	-356
ृत	-357
ंदर	-358
▁सेव	-359
▁आए	-360
च्	-361
्त	-362
▁भयउ	-363
▁समुझ	-364
्रह	-365
▁नाना	-366
▁प्रा	-367
▁करहिं	-368
▁तिन्ह	-369
सू	-370
षन	-371
▁मू	-372
▁सिय	-373
▁रघुपति	-374
▁गा	-375
▁जेहि	-376
▁नाहीं	-377
▁कथा	-378
▁भूप	-379
▁मोर	-380
▁सुभ	-381
▁कल	-382
▁भगति	-383
ीरा	-384
हहिं	-385
▁नयन	-386
▁मान	-387
गन	-388
राई	-389
▁जानि	-390
▁तात	-391
▁सुह	-392
▁जब	-393
खा	-394
▁सिर	-395
▁नारि	-396
▁ड	-397
ारा	-398
▁भाई	-399
▁भु	-400
बर	-401
बे	-402
सल	-403
▁अभ	-404
▁कहुँ	-405
▁भाँति	-406
छि	-407
ीं	-408
हाँ	-409
▁तन	-410
▁फल	-411
▁ले	-412
यउ	-413
▁मति	-414
कि	-415
▁नी	-416
7॥	-417
▁काल	-418
▁जु	-419
▁तव	-420
▁एहि	-421
▁जाई	-422
▁प्रीति	-423
गे	-424
▁सुनु	-425
ंध	-426
ष्	-427
▁बाल	-428
▁चित	-429
ंज	-430
▁चा	-431
यक	-432
▁रूप	-433
▁हि	-434
वत	-435
्म	-436
▁जौं	-437
जे	-438
गुन	-439
▁सिव	-440
▁बोले	-441
▁सुंदर	-442
मुख	-443
▁गिरि	-444
नाथ	-445
्वा	-446
▁जय	-447
▁संत	-448
ारु	-449
्रि	-450
▁अरु	-451
पा	-452
▁मृद	-453
च्छ	-454
यो	-455
▁करत	-456
▁तें	-457
▁कोटि	-458
▁बख	-459
ोह	-460
▁देव	-461
सर	-462
▁पाई	-463
▁माया	-464
▁बिह	-465
▁ब्रह	-466
▁मंगल	-467
मी	-468
▁बैठ	-469
▁राज	-470
▁सुत	-471
ाने	-472
▁होई	-473
▁निसि	-474
▁ली	-475
▁सुनत	-476
एँ	-477
हो	-478
ावहिं	-479
कट	-480
पट	-481
से	-482
▁सँ	-483
▁गति	-484
▁बिभ	-485
▁सेवक	-486
गम	-487
▁रह	-488
▁कहा	-489
▁कुल	-490
▁तनु	-491
▁मनु	-492
▁अनुरा	-493
गु	-494
▁कहँ	-495
▁सुज	-496
▁सुभा	-497
▁पि	-498
▁क्र	-499
▁दोउ	-500
▁कहहु	-501
▁बिकल	-502
▁रघुबीर	-503
▁चरित	-504
8॥	-505
सन	-506
▁मोह	-507
▁गो	-508
▁पाइ	-509
▁सबु	-510
▁मृदु	-511
▁सुनहु	-512
राम	-513
▁सप	-514
▁पित	-515
▁समेत	-516
▁रु	-517
▁बिलोकि	-518
के	-519
जू	-520
▁थ	-521
सुर	-522
▁ला	-523
▁सोच	-524
▁आयसु	-525
▁जानी	-526
▁जनि	-527
▁बेद	-528
▁भरि	-529
▁ब्या	-530
▁कहहिं	-531
▁ग्यान	-532
बस	-533
हत	-534
▁अवध	-535
▁मृ	-536
▁द्व	-537
▁महा	-538
▁सदा	-539
▁जेहिं	-540
िर	-541
।।	-542
जहिं	-543
▁कोउ	-544
▁प्रग	-545
▁प्रस	-546
▁चढ़	-547
▁धीर	-548
▁मुख	-549
▁बिप्र	-550
▁छा	-551
▁निर	-552
▁मनि	-553
न्य	-554
ानु	-555
▁कौ	-556
▁जिन्ह	-557
मय	-558
▁आन	-559
▁लखन	-560
▁सू	-561
गर	-562
सो	-563
▁खग	-564
▁सीता	-565
ोध	-566
▁दिन	-567
▁सोई	-568
▁जाना	-569
▁महुँ	-570
की	-571
▁नाम	-572
▁माग	-573
▁सुम	-574
▁सादर	-575
▁अंग	-576
▁पुल	-577
▁लोग	-578
9॥	-579
▁तजि	-580
▁सिख	-581
▁भारी	-582
▁प्रगट	-583
▁अम	-584
▁पुरा	-585
▁सनेह	-586
▁लोचन	-587
चित	-588
▁उत	-589
▁गृ	-590
▁अधि	-591
▁अभि	-592
▁काम	-593
▁जीव	-594
▁बंद	-595
▁पितु	-596
ताप	-597
र्म	-598
हाए	-599
▁संग	-600
▁सरि	-601
▁सुमि	-602
▁प्रान	-603
टा	-604
ारू	-605
▁बिनय	-606
▁रावन	-607
▁तेहिं	-608
▁ब्रह्म	-609
0॥	-610
▁सकु	-611
▁बिसे	-612
▁मुदित	-613
ेहु	-614
▁उठ	-615
▁खल	-616
▁बी	-617
▁कहत	-618
▁कें	-619
▁जनक	-620
▁जोग	-621
▁करहु	-622
▁सत्य	-623
दु	-624
॥6॥	-625
▁तुर	-626
▁धनु	-627
▁सुक	-628
▁मनहुँ	-629
पर	-630
द्ध	-631
ारद	-632
1॥	-633
3॥	-634
बु	-635
▁गन	-636
▁मृग	-637
▁सरा	-638
▁अधिक	-639
▁सिरु	-640
मान	-641
दन	-642
चिव	-643
▁पठ	-644
▁रो	-645
▁हा	-646
▁अने	-647
▁भाग	-648
▁प्रब	-649
▁बिरा	-650
▁स्वा	-651
2॥	-652
थि	-653
नत	-654
▁सील	-655
▁कहउँ	-656
बिध	-657
▁बहो	-658
▁बिष	-659
षि	-660
ालु	-661
▁भल	-662
▁गहि	-663
▁मंद	-664
▁रहे	-665
▁सहज	-666
▁नारी	-667
▁श्रु	-668
▁मर	-669
▁हे	-670
▁बिग	-671
▁भवन	-672
▁स्व	-673
▁हरषि	-674
ंस	-675
ारन	-676
▁अग	-677
▁आई	-678
▁चल	-679
▁बृ	-680
▁बान	-681
▁सीय	-682
कू	-683
ीस	-684
▁ठ	-685
धान	-686
पुर	-687
▁मे	-688
▁कमल	-689
▁धरम	-690
▁प्रना	-691
▁सुहाई	-692
▁कीन्हि	-693
▁श्रुति	-694
सें	-695
▁कब	-696
▁संभु	-697
▁सकुच	-698
▁सचिव	-699
छा	-700
ज्	-701
हउँ	-702
▁धा	-703
▁दीन	-704
▁राख	-705
▁लगि	-706
▁केहि	-707
▁त्रि	-708
▁पावा	-709
▁बंधु	-710
▁सुहाए	-711
▁होहिं	-712
▁कीन्हा	-713
▁तुम्हहि	-714
षी	-715
ोज	-716
रति	-717
ानन	-718
▁अज	-719
▁तर	-720
▁गयउ	-721
▁गृह	-722
▁संस	-723
▁जासु	-724
▁पहिं	-725
नीत	-726
ंच	-727
▁गए	-728
▁जस	-729
▁बहुत	-730
▁रुचि	-731
रथ	-732
ंगा	-733
ारथ	-734
िरा	-735
्री	-736
माना	-737
▁कुम	-738
▁मिल	-739
▁लोक	-740
▁कुसल	-741
न्न	-742
▁अघ	-743
▁पति	-744
▁भुज	-745
▁राउ	-746
▁देखी	-747
▁बिचारि	-748
तन	-749
▁छबि	-750
▁नगर	-751
▁बोल	-752
▁हनु	-753
▁कहेउ	-754
▁दिसि	-755
▁सबहि	-756
▁हियँ	-757
छिमन	-758
▁कपट	-759
▁सरी	-760
्राता	-761
▁परिह	-762
▁पुलक	-763
ीन	-764
कार	-765
▁भो	-766
▁दुर	-767
▁रामहि	-768
▁प्रताप	-769
थम	-770
र्ब	-771
▁अह	-772
▁निह	-773
▁देखा	-774
▁कृपाल	-775
▁निसिचर	-776
▁ने	-777
▁मार	-778
▁रिपु	-779
▁सोभा	-780
▁लीन्ह	-781
द्र	-782
हूँ	-783
▁भे	-784
▁रथ	-785
▁रस	-786
बिधि	-787
हारा	-788
▁लघु	-789
▁भालु	-790
▁मनोह	-791
दपि	-792
षाद	-793
ागी	-794
▁अध	-795
▁कट	-796
▁गु	-797
▁भइ	-798
▁आवा	-799
▁उमा	-800
▁कलि	-801
▁जुग	-802
▁सुग	-803
▁अनुज	-804
ागर	-805
▁सठ	-806
▁त्य	-807
▁सोह	-808
▁तासु	-809
▁बोला	-810
▁प्रति	-811
▁बखानी	-812
▁रघुना	-813
▁दर	-814
▁बु	-815
▁मध	-816
सुनि	-817
▁कहे	-818
▁भगव	-819
▁धर्म	-820
▁बहुरि	-821
▁रघुबर	-822
▁दीन्हा	-823
॥4	-824
▁झ	-825
कें	-826
ठिन	-827
▁नभ	-828
▁भर	-829
▁तोर	-830
▁अनेक	-831
▁बारि	-832
▁सुमन	-833
ंभ	-834
ैल	-835
ंजन	-836
ंतर	-837
▁आग	-838
▁लै	-839
कारी	-840
▁असि	-841
▁करिअ	-842
▁समाज	-843
▁सुखद	-844
▁जाहिं	-845
▁लछिमन	-846
▁सिंधु	-847
ऊँ	-848
ंका	-849
सुत	-850
▁तप	-851
▁नित	-852
▁कठिन	-853
▁सरिस	-854
▁व	-855
ावन	-856
्रम	-857
▁मद	-858
▁रज	-859
▁रन	-860
▁कृत	-861
▁तरु	-862
▁तीर	-863
▁बाँ	-864
▁मगन	-865
▁जियँ	-866
▁पावन	-867
▁लागे	-868
▁प्रथम	-869
▁मनोहर	-870
ीत	-871
ंदु	-872
॥7॥	-873
▁लि	-874
▁ग्य	-875
▁पंक	-876
▁पूँ	-877
▁मूल	-878
▁बरनि	-879
▁बिबे	-880
▁सुखु	-881
▁तुम्हार	-882
तब	-883
्ल	-884
ोरा	-885
▁जै	-886
▁भट	-887
वहिं	-888
ित्र	-889
▁करु	-890
▁गिरा	-891
▁निसा	-892
▁साधु	-893
▁सुना	-894
▁हेतु	-895
▁रघुनाथ	-896
▁रघुराई	-897
मो	-898
षु	-899
▁गय	-900
▁सय	-901
ंत्र	-902
▁कवन	-903
▁बिप	-904
▁बिभी	-905
▁मोही	-906
▁समुझि	-907
चा	-908
▁ओ	-909
टिल	-910
तुर	-911
द्य	-912
॥11	-913
▁तोहि	-914
▁बिमल	-915
▁कृपानि	-916
▁बिसेषी	-917
हन	-918
॥10	-919
▁परा	-920
▁भगत	-921
प्रेम	-922
▁चारि	-923
▁तुरत	-924
▁त्रा	-925
▁फिरि	-926
▁बड़ाई	-927
▁समाना	-928
▁ट	-929
रूप	-930
्ति	-931
▁मग	-932
▁चाप	-933
▁पहि	-934
▁रबि	-935
▁लखि	-936
▁ससि	-937
▁सीस	-938
▁नीति	-939
▁मिलि	-940
▁सगुन	-941
अस	-942
ोच	-943
्तु	-944
▁पट	-945
न्ही	-946
पुनि	-947
▁देइ	-948
▁बरु	-949
▁जोरि	-950
▁भूमि	-951
▁लखनु	-952
▁लागि	-953
▁बिबिध	-954
धर	-955
राज	-956
▁चह	-957
▁करइ	-958
▁भाव	-959
▁समय	-960
▁ताहि	-961
▁श्री	-962
▁संकर	-963
▁भवानी	-964
▁मोरें	-965
▁भ्राता	-966
गी	-967
जो	-968
ुष	-969
॥5	-970
रें	-971
लोक	-972
ीना	-973
▁मत	-974
▁लह	-975
श्रम	-976
श्रा	-977
▁करा	-978
▁नाइ	-979
▁बरा	-980
▁अवसर	-981
▁सुधा	-982
▁हृदय	-983
▁कबहुँ	-984
▁क्रोध	-985
ंता	-986
मनि	-987
वंत	-988
ष्ट	-989
ागा	-990
▁आइ	-991
▁चक	-992
▁बू	-993
▁उठि	-994
▁कोई	-995
▁दंड	-996
▁बरष	-997
▁सभा	-998
▁समर	-999
▁कारन	-1000
▁धन्य	-1001
▁निकट	-1002
▁निर्	-1003
▁पंकज	-1004
▁बृंद	-1005
▁स्या	-1006
▁मुनिबर	-1007
बल	-1008
भय	-1009
ंचि	-1010
▁अबि	-1011
▁जड़	-1012
▁तुल	-1013
▁परस	-1014
▁बसि	-1015
▁बात	-1016
▁रति	-1017
▁द्वि	-1018
▁भूषन	-1019
▁सागर	-1020
▁कुटिल	-1021
▁श्रवन	-1022
लक	-1023
▁आप	-1024
▁रच	-1025
द्धि	-1026
▁आजु	-1027
▁जनम	-1028
▁धाए	-1029
▁बीर	-1030
सिंधु	-1031
▁देखत	-1032
▁पूँछ	-1033
▁भ्रम	-1034
ंथ	-1035
गत	-1036
ूल	-1037
॥6	-1038
्यो	-1039
▁आव	-1040
▁ठा	-1041
▁दल	-1042
▁कबि	-1043
▁किए	-1044
▁धाम	-1045
▁बरन	-1046
▁अंगद	-1047
▁नारद	-1048
▁भरतु	-1049
▁करुना	-1050
▁पुनीत	-1051
▁गावहिं	-1052
जी	-1053
॥8	-1054
पाल	-1055
▁कठ	-1056
▁छो	-1057
▁ताप	-1058
▁देह	-1059
▁फिर	-1060
▁काहू	-1061
▁बेगि	-1062
▁द्विज	-1063
▁निसाचर	-1064
▁बिरंचि	-1065
▁सुग्री	-1066
॥9	-1067
भरत	-1068
सरि	-1069
▁जप	-1070
▁तौ	-1071
▁हँ	-1072
▁लगे	-1073
▁अनूप	-1074
▁असीस	-1075
▁कौतु	-1076
▁जोरी	-1077
▁देखे	-1078
▁पिता	-1079
▁संसय	-1080
▁समान	-1081
▁जाहीं	-1082
▁रुचिर	-1083
ोष	-1084
▁ई	-1085
ीती	-1086
॥12	-1087
▁गज	-1088
▁तम	-1089
▁जथा	-1090
▁पाल	-1091
▁देहु	-1092
▁बोलि	-1093
▁रानी	-1094
▁सपने	-1095
▁बिपुल	-1096
▁होइहि	-1097
▁दीन्हि	-1098
▁सप्रेम	-1099
करि	-1100
नित	-1101
न्म	-1102
ोरी	-1103
ज्जन	-1104
धाना	-1105
▁आपु	-1106
▁मही	-1107
▁संद	-1108
▁सखा	-1109
▁सीत	-1110
▁सैल	-1111
▁किमि	-1112
▁दसरथ	-1113
▁प्रे	-1114
▁बैदे	-1115
▁श्रम	-1116
▁सर्ब	-1117
▁सुभट	-1118
▁पुरान	-1119
▁बिस्व	-1120
▁भाँती	-1121
▁ग्यानी	-1122
अँ	-1123
टप	-1124
वस	-1125
ेस	-1126
▁रत	-1127
रहिं	-1128
▁रिस	-1129
▁सहस	-1130
▁सोक	-1131
प्रभु	-1132
▁करनी	-1133
▁जहाँ	-1134
▁तोही	-1135
▁बंदि	-1136
▁मोरि	-1137
▁सुचि	-1138
▁अपारा	-1139
▁निहारी	-1140
▁सुग्रीव	-1141
दी	-1142
चार	-1143
▁गौ	-1144
▁नव	-1145
▁बध	-1146
देखि	-1147
साईं	-1148
▁उपा	-1149
▁कही	-1150
▁जसु	-1151
▁दोष	-1152
▁ब्य	-1153
▁भें	-1154
▁महँ	-1155
▁अमित	-1156
▁सुभग	-1157
▁देहिं	-1158
▁प्रभा	-1159
▁बहोरि	-1160
▁महिमा	-1161
▁सुभाऊ	-1162
तक	-1163
पी	-1164
ूट	-1165
ग्य	-1166
वनु	-1167
▁कत	-1168
▁घर	-1169
▁बच	-1170
▁द्र	-1171
▁पवन	-1172
▁पार	-1173
▁बसन	-1174
▁भयऊ	-1175
▁समी	-1176
▁साँ	-1177
▁छाड़	-1178
▁बनाई	-1179
▁बिटप	-1180
▁मधुर	-1181
▁लागी	-1182
▁सुधि	-1183
▁करहीं	-1184
▁जानकी	-1185
▁गोसाईं	-1186
▁बिचारी	-1187
▁सुमिरि	-1188
मत	-1189
्प	-1190
▁ढ	-1191
ेता	-1192
▁कं	-1193
▁कन	-1194
▁फि	-1195
▁भज	-1196
मुनि	-1197
▁जात	-1198
▁निस	-1199
▁बिला	-1200
▁आश्रम	-1201
▁सुनाई	-1202
▁कीन्हे	-1203
▁बिभीषन	-1204
▁बैदेही	-1205
▁रघुनायक	-1206
ंब	-1207
फल	-1208
भव	-1209
म्	-1210
कुम	-1211
गुर	-1212
▁घन	-1213
▁चि	-1214
▁तज	-1215
▁तृ	-1216
मानी	-1217
▁चलि	-1218
▁नाई	-1219
▁मधु	-1220
▁महे	-1221
▁लाई	-1222
▁आगें	-1223
▁इहाँ	-1224
▁करउँ	-1225
▁चलेउ	-1226
▁जन्म	-1227
▁धुनि	-1228
▁बारी	-1229
▁बैठे	-1230
▁बहोरी	-1231
▁बिदित	-1232
▁बिनती	-1233
▁बिबेक	-1234
▁रघुरा	-1235
▁सनेहु	-1236
▁सपनेहुँ	-1237
▁ऐ	-1238
त्र	-1239
ोचन	-1240
ानंद	-1241
▁करम	-1242
▁दूत	-1243
▁बाम	-1244
▁लोभ	-1245
▁सती	-1246
▁अंतर	-1247
▁चढ़ि	-1248
▁मुसु	-1249
▁हरषे	-1250
▁प्रसा	-1251
▁प्रभुहि	-1252
▁प्रसन्न	-1253
ईं	-1254
चल	-1255
लु	-1256
ंधर	-1257
जौं	-1258
नीं	-1259
ावत	-1260
ेनु	-1261
▁दृ	-1262
हारि	-1263
▁उछा	-1264
▁गात	-1265
▁करौं	-1266
▁निकर	-1267
▁समीप	-1268
▁कौतुक	-1269
▁बिचार	-1270
▁बिमुख	-1271
▁सुनहिं	-1272
ताई	-1273
्रत	-1274
▁उद	-1275
▁सज	-1276
ुम्ह	-1277
्राम	-1278
▁आवत	-1279
▁कहइ	-1280
▁गाई	-1281
▁तेज	-1282
▁बना	-1283
▁बेष	-1284
▁इन्ह	-1285
▁चारु	-1286
▁तहाँ	-1287
▁दुखु	-1288
▁मुनी	-1289
▁तुलसी	-1290
▁निरखि	-1291
▁प्रकार	-1292
▁सुमंगल	-1293
▁स्वामी	-1294
सह	-1295
▁पै	-1296
▁अहि	-1297
▁काह	-1298
▁गगन	-1299
▁दसा	-1300
▁दास	-1301
▁मर्	-1302
तुम्ह	-1303
▁निवा	-1304
▁बड़ि	-1305
▁बोली	-1306
▁माता	-1307
▁राजा	-1308
▁जैसें	-1309
▁धीरजु	-1310
▁मंदिर	-1311
▁सिद्ध	-1312
▁सुभाउ	-1313
▁कपिन्ह	-1314
▁पावहिं	-1315
▁रघुकुल	-1316
तुल	-1317
देव	-1318
पिन	-1319
्मा	-1320
▁कस	-1321
▁पन	-1322
▁बय	-1323
▁भृ	-1324
▁अका	-1325
▁त्र	-1326
▁सेन	-1327
▁चारी	-1328
▁निगम	-1329
▁परेउ	-1330
▁बारा	-1331
▁मोरा	-1332
▁सरीर	-1333
▁सेवा	-1334
▁पाहीं	-1335
▁बिपिन	-1336
▁बिसाल	-1337
▁परिहरि	-1338
▁तिन्हहि	-1339
▁प्रनामु	-1340
टु	-1341
षे	-1342
एहि	-1343
॥8॥	-1344
▁इव	-1345
ाहीं	-1346
▁अधम	-1347
▁करन	-1348
▁काज	-1349
▁बढ़	-1350
▁बूझ	-1351
द्यपि	-1352
प्रिय	-1353
▁उचित	-1354
▁तदपि	-1355
▁तापस	-1356
▁तेही	-1357
▁नाईं	-1358
▁बालक	-1359
▁बालि	-1360
▁मनुज	-1361
▁मोरी	-1362
▁तोरें	-1363
▁प्रका	-1364
▁बिषाद	-1365
▁अनुरागा	-1366
कह	-1367
पू	-1368
सब	-1369
हाइ	-1370
▁फे	-1371
▁आरत	-1372
▁कनक	-1373
▁गयऊ	-1374
▁घोर	-1375
▁चंद	-1376
▁दसक	-1377
▁दुइ	-1378
▁परे	-1379
▁पाय	-1380
▁भाइ	-1381
▁लिए	-1382
▁साध	-1383
▁अकुल	-1384
▁दृढ़	-1385
▁प्रच	-1386
▁बाढ़	-1387
▁भानु	-1388
▁भेंट	-1389
▁माना	-1390
▁मारा	-1391
▁मुकु	-1392
▁राखि	-1393
▁सरोज	-1394
▁त्याग	-1395
▁प्रनत	-1396
▁सकहिं	-1397
▁सुजान	-1398
▁बिसाला	-1399
▁बिचित्र	-1400
को	-1401
खे	-1402
▁श	-1403
रीं	-1404
▁घा	-1405
▁भि	-1406
▁सख	-1407
▁अनल	-1408
▁कहु	-1409
▁काऊ	-1410
▁दरस	-1411
▁नाग	-1412
▁बुझ	-1413
▁रहा	-1414
▁सँव	-1415
▁सकइ	-1416
▁सरल	-1417
▁कोसल	-1418
▁गुरु	-1419
▁तीरथ	-1420
▁पूजा	-1421
▁बानर	-1422
▁ममता	-1423
▁मारे	-1424
▁मूढ़	-1425
▁परिजन	-1426
▁सुजसु	-1427
▁अनुराग	-1428
▁स्वामि	-1429
▁तुम्हारा	-1430
अत	-1431
हरि	-1432
ेतू	-1433
▁उम	-1434
▁गे	-1435
▁चर	-1436
▁जू	-1437
▁धन	-1438
राचर	-1439
ष्टि	-1440
▁अनी	-1441
▁उड़	-1442
▁दीख	-1443
▁पंथ	-1444
▁फलु	-1445
▁बास	-1446
▁महत	-1447
▁लाइ	-1448
▁सुल	-1449
▁एहिं	-1450
▁कानन	-1451
▁पानी	-1452
▁बरनी	-1453
▁बिरह	-1454
▁बिषय	-1455
▁मानस	-1456
▁सबही	-1457
▁हनुम	-1458
▁पुरुष	-1459
▁प्रबल	-1460
▁बखाना	-1461
▁बिपति	-1462
▁भूपति	-1463
▁मानहुँ	-1464
▁ब्याकुल	-1465
▁कृपासिंधु	-1466
भू	-1467
सम	-1468
ंदा	-1469
अति	-1470
स्त	-1471
हिअ	-1472
्लभ	-1473
▁खे	-1474
▁ती	-1475
▁बज	-1476
चरित	-1477
निधि	-1478
▁कलप	-1479
▁कोऊ	-1480
▁गर्	-1481
▁दार	-1482
▁पूछ	-1483
▁समु	-1484
▁उपदे	-1485
▁दिवस	-1486
▁पहिच	-1487
▁पानि	-1488
▁बिदे	-1489
▁बिधु	-1490
▁बिबा	-1491
▁बियो	-1492
▁लागा	-1493
▁संदे	-1494
▁कृपाँ	-1495
▁दसानन	-1496
▁संपति	-1497
▁सरीरा	-1498
▁गिरिजा	-1499
▁भगवाना	-1500
▁महतारी	-1501
▁सुजाना	-1502
॥7	-1503
ंबु	-1504
दाई	-1505
▁कू	-1506
▁छन	-1507
▁छल	-1508
▁चली	-1509
▁जगु	-1510
▁तैं	-1511
▁पाप	-1512
▁मिट	-1513
▁सखि	-1514
सल्या	-1515
▁कुअँ	-1516
▁जीवन	-1517
▁ठाढ़	-1518
▁नावा	-1519
▁रिषि	-1520
▁लंका	-1521
▁जद्यपि	-1522
▁जानहिं	-1523
▁प्रसाद	-1524
ची	-1525
धी	-1526
सक	-1527
हर	-1528
ोद	-1529
मति	-1530
वनि	-1531
संग	-1532
सील	-1533
▁कृ	-1534
▁नख	-1535
▁मल	-1536
▁आसि	-1537
▁करै	-1538
▁केव	-1539
▁कोस	-1540
▁चला	-1541
▁तृन	-1542
▁पाए	-1543
▁बदन	-1544
▁बरि	-1545
▁सुब	-1546
▁हिम	-1547
▁अवधि	-1548
▁काना	-1549
▁कुलि	-1550
▁जाने	-1551
▁दूषन	-1552
▁पावक	-1553
▁बाजि	-1554
▁बिगत	-1555
▁बिबस	-1556
▁ब्रत	-1557
▁संतत	-1558
▁सुकृत	-1559
▁बिश्रा	-1560
▁हनुमाना	-1561
जनु	-1562
जाइ	-1563
बहु	-1564
▁गह	-1565
▁चौ	-1566
▁जम	-1567
▁पय	-1568
▁बह	-1569
▁रे	-1570
▁वि	-1571
▁सभ	-1572
तेहि	-1573
नीता	-1574
सारा	-1575
सुता	-1576
ोरें	-1577
▁गान	-1578
▁छाए	-1579
▁दान	-1580
▁नील	-1581
▁मंड	-1582
▁स्र	-1583
मुदित	-1584
▁अपरा	-1585
▁कर्म	-1586
▁गाता	-1587
▁चतुर	-1588
▁जननी	-1589
▁बिदा	-1590
▁बिधा	-1591
▁मनोर	-1592
▁राजु	-1593
▁सिसु	-1594
▁सुखी	-1595
▁हमार	-1596
▁अनुकू	-1597
▁कैसें	-1598
▁दारुन	-1599
▁निषाद	-1600
▁पुन्य	-1601
▁प्रजा	-1602
▁बिरति	-1603
▁बोलाए	-1604
▁सनेहँ	-1605
▁समाजा	-1606
▁समाजू	-1607
▁समेता	-1608
▁सुखदा	-1609
▁हरषित	-1610
▁अधिकाई	-1611
▁कृपाला	-1612
▁प्रचंड	-1613
▁बिलोचन	-1614
▁बिस्वा	-1615
▁सुरसरि	-1616
▁सेवकाई	-1617
▁ब्रह्मा	-1618
एक	-1619
सत	-1620
तनु	-1621
धाए	-1622
रघु	-1623
वाँ	-1624
॥14	-1625
▁ईस	-1626
▁जर	-1627
▁डर	-1628
मिनि	-1629
वाना	-1630
▁रुख	-1631
▁साथ	-1632
्तुति	-1633
▁काला	-1634
▁क्रम	-1635
▁जाति	-1636
▁द्वौ	-1637
▁बिभू	-1638
▁मिले	-1639
▁सोचु	-1640
▁परिहर	-1641
▁बिराग	-1642
▁बिहसि	-1643
▁मनोरथ	-1644
▁स्याम	-1645
▁सुमिरत	-1646
▁प्रभुताई	-1647
चक	-1648
जत	-1649
दय	-1650
क्त	-1651
छें	-1652
जिअ	-1653
तात	-1654
दिक	-1655
नुज	-1656
ालि	-1657
िया	-1658
ुरु	-1659
▁अँ	-1660
▁अल	-1661
▁खो	-1662
▁पल	-1663
▁भई	-1664
▁अगम	-1665
▁कले	-1666
▁गरु	-1667
▁ग्र	-1668
▁चलत	-1669
▁जगत	-1670
▁होत	-1671
्याना	-1672
▁तिलक	-1673
▁दससी	-1674
▁दुर्	-1675
▁बाता	-1676
▁बाहु	-1677
▁महेस	-1678
▁मानी	-1679
▁मारि	-1680
▁मारु	-1681
▁सरित	-1682
▁सायक	-1683
▁सारद	-1684
▁सीलु	-1685
▁हमहि	-1686
▁अनूपा	-1687
▁कतहुँ	-1688
▁कहहीं	-1689
▁छाड़ि	-1690
▁बिरोध	-1691
▁मुसुक	-1692
▁सज्जन	-1693
▁दुर्लभ	-1694
▁प्रनाम	-1695
▁प्रेमु	-1696
▁बरषहिं	-1697
▁बारहिं	-1698
▁सुखारी	-1699
▁सुहावा	-1700
▁बहुबिधि	-1701
तर	-1702
धू	-1703
ोल	-1704
ंजु	-1705
तरु	-1706
दंड	-1707
देख	-1708
बुध	-1709
मंद	-1710
िनि	-1711
ेसि	-1712
ोही	-1713
॥23	-1714
▁गर	-1715
▁धू	-1716
▁आनि	-1717
▁उदा	-1718
▁जुब	-1719
▁मली	-1720
▁सार	-1721
ावहीं	-1722
▁काजु	-1723
▁जाहि	-1724
▁धरनी	-1725
▁धरें	-1726
▁परिव	-1727
▁भंजन	-1728
▁भावा	-1729
▁मंजु	-1730
▁उछाहू	-1731
▁कीरति	-1732
▁ब्याप	-1733
▁भरतहि	-1734
▁समाजु	-1735
▁सयानी	-1736
▁बिधाता	-1737
▁बुद्धि	-1738
▁अनुरागे	-1739
ंघ	-1740
ंठ	-1741
अब	-1742
चे	-1743
वँ	-1744
्न	-1745
काल	-1746
निज	-1747
बार	-1748
रुह	-1749
ाली	-1750
▁छु	-1751
▁बद	-1752
▁भै	-1753
▁यो	-1754
सहिं	-1755
ानुज	-1756
▁आनी	-1757
▁आपन	-1758
▁काट	-1759
▁कुठ	-1760
▁कैक	-1761
▁खगे	-1762
▁गहे	-1763
▁घने	-1764
▁देत	-1765
▁नीच	-1766
▁पिय	-1767
▁भोग	-1768
▁हमा	-1769
▁हाथ	-1770
न्मुख	-1771
▁अतुल	-1772
▁कहाँ	-1773
▁जननि	-1774
▁दुसह	-1775
▁धेनु	-1776
▁पुंज	-1777
▁बिष्	-1778
▁भुवन	-1779
▁मरमु	-1780
▁रहित	-1781
▁सुंद	-1782
▁सोहा	-1783
▁अवगुन	-1784
▁त्रास	-1785
▁देहीं	-1786
▁बिनीत	-1787
▁प्रभाउ	-1788
▁प्रीती	-1789
▁स्वारथ	-1790
▁अस्तुति	-1791
▁कौसल्या	-1792
▁रघुबीरा	-1793
ोधा	-1794
॥13	-1795
॥15	-1796
॥17	-1797
॥19	-1798
॥29	-1799
▁खर	-1800
▁सृ	-1801
वारा	-1802
▁आयउ	-1803
▁तेइ	-1804
▁दोऊ	-1805
▁धुर	-1806
▁नमा	-1807
▁परी	-1808
▁पिआ	-1809
▁बलि	-1810
▁बिद	-1811
▁बुध	-1812
▁भरो	-1813
▁राऊ	-1814
▁सयन	-1815
▁सरन	-1816
▁असुर	-1817
▁उपजा	-1818
▁कठोर	-1819
▁किएँ	-1820
▁दाया	-1821
▁दुरा	-1822
▁नासा	-1823
▁प्रभ	-1824
▁राखा	-1825
▁सासु	-1826
▁सीसा	-1827
▁हँसि	-1828
▁अगनित	-1829
▁कुलिस	-1830
▁जाकें	-1831
▁परसपर	-1832
▁प्रती	-1833
▁बिबुध	-1834
▁बोलाई	-1835
▁मंत्र	-1836
▁त्यागी	-1837
▁दसकंधर	-1838
▁परमारथ	-1839
▁बिष्नु	-1840
▁त्रिबिध	-1841
▁रघुनाथा	-1842
ंकर	-1843
इहि	-1844
कहि	-1845
कृत	-1846
चले	-1847
ूला	-1848
॥30	-1849
▁अक	-1850
▁दय	-1851
▁पग	-1852
▁पी	-1853
▁सच	-1854
ंजुल	-1855
ंद्र	-1856
अहिं	-1857
चहिं	-1858
च्छा	-1859
जामी	-1860
मानि	-1861
रारी	-1862
▁अना	-1863
▁अमि	-1864
▁कंद	-1865
▁जतन	-1866
▁पाँ	-1867
▁पान	-1868
▁रही	-1869
▁संप	-1870
▁सभय	-1871
तिन्ह	-1872
▁अरुन	-1873
▁आसिष	-1874
▁उठाइ	-1875
▁कहिअ	-1876
▁चहुँ	-1877
▁चितव	-1878
▁धरनि	-1879
▁नरना	-1880
▁भाषा	-1881
▁मारी	-1882
▁रामा	-1883
▁हरषु	-1884
▁अवलोक	-1885
▁चित्र	-1886
▁दंडवत	-1887
▁दीनदय	-1888
▁बोलेउ	-1889
▁मूरति	-1890
▁दीन्हे	-1891
▁दुखारी	-1892
▁पुराना	-1893
▁सुरन्ह	-1894
▁बिग्यान	-1895
▁हितकारी	-1896
▁अंतरजामी	-1897
जय	-1898
मे	-1899
कथा	-1900
मैं	-1901
मोह	-1902
वने	-1903
सकल	-1904
ूढ़	-1905
ेरा	-1906
॥16	-1907
॥18	-1908
॥20	-1909
▁कप	-1910
▁गी	-1911
▁हय	-1912
ग्रह	-1913
माया	-1914
ावनि	-1915
▁आना	-1916
▁आसन	-1917
▁गौर	-1918
▁जाम	-1919
▁दिए	-1920
▁पछि	-1921
▁भजन	-1922
▁भार	-1923
▁सँग	-1924
▁सोउ	-1925
▁कछुक	-1926
▁जदपि	-1927
▁जाहु	-1928
▁जीति	-1929
▁जुगल	-1930
▁तोरा	-1931
▁धनुष	-1932
▁पहुँ	-1933
▁फिरे	-1934
▁मध्य	-1935
▁माथा	-1936
▁रानि	-1937
▁हारी	-1938
▁होहु	-1939
▁अनेका	-1940
▁नृपहि	-1941
▁बंदउँ	-1942
▁बसहिं	-1943
▁बियोग	-1944
▁मुनीस	-1945
▁सनेहू	-1946
▁सिधाए	-1947
▁देखहिं	-1948
▁पवनसुत	-1949
▁प्रिया	-1950
▁बिसेषा	-1951
▁रघुबंस	-1952
▁सुभायँ	-1953
▁सर्बग्य	-1954
खी	-1955
टी	-1956
तो	-1957
नर	-1958
भि	-1959
मस	-1960
सय	-1961
खंड	-1962
छित	-1963
नंद	-1964
बीर	-1965
मिष	-1966
यसु	-1967
लिन	-1968
हार	-1969
हीन	-1970
ोरे	-1971
॥21	-1972
॥22	-1973
॥28	-1974
॥31	-1975
▁गई	-1976
▁ची	-1977
▁नस	-1978
▁मी	-1979
धीरा	-1980
सुनत	-1981
हारी	-1982
▁उपज	-1983
▁कंज	-1984
▁कीस	-1985
▁कोप	-1986
▁खंड	-1987
▁छाँ	-1988
▁छूट	-1989
▁जोई	-1990
▁तनय	-1991
▁नीर	-1992
▁पेम	-1993
▁भाए	-1994
▁भेद	-1995
▁मरन	-1996
▁मरा	-1997
▁सपथ	-1998
न्हीं	-1999
श्राप	-2000
▁कौसि	-2001
▁जाउँ	-2002
▁जानइ	-2003
▁जानत	-2004
▁दूरि	-2005
▁देउँ	-2006
▁देवा	-2007
▁बरनत	-2008
▁बीरा	-2009
▁मानि	-2010
▁मूला	-2011
▁राती	-2012
▁कठोरा	-2013
▁ग्राम	-2014
▁दिनकर	-2015
▁निधान	-2016
▁पावनि	-2017
▁रहहिं	-2018
▁सीतहि	-2019
▁कीन्ही	-2020
▁दीन्ही	-2021
▁निरंतर	-2022
▁बिचारा	-2023
▁मुनिहि	-2024
▁सन्मुख	-2025
▁हनुमंत	-2026
कौ	-2027
टक	-2028
पन	-2029
यह	-2030
रो	-2031
करन	-2032
नाद	-2033
नाम	-2034
बिद	-2035
भूप	-2036
मित	-2037
रात	-2038
ष्ठ	-2039
सुन	-2040
हास	-2041
हिन	-2042
॥32	-2043
॥9॥	-2044
▁आस	-2045
▁खा	-2046
▁तु	-2047
▁थल	-2048
▁दै	-2049
▁पख	-2050
▁लग	-2051
क्ति	-2052
तारा	-2053
प्रद	-2054
मोहि	-2055
ावहु	-2056
▁अचल	-2057
▁आजू	-2058
▁कटक	-2059
▁कुस	-2060
▁कृस	-2061
▁गएँ	-2062
▁चहत	-2063
▁जलु	-2064
▁जसि	-2065
▁जोइ	-2066
▁पयो	-2067
▁बनु	-2068
▁बाज	-2069
▁माझ	-2070
▁रमा	-2071
▁रहि	-2072
▁सरो	-2073
▁हठि	-2074
▁हीन	-2075
▁अपार	-2076
▁गवनु	-2077
▁जग्य	-2078
▁ताता	-2079
▁तीनि	-2080
▁देखन	-2081
▁परसु	-2082
▁पारा	-2083
▁बिषा	-2084
▁भयउँ	-2085
▁रजनी	-2086
▁रीति	-2087
▁सभाँ	-2088
▁सुठि	-2089
▁सुलभ	-2090
▁कुमति	-2091
▁चराचर	-2092
▁निसान	-2093
▁पछिता	-2094
▁पुरजन	-2095
▁मर्कट	-2096
▁सुमति	-2097
▁अनुचित	-2098
▁अवधपुर	-2099
▁समाचार	-2100
▁समुदाई	-2101
▁अनुरागी	-2102
▁प्रतीति	-2103
▁सुमंत्र	-2104
▁तुम्हारे	-2105
नय	-2106
बी	-2107
भग	-2108
ुध	-2109
ंतु	-2110
कूट	-2111
पंच	-2112
वउँ	-2113
वान	-2114
षनु	-2115
हाई	-2116
्वर	-2117
॥24	-2118
॥25	-2119
॥26	-2120
॥27	-2121
▁अर	-2122
▁आँ	-2123
▁कइ	-2124
▁पथ	-2125
▁मख	-2126
▁रू	-2127
▁लव	-2128
▁हठ	-2129
धारी	-2130
निवा	-2131
ारीं	-2132
▁अपर	-2133
▁अमर	-2134
▁आदर	-2135
▁इति	-2136
▁उरग	-2137
▁कटि	-2138
▁करब	-2139
▁काग	-2140
▁कुच	-2141
▁जटा	-2142
▁निक	-2143
▁नेम	-2144
▁मज्	-2145
▁रचि	-2146
▁सर्	-2147
▁सहा	-2148
▁सहि	-2149
सिन्ह	-2150
▁उपाई	-2151
▁कराल	-2152
▁कुंभ	-2153
▁केरी	-2154
▁खगेस	-2155
▁खानी	-2156
▁छाती	-2157
▁ताते	-2158
▁ताही	-2159
▁दच्छ	-2160
▁दनुज	-2161
▁धरमु	-2162
▁धारी	-2163
▁बरात	-2164
▁बसहु	-2165
▁बिषम	-2166
▁संगा	-2167
▁सखीं	-2168
▁सानी	-2169
▁सेतु	-2170
▁अनुसा	-2171
▁केहरि	-2172
▁कोसला	-2173
▁गरुड़	-2174
▁पाछें	-2175
▁भजहिं	-2176
▁सुनिअ	-2177
▁हमारा	-2178
▁प्राना	-2179
▁बसिष्ठ	-2180
▁बिबिधि	-2181
▁लीन्हा	-2182
▁कृपानिधि	-2183
▁तुम्हारी	-2184
इँ	-2185
इअ	-2186
तल	-2187
दं	-2188
बन	-2189
वि	-2190
▁7	-2191
▁ऊ	-2192
ंदक	-2193
जुग	-2194
ड़े	-2195
थिल	-2196
धाम	-2197
धिर	-2198
नाई	-2199
ब्य	-2200
▁गल	-2201
▁दम	-2202
▁नै	-2203
▁पे	-2204
▁रख	-2205
▁सद	-2206
केता	-2207
गिरि	-2208
चारी	-2209
त्रि	-2210
पहिं	-2211
बासी	-2212
भागी	-2213
▁अंक	-2214
▁कहब	-2215
▁किन	-2216
▁खोज	-2217
▁गीध	-2218
▁नरक	-2219
▁पंच	-2220
▁पठए	-2221
▁फूल	-2222
▁माथ	-2223
▁यहु	-2224
▁सजल	-2225
▁सरद	-2226
▁सोऊ	-2227
▁होउ	-2228
▁कहौं	-2229
▁जोगु	-2230
▁तजहु	-2231
▁तिमि	-2232
▁धावा	-2233
▁धीरा	-2234
▁निका	-2235
▁निपट	-2236
▁बचनु	-2237
▁बाँध	-2238
▁बिकट	-2239
▁बैठि	-2240
▁भुजा	-2241
▁मिलन	-2242
▁मोहा	-2243
▁रचना	-2244
▁ससुर	-2245
▁सुने	-2246
कुमारी	-2247
▁ध्यान	-2248
▁बिहाई	-2249
▁श्राप	-2250
▁संपदा	-2251
▁सुनाए	-2252
▁बिलोकत	-2253
▁बैठारे	-2254
▁अनुग्रह	-2255
▁अभिमानी	-2256
▁प्रनामा	-2257
▁रघुराया	-2258
▁समुझावा	-2259
▁प्रमुदित	-2260
▁कृपानिधाना	-2261
अन	-2262
दस	-2263
ोप	-2264
▁।	-2265
ंति	-2266
दास	-2267
धीर	-2268
नें	-2269
पुन	-2270
लेस	-2271
सेव	-2272
ृति	-2273
ोरि	-2274
▁कम	-2275
▁झू	-2276
▁नल	-2277
▁फर	-2278
▁मय	-2279
▁लल	-2280
▁हत	-2281
कारा	-2282
नायक	-2283
राजा	-2284
राजू	-2285
रिषि	-2286
वारे	-2287
▁अंत	-2288
▁अगा	-2289
▁अवत	-2290
▁उभय	-2291
▁कहै	-2292
▁कान	-2293
▁किं	-2294
▁खेल	-2295
▁जाग	-2296
▁तड़	-2297
▁दसन	-2298
▁दीप	-2299
▁परन	-2300
▁बंध	-2301
▁बित	-2302
▁बीच	-2303
▁भलि	-2304
▁भले	-2305
▁मदन	-2306
▁मीन	-2307
▁मुद	-2308
▁लंक	-2309
▁लाए	-2310
▁लाज	-2311
▁सति	-2312
▁आयउँ	-2313
▁आरति	-2314
▁कल्प	-2315
▁कोपि	-2316
▁गाथा	-2317
▁जनकु	-2318
▁जाती	-2319
▁जोगी	-2320
▁थोरी	-2321
▁दूसर	-2322
▁धरहु	-2323
▁नृपु	-2324
▁पाएँ	-2325
▁भरोस	-2326
▁भागा	-2327
▁भूरि	-2328
▁भ्रा	-2329
▁मुरु	-2330
▁रितु	-2331
▁संमत	-2332
▁सभीत	-2333
▁सहाय	-2334
▁सिंघ	-2335
▁सिधि	-2336
▁सुफल	-2337
▁हानी	-2338
▁हेतू	-2339
▁अतिसय	-2340
▁अभागी	-2341
▁अभिला	-2342
▁काहुँ	-2343
▁जानकि	-2344
▁नमामि	-2345
▁निपुन	-2346
▁प्रात	-2347
▁बुझाई	-2348
▁भगवान	-2349
▁मंजुल	-2350
▁मारुत	-2351
▁लेहीं	-2352
▁सनमुख	-2353
▁कुअँरि	-2354
▁प्रभाऊ	-2355
▁प्रसंग	-2356
▁बाजहिं	-2357
▁संसारा	-2358
▁सुनावा	-2359
▁स्यामल	-2360
▁अधिकारी	-2361
▁अनुसासन	-2362
▁कोटिन्ह	-2363
▁जिन्हहि	-2364
▁बड़भागी	-2365
▁तुम्हारि	-2366
▁प्रानप्रिय	-2367
उब	-2368
जल	-2369
तम	-2370
षक	-2371
हइ	-2372
कोच	-2373
चरन	-2374
जहँ	-2375
बरि	-2376
राऊ	-2377
लाह	-2378
ेउँ	-2379
▁घट	-2380
▁था	-2381
च्छन	-2382
च्छि	-2383
जिमि	-2384
द्वा	-2385
न्या	-2386
बंधु	-2387
रामु	-2388
▁आचर	-2389
▁आदि	-2390
▁एहू	-2391
▁ऐसे	-2392
▁ओरा	-2393
▁करई	-2394
▁चतु	-2395
▁जित	-2396
▁जूथ	-2397
▁तिय	-2398
▁दया	-2399
▁नास	-2400
▁पढ़	-2401
▁परइ	-2402
▁पीत	-2403
▁बलु	-2404
▁भरे	-2405
▁मेघ	-2406
▁रोग	-2407
▁लाल	-2408
▁सजि	-2409
▁सदन	-2410
▁समउ	-2411
▁समन	-2412
▁साव	-2413
▁सूल	-2414
▁हरन	-2415
तुधान	-2416
ारहिं	-2417
▁अगुन	-2418
▁अनुस	-2419
▁अवसि	-2420
▁उदार	-2421
▁केवल	-2422
▁गाना	-2423
▁गावत	-2424
▁चितइ	-2425
▁जाहू	-2426
▁जिअत	-2427
▁डेरा	-2428
▁तुरग	-2429
▁दयाल	-2430
▁दुहु	-2431
▁नामु	-2432
▁निधि	-2433
▁निबा	-2434
▁बनाए	-2435
▁बादि	-2436
▁बिसद	-2437
▁बिहग	-2438
▁भलाई	-2439
▁भोजन	-2440
▁मलिन	-2441
▁मलीन	-2442
▁महिप	-2443
▁मागु	-2444
▁रासी	-2445
▁लीला	-2446
▁सुरत	-2447
▁अबिना	-2448
▁कहेउँ	-2449
▁किरात	-2450
▁चीन्ह	-2451
▁जबहिं	-2452
▁जानहु	-2453
▁दुखित	-2454
▁द्वार	-2455
▁निमिष	-2456
▁बखाने	-2457
▁बिदेह	-2458
▁बोलाइ	-2459
▁मज्जन	-2460
▁मुकुट	-2461
▁लेहिं	-2462
▁सनेही	-2463
▁सबहिं	-2464
▁सयाने	-2465
▁सानुज	-2466
▁जामवंत	-2467
▁पुलकित	-2468
▁फिरहिं	-2469
▁बलवाना	-2470
▁बिभूषन	-2471
▁बिलोकी	-2472
▁सुबानी	-2473
▁सुरपति	-2474
▁प्रबीना	-2475
▁बिभीषनु	-2476
▁भानुकुल	-2477
▁मुनिन्ह	-2478
जब	-2479
बत	-2480
बो	-2481
भी	-2482
ूक	-2483
ूह	-2484
ंकु	-2485
गरु	-2486
जात	-2487
बरन	-2488
बाद	-2489
सुख	-2490
स्य	-2491
हहु	-2492
▁गि	-2493
▁तस	-2494
▁तै	-2495
▁नय	-2496
▁बक	-2497
▁बट	-2498
▁रव	-2499
▁सौ	-2500
द्धा	-2501
नारि	-2502
माने	-2503
रिहि	-2504
ावउँ	-2505
ावरि	-2506
ुद्ध	-2507
॥10॥	-2508
▁असु	-2509
▁आने	-2510
▁एका	-2511
▁कटु	-2512
▁काँ	-2513
▁दंभ	-2514
▁दिग	-2515
▁नीक	-2516
▁पूज	-2517
▁बरू	-2518
▁बिआ	-2519
▁भएँ	-2520
▁रोक	-2521
▁सुआ	-2522
▁सूझ	-2523
▁सूर	-2524
दानंद	-2525
द्वाज	-2526
▁अनंत	-2527
▁कटकु	-2528
▁काटि	-2529
▁कैके	-2530
▁कोमल	-2531
▁गावा	-2532
▁गुंज	-2533
▁चकोर	-2534
▁चरना	-2535
▁जाता	-2536
▁पठाए	-2537
▁पालक	-2538
▁पाहि	-2539
▁पिसा	-2540
▁पूजि	-2541
▁बिहँ	-2542
▁भूधर	-2543
▁मधुप	-2544
▁मोचन	-2545
▁रंजन	-2546
▁राखी	-2547
▁लाहू	-2548
▁लेहु	-2549
▁सकोच	-2550
▁सीतल	-2551
▁सुजस	-2552
▁इच्छा	-2553
▁उदासी	-2554
▁किंनर	-2555
▁ताकें	-2556
▁देखिअ	-2557
▁पुलकि	-2558
▁प्रया	-2559
▁प्रसं	-2560
▁बिहंग	-2561
▁ब्याल	-2562
▁सराहत	-2563
▁सिथिल	-2564
▁अनुरूप	-2565
▁करिहउँ	-2566
▁क्रोधा	-2567
▁प्रपंच	-2568
▁प्रानी	-2569
▁बिसारी	-2570
▁समुझाई	-2571
▁समुझाए	-2572
▁सुखदाई	-2573
▁अनुकूला	-2574
▁अभिमाना	-2575
▁जातुधान	-2576
ँग	-2577
कत	-2578
पे	-2579
मर	-2580
यं	-2581
यस	-2582
हं	-2583
▁औ	-2584
▁॥	-2585
करत	-2586
खिल	-2587
पित	-2588
सिय	-2589
सोइ	-2590
सोर	-2591
हिब	-2592
ानू	-2593
ूतन	-2594
▁अच	-2595
▁कद	-2596
▁गत	-2597
▁डा	-2598
▁ढि	-2599
▁नच	-2600
जेहि	-2601
नाथा	-2602
सीला	-2603
▁आगम	-2604
▁उठे	-2605
▁कहई	-2606
▁कुर	-2607
▁गढ़	-2608
▁गवन	-2609
▁तर्	-2610
▁दुल	-2611
▁धरु	-2612
▁धरे	-2613
▁नरे	-2614
▁नाए	-2615
▁बैन	-2616
▁भुआ	-2617
▁रजा	-2618
▁लरि	-2619
▁संघ	-2620
▁सफल	-2621
▁सलि	-2622
▁सेष	-2623
जेहिं	-2624
बिप्र	-2625
▁अमिअ	-2626
▁उतरु	-2627
▁उमगि	-2628
▁कालु	-2629
▁केरे	-2630
▁चकित	-2631
▁चलीं	-2632
▁जासू	-2633
▁जुड़	-2634
▁दाता	-2635
▁दूजा	-2636
▁देखु	-2637
▁देहू	-2638
▁दोसु	-2639
▁धारा	-2640
▁नगरु	-2641
▁निरा	-2642
▁नूतन	-2643
▁नेति	-2644
▁पदुम	-2645
▁पूरन	-2646
▁प्रय	-2647
▁फिरत	-2648
▁बदनु	-2649
▁बरषि	-2650
▁बासी	-2651
▁बाहन	-2652
▁बीते	-2653
▁बेषु	-2654
▁मत्त	-2655
▁मागि	-2656
▁मिटि	-2657
▁मिथि	-2658
▁राउर	-2659
▁राखे	-2660
▁लागत	-2661
▁सहाई	-2662
▁साथा	-2663
▁साधन	-2664
▁सुगम	-2665
▁सुनी	-2666
▁हानि	-2667
▁अपराध	-2668
▁अभिषे	-2669
▁कराला	-2670
▁करेहु	-2671
▁कहेहु	-2672
▁कीजिअ	-2673
▁कैकेई	-2674
▁दुंदु	-2675
▁देखउँ	-2676
▁धरहिं	-2677
▁नाहिं	-2678
▁परहिं	-2679
▁प्रमो	-2680
▁बनावा	-2681
▁बिमान	-2682
▁बिरहँ	-2683
▁भिन्न	-2684
▁लहहीं	-2685
▁सक्ति	-2686
▁समुझत	-2687
▁सुकुम	-2688
▁सुगंध	-2689
▁स्रवत	-2690
▁देखेउँ	-2691
▁नरनाहू	-2692
▁पुनीता	-2693
▁बसिष्ट	-2694
▁बिचारु	-2695
▁बोलहिं	-2696
▁ब्यापक	-2697
▁रामकथा	-2698
▁लीन्हे	-2699
▁सँवारे	-2700
▁सखिन्ह	-2701
▁सबन्हि	-2702
▁सरोरुह	-2703
▁सुहावन	-2704
▁अबिनासी	-2705
▁चरनन्हि	-2706
▁जनकसुता	-2707
▁प्रेरित	-2708
▁भरद्वाज	-2709
▁चित्रकूट	-2710
ँर	-2711
उर	-2712
खर	-2713
झि	-2714
नू	-2715
बृ	-2716
मम	-2717
वर	-2718
कूल	-2719
भगत	-2720
भाँ	-2721
भाग	-2722
यतन	-2723
वति	-2724
वास	-2725
षित	-2726
सिज	-2727
ागम	-2728
ृपा	-2729
ेरे	-2730
्तर	-2731
्पर	-2732
▁इत	-2733
▁उघ	-2734
▁गइ	-2735
▁पं	-2736
▁बँ	-2737
▁रम	-2738
▁लय	-2739
▁है	-2740
ंडित	-2741
गिनि	-2742
तन्ह	-2743
सादर	-2744
सुंड	-2745
हीना	-2746
▁अवस	-2747
▁अहई	-2748
▁कलस	-2749
▁कार	-2750
▁कोल	-2751
▁घाल	-2752
▁छाई	-2753
▁झूठ	-2754
▁देई	-2755
▁देन	-2756
▁धाई	-2757
▁नसा	-2758
▁नाव	-2759
▁पता	-2760
▁पनु	-2761
▁परत	-2762
▁पास	-2763
▁पैठ	-2764
▁बटु	-2765
▁बनि	-2766
▁भीर	-2767
▁मोद	-2768
▁रोष	-2769
▁लेइ	-2770
▁हंस	-2771
▁अखंड	-2772
▁अनंद	-2773
▁अवनि	-2774
▁आतुर	-2775
▁आपनि	-2776
▁आरती	-2777
▁करतू	-2778
▁करसि	-2779
▁करुन	-2780
▁कहसि	-2781
▁काजा	-2782
▁काढ़	-2783
▁कामा	-2784
▁कामी	-2785
▁गोसा	-2786
▁गौरि	-2787
▁घोरा	-2788
▁चाहत	-2789
▁जागा	-2790
▁जागे	-2791
▁जाही	-2792
▁जोगू	-2793
▁तोरि	-2794
▁दासी	-2795
▁दाहू	-2796
▁पछित	-2797
▁पावइ	-2798
▁फूला	-2799
▁बरना	-2800
▁बुधि	-2801
▁भजहु	-2802
▁रामच	-2803
▁रीती	-2804
▁सतीं	-2805
▁साजु	-2806
▁सिंग	-2807
▁सिरो	-2808
▁अजहुँ	-2809
▁कहिहि	-2810
▁कहेसि	-2811
▁काहूँ	-2812
▁केहिं	-2813
▁कोलाह	-2814
▁चारिउ	-2815
▁दससीस	-2816
▁दुहुँ	-2817
▁दोहाई	-2818
▁पहुँच	-2819
▁प्रबो	-2820
▁बिलास	-2821
▁बिसमय	-2822
▁मानहु	-2823
▁रनिवा	-2824
▁रहेउँ	-2825
▁सँकोच	-2826
▁संकुल	-2827
▁सतसंग	-2828
▁सुरति	-2829
▁सुसील	-2830
▁अतुलित	-2831
▁अभिमान	-2832
▁चीन्हा	-2833
▁त्राहि	-2834
▁त्रिभु	-2835
▁दससीसा	-2836
▁द्रोही	-2837
▁धावहिं	-2838
▁निर्मल	-2839
▁निहारे	-2840
▁मुसुका	-2841
▁रजायसु	-2842
▁सिद्धि	-2843
▁क्रुद्ध	-2844
▁निर्गुन	-2845
▁बिश्राम	-2846
▁रामचरित	-2847
▁सुखदायक	-2848
▁प्रथमहिं	-2849
अव	-2850
क्	-2851
चत	-2852
टत	-2853
टे	-2854
तप	-2855
पत	-2856
लख	-2857
शं	-2858
आरा	-2859
किक	-2860
ग्र	-2861
जनक	-2862
जान	-2863
ठाई	-2864
तें	-2865
दिन	-2866
न्द	-2867
भयउ	-2868
महि	-2869
वहु	-2870
संध	-2871
हेर	-2872
ासन	-2873
ीसा	-2874
ृद्	-2875
्लव	-2876
▁उल	-2877
▁हु	-2878
केतु	-2879
तासु	-2880
दादि	-2881
निति	-2882
भगति	-2883
भारि	-2884
रताई	-2885
राया	-2886
सुनु	-2887
हिनि	-2888
ृत्य	-2889
ौकिक	-2890
्यों	-2891
▁अंध	-2892
▁अरि	-2893
▁एकु	-2894
▁कंठ	-2895
▁कोइ	-2896
▁गाइ	-2897
▁गाए	-2898
▁तपु	-2899
▁देस	-2900
▁बंस	-2901
▁बधि	-2902
▁बसइ	-2903
▁बाग	-2904
▁मकर	-2905
▁माल	-2906
▁रंक	-2907
▁सरस	-2908
▁सूत	-2909
▁सौं	-2910
▁हति	-2911
करहिं	-2912
छावरि	-2913
बहुरि	-2914
रिद्र	-2915
▁अंबु	-2916
▁अभाग	-2917
▁उपमा	-2918
▁कपीस	-2919
▁कुसु	-2920
▁गवने	-2921
▁गूढ़	-2922
▁गृहँ	-2923
▁चढ़े	-2924
▁जंतु	-2925
▁जयति	-2926
▁जोधा	-2927
▁तासू	-2928
▁तोरी	-2929
▁नामा	-2930
▁निपा	-2931
▁नीका	-2932
▁पराई	-2933
▁बनाइ	-2934
▁बयरु	-2935
▁बाना	-2936
▁बीती	-2937
▁भृगु	-2938
▁भोरी	-2939
▁मनोज	-2940
▁महीप	-2941
▁मागा	-2942
▁मारग	-2943
▁मृषा	-2944
▁मोरे	-2945
▁रासि	-2946
▁ललित	-2947
▁समीर	-2948
▁सिरा	-2949
▁सुकृ	-2950
▁हारे	-2951
▁होति	-2952
▁अनहित	-2953
▁अहहीं	-2954
▁कुअँर	-2955
▁कोबिद	-2956
▁गुंजत	-2957
▁चलहिं	-2958
▁चिंता	-2959
▁तिहुँ	-2960
▁तुलसि	-2961
▁देखाई	-2962
▁द्रोह	-2963
▁नृपति	-2964
▁पंडित	-2965
▁पयोधि	-2966
▁पिसाच	-2967
▁बाँधि	-2968
▁बिलाप	-2969
▁भक्ति	-2970
▁भनिति	-2971
▁भोरें	-2972
▁मृदुल	-2973
▁रुधिर	-2974
▁लालसा	-2975
▁श्रीर	-2976
▁सरासन	-2977
▁सराहि	-2978
▁सरिता	-2979
▁सुमुख	-2980
▁हमारी	-2981
▁हमारे	-2982
▁अनुकूल	-2983
▁अवतारा	-2984
▁गावहीं	-2985
▁ग्याना	-2986
▁चतुराई	-2987
▁त्रासा	-2988
▁देवन्ह	-2989
▁निधाना	-2990
▁प्रस्न	-2991
▁बारिधि	-2992
▁बिनहिं	-2993
▁मतिमंद	-2994
▁मुनीसा	-2995
▁रघुनंद	-2996
▁रघुराऊ	-2997
▁रनधीरा	-2998
▁सचराचर	-2999
▁सनमाने	-3000
▁सेवहिं	-3001
▁अनुमाना	-3002
▁करिहहिं	-3003
▁कुंभकरन	-3004
▁दीन्हें	-3005
▁सिरोमनि	-3006
▁सुखदाता	-3007
▁दीनदयाला	-3008
▁सकुचाहीं	-3009
▁तुम्हारें	-3010
घा	-3011
तू	-3012
दू	-3013
भए	-3014
रस	-3015
वल	-3016
िग	-3017
ूँ	-3018
ंजर	-3019
चिअ	-3020
तहि	-3021
तीत	-3022
तोष	-3023
पुल	-3024
भीर	-3025
मोर	-3026
यउँ	-3027
लीं	-3028
वमस	-3029
समु	-3030
्यं	-3031
्रु	-3032
॥33	-3033
॥34	-3034
॥35	-3035
▁अट	-3036
▁उज	-3037
▁छी	-3038
▁भी	-3039
▁री	-3040
कुटि	-3041
कृपा	-3042
गुति	-3043
तेउँ	-3044
निसि	-3045
प्रा	-3046
ब्या	-3047
भूषन	-3048
मातु	-3049
राजु	-3050
वारि	-3051
सेवक	-3052
स्या	-3053
ृद्ध	-3054
▁आनँ	-3055
▁उतर	-3056
▁उपल	-3057
▁ऊपर	-3058
▁खाए	-3059
▁गंध	-3060
▁गईं	-3061
▁गनि	-3062
▁गोद	-3063
▁चहु	-3064
▁जिआ	-3065
▁डोल	-3066
▁तकि	-3067
▁ताल	-3068
▁धनी	-3069
▁धिग	-3070
▁निअ	-3071
▁निद	-3072
▁निष	-3073
▁नेह	-3074
▁पगु	-3075
▁पया	-3076
▁पोच	-3077
▁फनि	-3078
▁बनइ	-3079
▁बपु	-3080
▁भुल	-3081
▁भूत	-3082
▁मगु	-3083
▁मरु	-3084
▁लगा	-3085
▁लाभ	-3086
▁लेख	-3087
▁लेन	-3088
▁सँभ	-3089
▁संक	-3090
▁संध	-3091
▁सच्	-3092
▁सही	-3093
सुनहु	-3094
स्त्र	-3095
ानिधि	-3096
्रिया	-3097
▁अखिल	-3098
▁अन्ह	-3099
▁अबला	-3100
▁अवगा	-3101
▁आँखि	-3102
▁आनंद	-3103
▁उपाय	-3104
▁कवनि	-3105
▁काहि	-3106
▁काहे	-3107
▁कीसा	-3108
▁कुमु	-3109
▁चातक	-3110
▁जतनु	-3111
▁जाचक	-3112
▁थोरा	-3113
▁दरसन	-3114
▁दरसु	-3115
▁दिनु	-3116
▁दीना	-3117
▁दुखी	-3118
▁देबि	-3119
▁धारि	-3120
▁धूरि	-3121
▁नागर	-3122
▁नायउ	-3123
▁निरख	-3124
▁निरु	-3125
▁नीती	-3126
▁पाना	-3127
▁बरनै	-3128
▁बिलग	-3129
▁भूरी	-3130
▁राजी	-3131
▁रूपु	-3132
▁लराई	-3133
▁लाभु	-3134
▁लेखा	-3135
▁लोगू	-3136
▁सनका	-3137
▁सप्त	-3138
▁सलिल	-3139
▁सिखर	-3140
▁सुता	-3141
▁सुपा	-3142
▁हाथा	-3143
कुमारा	-3144
वमस्तु	-3145
▁कलेसू	-3146
▁कोदंड	-3147
▁कौसिक	-3148
▁घनेरे	-3149
▁जोरें	-3150
▁ठाढ़े	-3151
▁ढिठाई	-3152
▁दुष्ट	-3153
▁नाहिन	-3154
▁पहिरा	-3155
▁पायउँ	-3156
▁पितहि	-3157
▁बस्तु	-3158
▁माहिं	-3159
▁रहहीं	-3160
▁लंकेस	-3161
▁संदेह	-3162
▁सकुचि	-3163
▁साहिब	-3164
▁सुहृद	-3165
चिदानंद	-3166
▁अवलोकि	-3167
▁जुगुति	-3168
▁दरिद्र	-3169
▁धुरंधर	-3170
▁निकेता	-3171
▁निसाना	-3172
▁परस्पर	-3173
▁परिवार	-3174
▁पावहीं	-3175
▁प्रबोध	-3176
▁बिद्या	-3177
▁बिराजा	-3178
▁मज्जनु	-3179
▁रावनहि	-3180
▁लीन्ही	-3181
▁लोगन्ह	-3182
▁सुमुखि	-3183
▁सुरतरु	-3184
▁सुरपुर	-3185
▁हमारें	-3186
▁चितवहिं	-3187
▁जानकिहि	-3188
▁दीन्हीं	-3189
▁निछावरि	-3190
▁परमानंद	-3191
▁प्रसंगा	-3192
▁बिस्वास	-3193
▁महामुनि	-3194
▁सुहावनि	-3195
▁बिप्रन्ह	-3196
▁कृपानिधान	-3197
उत	-3198
गृ	-3199
छत	-3200
छी	-3201
यल	-3202
रू	-3203
सद	-3204
हम	-3205
ोग	-3206
्ग	-3207
कहत	-3208
काम	-3209
गर्	-3210
धनु	-3211
प्त	-3212
बचन	-3213
बधू	-3214
बाल	-3215
बेष	-3216
मंज	-3217
मनु	-3218
मूल	-3219
मेष	-3220
यकु	-3221
रिअ	-3222
समा	-3223
सीय	-3224
िनी	-3225
ीका	-3226
ुरे	-3227
।।1	-3228
▁खि	-3229
▁चु	-3230
▁छम	-3231
▁छि	-3232
▁दं	-3233
▁नद	-3234
▁पत	-3235
▁लु	-3236
कारे	-3237
चारि	-3238
च्छक	-3239
बाहु	-3240
बोले	-3241
मिनी	-3242
रारि	-3243
हुति	-3244
ावनु	-3245
॥11॥	-3246
॥12॥	-3247
▁अघा	-3248
▁अचर	-3249
▁अमल	-3250
▁आगे	-3251
▁आसा	-3252
▁कमठ	-3253
▁कहन	-3254
▁काक	-3255
▁कीं	-3256
▁घाट	-3257
▁जलज	-3258
▁जाए	-3259
▁पथि	-3260
▁पसु	-3261
▁पाष	-3262
▁भंज	-3263
▁भजे	-3264
▁भाल	-3265
▁मंत	-3266
▁मरत	-3267
▁मिस	-3268
▁रंग	-3269
▁रोम	-3270
▁लही	-3271
▁साज	-3272
▁सुअ	-3273
▁हरी	-3274
▁हाँ	-3275
▁होन	-3276
तुलसी	-3277
तेहिं	-3278
सुंडि	-3279
हाहीं	-3280
्यानी	-3281
▁असुभ	-3282
▁उठाई	-3283
▁उतरि	-3284
▁उदधि	-3285
▁करहू	-3286
▁कहें	-3287
▁काजू	-3288
▁काहु	-3289
▁किछु	-3290
▁केतु	-3291
▁केही	-3292
▁कैला	-3293
▁खोरी	-3294
▁गवाँ	-3295
▁छाया	-3296
▁जनित	-3297
▁जेही	-3298
▁जोजन	-3299
▁तीरा	-3300
▁धरेउ	-3301
▁धामा	-3302
▁नरेस	-3303
▁नहाइ	-3304
▁नहाए	-3305
▁नहीं	-3306
▁नायक	-3307
▁निषा	-3308
▁निहो	-3309
▁पापी	-3310
▁पायो	-3311
▁पासा	-3312
▁पीरा	-3313
▁पूजे	-3314
▁बनबा	-3315
▁बरिआ	-3316
▁बायस	-3317
▁बिजय	-3318
▁बिना	-3319
▁मिलत	-3320
▁मीना	-3321
▁मेरु	-3322
▁मोहू	-3323
▁राजू	-3324
▁राति	-3325
▁रायँ	-3326
▁लेहू	-3327
▁सँदे	-3328
▁सकोप	-3329
▁सप्र	-3330
▁साजि	-3331
▁सियँ	-3332
▁सुजन	-3333
▁सुनइ	-3334
▁सुरस	-3335
▁सेवत	-3336
▁सोवत	-3337
निहारा	-3338
▁अवतार	-3339
▁असंका	-3340
▁खगपति	-3341
▁गुरहि	-3342
▁जानउँ	-3343
▁तबहिं	-3344
▁देखहु	-3345
▁धरहीं	-3346
▁निंदक	-3347
▁निंदा	-3348
▁निमेष	-3349
▁पल्लव	-3350
▁पूज्य	-3351
▁प्रसू	-3352
▁बराती	-3353
▁बिमोह	-3354
▁बिस्त	-3355
▁बिहाइ	-3356
▁बुझाइ	-3357
▁बृंदा	-3358
▁भगवंत	-3359
▁भाग्य	-3360
▁मधुकर	-3361
▁मनहिं	-3362
▁मागउँ	-3363
▁मित्र	-3364
▁रावनु	-3365
▁लच्छन	-3366
▁लहहिं	-3367
▁लागीं	-3368
▁संतोष	-3369
▁सराहन	-3370
▁सुरेस	-3371
▁उरगारी	-3372
▁कठिनाई	-3373
▁कलिजुग	-3374
▁कल्यान	-3375
▁कुचालि	-3376
▁त्रिपु	-3377
▁नाचहिं	-3378
▁निहारि	-3379
▁प्रयास	-3380
▁प्रेमा	-3381
▁बिभागा	-3382
▁बिरागी	-3383
▁बिषादा	-3384
▁बृष्टि	-3385
▁मंदमति	-3386
▁मारेसि	-3387
▁मिलहिं	-3388
▁रजनीचर	-3389
▁सुखारे	-3390
▁हनुमान	-3391
▁हरषहिं	-3392
▁एवमस्तु	-3393
▁कल्याना	-3394
▁कुटिलाई	-3395
▁कोसलपुर	-3396
▁पुरबासी	-3397
▁प्रकासा	-3398
▁कीन्हेसि	-3399
▁बिलोकहिं	-3400
▁बिश्रामा	-3401
▁ब्रह्मांड	-3402
कन	-3403
घन	-3404
चु	-3405
जै	-3406
तव	-3407
तौ	-3408
धन	-3409
पद	-3410
बै	-3411
मृ	-3412
रउ	-3413
ीठ	-3414
ोत	-3415
▁ष	-3416
ंचल	-3417
कित	-3418
जसु	-3419
जोग	-3420
ड़ि	-3421
तहँ	-3422
दुर	-3423
धीस	-3424
पात	-3425
भवन	-3426
भीं	-3427
यनी	-3428
लंब	-3429
षमा	-3430
सनु	-3431
साई	-3432
्वज	-3433
▁अय	-3434
▁कच	-3435
▁गद	-3436
▁तू	-3437
▁दह	-3438
▁नट	-3439
▁नह	-3440
▁बौ	-3441
▁मै	-3442
कहहु	-3443
गामी	-3444
चारे	-3445
दरसी	-3446
दहिं	-3447
धर्म	-3448
धारा	-3449
नाना	-3450
नीति	-3451
बादा	-3452
भूमि	-3453
मंजस	-3454
राती	-3455
वारी	-3456
सत्य	-3457
सिनि	-3458
सुमि	-3459
ारति	-3460
ारथी	-3461
ारेउ	-3462
ावलि	-3463
ोचनि	-3464
▁अँग	-3465
▁अंब	-3466
▁अके	-3467
▁अधर	-3468
▁असन	-3469
▁आईं	-3470
▁आएँ	-3471
▁एहा	-3472
▁कपा	-3473
▁खाई	-3474
▁गने	-3475
▁गाल	-3476
▁घृत	-3477
▁छमा	-3478
▁जने	-3479
▁जुत	-3480
▁धरी	-3481
▁धाइ	-3482
▁नदी	-3483
▁नैन	-3484
▁पंख	-3485
▁बिछ	-3486
▁बिध	-3487
▁भईं	-3488
▁मरम	-3489
▁रचे	-3490
▁रथु	-3491
▁रेख	-3492
▁लता	-3493
▁सों	-3494
▁होऊ	-3495
मित्र	-3496
ित्रा	-3497
्याता	-3498
्रामा	-3499
▁आनहु	-3500
▁करबि	-3501
▁कहति	-3502
▁कहहू	-3503
▁कहेऊ	-3504
▁कियो	-3505
▁केवट	-3506
▁गाढ़	-3507
▁ग्रह	-3508
▁जनमु	-3509
▁जलधि	-3510
▁जाके	-3511
▁थोरे	-3512
▁दायक	-3513
▁दुति	-3514
▁धरहू	-3515
▁नाथा	-3516
▁निरत	-3517
▁नेहू	-3518
▁पच्छ	-3519
▁प्रन	-3520
▁बचना	-3521
▁बरषा	-3522
▁बाजे	-3523
▁बासु	-3524
▁बेलि	-3525
▁भाजन	-3526
▁भारे	-3527
▁भृंग	-3528
▁मंदर	-3529
▁मरनु	-3530
▁मराल	-3531
▁माला	-3532
▁मिटा	-3533
▁मिलइ	-3534
▁मुखर	-3535
▁रम्य	-3536
▁रूपा	-3537
▁लायक	-3538
▁लोभा	-3539
▁संकट	-3540
▁संता	-3541
▁संभव	-3542
▁समूह	-3543
▁सरूप	-3544
▁साईं	-3545
▁सूला	-3546
▁हीना	-3547
द्रोही	-3548
रघुपति	-3549
रघुबीर	-3550
▁अत्रि	-3551
▁अबिबे	-3552
▁उपदेस	-3553
▁करिहि	-3554
▁किसोर	-3555
▁कुमुद	-3556
▁कोटिक	-3557
▁खरारी	-3558
▁चितवत	-3559
▁त्रैल	-3560
▁दंपति	-3561
▁दरसनु	-3562
▁दसमुख	-3563
▁देखाइ	-3564
▁देखें	-3565
▁निषंग	-3566
▁नीकें	-3567
▁परलोक	-3568
▁परिपू	-3569
▁पावँर	-3570
▁पूँछि	-3571
▁प्रबे	-3572
▁बरूथा	-3573
▁बाढ़ी	-3574
▁बाहेर	-3575
▁बिपरी	-3576
▁बिहीन	-3577
▁भयंकर	-3578
▁भूसुर	-3579
▁राजीव	-3580
▁संबाद	-3581
▁संसार	-3582
▁सारथी	-3583
▁सारदा	-3584
▁सुभाव	-3585
▁सुषमा	-3586
▁सेवकु	-3587
▁सोहाई	-3588
▁हरिहि	-3589
बासिन्ह	-3590
▁अवधपति	-3591
▁कुमारा	-3592
▁परितोष	-3593
▁पुरारी	-3594
▁प्रसून	-3595
▁बिचारू	-3596
▁बिताना	-3597
▁बिधाना	-3598
▁बिबाहु	-3599
▁बिबेका	-3600
▁बिरागा	-3601
▁बिलंबु	-3602
▁बिषादु	-3603
▁बिषादू	-3604
▁महिसुर	-3605
▁मिटिहि	-3606
▁मेघनाद	-3607
▁लागहिं	-3608
▁सँवारी	-3609
▁सनमानि	-3610
▁सनमानी	-3611
▁समुझाइ	-3612
▁सावधान	-3613
▁सुंदरि	-3614
▁सुकृती	-3615
▁सुहाईं	-3616
▁अकुलानी	-3617
▁अनुसारी	-3618
▁अवधपुरी	-3619
▁तुम्हरे	-3620
▁दीनदयाल	-3621
▁दीनबंधु	-3622
▁परिवारा	-3623
▁प्राकृत	-3624
▁प्रेमबस	-3625
▁श्रीरघु	-3626
▁सराहहिं	-3627
▁स्रवहिं	-3628
▁होइहहिं	-3629
▁तुम्हरें	-3630
▁त्रिभुवन	-3631
▁प्रनतपाल	-3632
▁मुसुकाने	-3633
▁रघुपतिहि	-3634
▁प्रनतारति	-3635
▁रघुबंसमनि	-3636
▁सच्चिदानंद	-3637
गद	-3638
जम	-3639
धे	-3640
पक	-3641
पम	-3642
पल	-3643
भृ	-3644
यम	-3645
रइ	-3646
रल	-3647
वै	-3648
सं	-3649
ंदन	-3650
अंग	-3651
आवत	-3652
केउ	-3653
गहि	-3654
जटा	-3655
जहि	-3656
ड़ा	-3657
तिय	-3658
नीय	-3659
बरु	-3660
बर्	-3661
बिह	-3662
बेर	-3663
भुज	-3664
भुत	-3665
मर्	-3666
मिल	-3667
रुष	-3668
र्क	-3669
लखन	-3670
वाए	-3671
सिक	-3672
सिख	-3673
हौं	-3674
ीता	-3675
ूपन	-3676
ेरि	-3677
ेरी	-3678
ोका	-3679
▁ओट	-3680
▁ओर	-3681
▁गै	-3682
▁टे	-3683
▁डो	-3684
▁तट	-3685
▁धो	-3686
▁मौ	-3687
▁लज	-3688
कुंठ	-3689
गुरु	-3690
जहीं	-3691
जासु	-3692
त्री	-3693
द्या	-3694
धानी	-3695
ब्रत	-3696
भानु	-3697
मिति	-3698
राईं	-3699
वसरु	-3700
सहित	-3701
स्ति	-3702
हासा	-3703
ावौं	-3704
ीराम	-3705
ोदरी	-3706
्त्र	-3707
॥13॥	-3708
▁अजि	-3709
▁अरथ	-3710
▁असा	-3711
▁आवइ	-3712
▁इहइ	-3713
▁उदर	-3714
▁ओही	-3715
▁करउ	-3716
▁कूप	-3717
▁केर	-3718
▁कोह	-3719
▁खाइ	-3720
▁गंभ	-3721
▁गरल	-3722
▁गहन	-3723
▁गाव	-3724
▁चेत	-3725
▁छलु	-3726
▁जपत	-3727
▁जयम	-3728
▁जरत	-3729
▁जलद	-3730
▁जिय	-3731
▁तजे	-3732
▁देउ	-3733
▁नाघ	-3734
▁नीद	-3735
▁पर्	-3736
▁पाऊ	-3737
▁पूर	-3738
▁पोष	-3739
▁बृष	-3740
▁भरा	-3741
▁भली	-3742
▁मास	-3743
▁मित	-3744
▁मुक	-3745
▁रहइ	-3746
▁रहत	-3747
▁साप	-3748
▁सिध	-3749
▁सीं	-3750
▁सोप	-3751
▁हरु	-3752
▁हरे	-3753
▁हौं	-3754
प्रथम	-3755
रामहि	-3756
लछिमन	-3757
सिद्ध	-3758
सुंदर	-3759
▁अगाध	-3760
▁अपने	-3761
▁अवतर	-3762
▁अहार	-3763
▁आचरन	-3764
▁आयुध	-3765
▁इंदु	-3766
▁उपाऊ	-3767
▁कपटी	-3768
▁कबित	-3769
▁करहि	-3770
▁कलुष	-3771
▁खोजत	-3772
▁गंगा	-3773
▁गदगद	-3774
▁गयउँ	-3775
▁चारू	-3776
▁छत्र	-3777
▁छोहू	-3778
▁जगदं	-3779
▁जगदी	-3780
▁जनाई	-3781
▁जल्प	-3782
▁जारा	-3783
▁जेते	-3784
▁टीका	-3785
▁डारे	-3786
▁दिने	-3787
▁दीखि	-3788
▁देहि	-3789
▁दोषु	-3790
▁ध्वज	-3791
▁नेहु	-3792
▁पातक	-3793
▁पुरी	-3794
▁पूरि	-3795
▁फेरि	-3796
▁बंदी	-3797
▁बंधन	-3798
▁बखान	-3799
▁बस्य	-3800
▁बासर	-3801
▁बूझि	-3802
▁बेषा	-3803
▁ब्यव	-3804
▁भजनु	-3805
▁भजिअ	-3806
▁भवनु	-3807
▁भागि	-3808
▁भारा	-3809
▁भारू	-3810
▁भुआल	-3811
▁भूति	-3812
▁मरुत	-3813
▁मिली	-3814
▁रचित	-3815
▁राजि	-3816
▁राहू	-3817
▁रोकी	-3818
▁लरिक	-3819
▁लहेउ	-3820
▁सरना	-3821
▁साखा	-3822
▁साजे	-3823
▁सिवँ	-3824
▁सोचू	-3825
▁हरहु	-3826
▁अगिनि	-3827
▁अग्या	-3828
▁अनादि	-3829
▁अनुसर	-3830
▁अपनें	-3831
▁अभिमत	-3832
▁अवसरु	-3833
▁असीसा	-3834
▁आचरजु	-3835
▁कन्या	-3836
▁कलिमल	-3837
▁कहानी	-3838
▁कालबस	-3839
▁कुमार	-3840
▁गलानी	-3841
▁चढ़ाइ	-3842
▁चढ़ेउ	-3843
▁चाहिअ	-3844
▁जननीं	-3845
▁तजहिं	-3846
▁दसरथु	-3847
▁दिब्य	-3848
▁नारीं	-3849
▁निकेत	-3850
▁पखारि	-3851
▁परितो	-3852
▁पुत्र	-3853
▁बाजने	-3854
▁बारिद	-3855
▁बिबाह	-3856
▁बिसरा	-3857
▁बृद्ध	-3858
▁बैठाए	-3859
▁महेसु	-3860
▁मारीच	-3861
▁मारें	-3862
▁सतिभा	-3863
▁सभासद	-3864
▁ससिहि	-3865
▁सिवहि	-3866
▁सोनित	-3867
▁स्वान	-3868
▁हमरें	-3869
▁अकुलाई	-3870
▁अनुजहि	-3871
▁अलौकिक	-3872
▁असमंजस	-3873
▁इतिहास	-3874
▁उपदेसु	-3875
▁कबहुँक	-3876
▁गंधर्ब	-3877
▁त्यागा	-3878
▁त्यागि	-3879
▁दामिनि	-3880
▁दुखदाई	-3881
▁देखावा	-3882
▁निकाया	-3883
▁निवासू	-3884
▁परिताप	-3885
▁परिनाम	-3886
▁पुकारा	-3887
▁प्रकास	-3888
▁प्रगटि	-3889
▁प्रगटे	-3890
▁प्रभाव	-3891
▁प्रसंस	-3892
▁प्रहार	-3893
▁बिनीता	-3894
▁बिसेषि	-3895
▁बैठहिं	-3896
▁ब्यापि	-3897
▁ब्यापी	-3898
▁भलेहिं	-3899
▁भाइन्ह	-3900
▁भामिनि	-3901
▁भृकुटि	-3902
▁मंगलमय	-3903
▁मतिधीर	-3904
▁मिलिहि	-3905
▁मुरुछा	-3906
▁लीन्हि	-3907
▁सकुचाई	-3908
▁सोहहिं	-3909
▁अनुमानी	-3910
▁अनुहारी	-3911
▁अबिद्या	-3912
▁दुलहिनि	-3913
▁देवरिषि	-3914
▁परिवारू	-3915
▁पहिचानि	-3916
▁प्रनवउँ	-3917
▁प्रबोधु	-3918
▁प्रमोदु	-3919
▁मतिधीरा	-3920
▁महिपाला	-3921
▁मुसुकाई	-3922
▁रघुनंदन	-3923
▁श्रीराम	-3924
▁संग्राम	-3925
▁सिंघासन	-3926
▁सिखावनु	-3927
▁कोसलाधीस	-3928
▁तुलसीदास	-3929
▁दुंदुभीं	-3930
▁बिग्याना	-3931
▁बिस्वासा	-3932
▁रामचंद्र	-3933
▁सुमित्रा	-3934
▁ब्रह्मादि	-3935
)॥	-3936
ँई	-3937
ँव	-3938
उठ	-3939
कब	-3940
घट	-3941
जग	-3942
जस	-3943
ण्	-3944
दप	-3945
बू	-3946
रव	-3947
षय	-3948
ेद	-3949
्ट	-3950
्स	-3951
▁(	-3952
ंजा	-3953
आरी	-3954
कबि	-3955
कहँ	-3956
कहु	-3957
किल	-3958
कोउ	-3959
जाद	-3960
जुत	-3961
जेउ	-3962
ड़त	-3963
तुक	-3964
दें	-3965
देस	-3966
नयन	-3967
नृप	-3968
बती	-3969
बिन	-3970
यहु	-3971
युध	-3972
वाइ	-3973
वार	-3974
समउ	-3975
सहज	-3976
सिआ	-3977
सेउ	-3978
हृद	-3979
होत	-3980
ूपा	-3981
्गज	-3982
▁आद	-3983
▁आध	-3984
▁ऊँ	-3985
▁एत	-3986
▁तत	-3987
▁नौ	-3988
▁पौ	-3989
▁मह	-3990
▁ही	-3991
इहाँ	-3992
कहिं	-3993
कूला	-3994
टिका	-3995
धेनु	-3996
नामा	-3997
न्दे	-3998
पिनि	-3999
बासा	-4000
बिका	-4001
बेगि	-4002
भरतु	-4003
भारा	-4004
मानस	-4005
रावन	-4006
रिपु	-4007
रीसा	-4008
लीला	-4009
सागर	-4010
स्वा	-4011
हारू	-4012
हारे	-4013
॥120	-4014
॥14॥	-4015
▁अंड	-4016
▁अकं	-4017
▁अभय	-4018
▁आनन	-4019
▁आसी	-4020
▁उठी	-4021
▁एकउ	-4022
▁कला	-4023
▁गुह	-4024
▁छमि	-4025
▁तेउ	-4026
▁दलन	-4027
▁देब	-4028
▁दैव	-4029
▁धूम	-4030
▁नाक	-4031
▁निठ	-4032
▁पलक	-4033
▁पात	-4034
▁फुर	-4035
▁बधु	-4036
▁बरद	-4037
▁बिख	-4038
▁बिम	-4039
▁बैद	-4040
▁भ्र	-4041
▁मनो	-4042
▁राय	-4043
▁राव	-4044
▁लगन	-4045
▁लपट	-4046
▁लहे	-4047
▁लेत	-4048
▁सखी	-4049
▁सजन	-4050
▁सहे	-4051
▁स्य	-4052
▁हनू	-4053
▁हिय	-4054
▁॥1॥	-4055
जिन्ह	-4056
भरतहि	-4057
मोरें	-4058
रोहित	-4059
षकेतू	-4060
हृदयँ	-4061
ृत्यु	-4062
▁अँधि	-4063
▁अकाम	-4064
▁अजिर	-4065
▁अधार	-4066
▁अनाथ	-4067
▁आनँद	-4068
▁आश्र	-4069
▁उपजी	-4070
▁उपबन	-4071
▁उपाउ	-4072
▁उहाँ	-4073
▁एकटक	-4074
▁एकहि	-4075
▁कटकट	-4076
▁करतल	-4077
▁कलंक	-4078
▁काटे	-4079
▁काहा	-4080
▁किंक	-4081
▁कीजे	-4082
▁कैकइ	-4083
▁कोपु	-4084
▁खबरि	-4085
▁खानि	-4086
▁गुना	-4087
▁गुनी	-4088
▁छावा	-4089
▁छिनु	-4090
▁छोभु	-4091
▁जमुन	-4092
▁जीते	-4093
▁जूथा	-4094
▁तपबल	-4095
▁तरनी	-4096
▁तामस	-4097
▁दाना	-4098
▁दारि	-4099
▁देहा	-4100
▁देही	-4101
▁धायउ	-4102
▁नारा	-4103
▁नियम	-4104
▁नीला	-4105
▁पथिक	-4106
▁परसि	-4107
▁परिछ	-4108
▁पाइअ	-4109
▁पाती	-4110
▁प्रद	-4111
▁बंदर	-4112
▁बच्छ	-4113
▁बजाइ	-4114
▁बनहि	-4115
▁बरबस	-4116
▁बसाई	-4117
▁बाली	-4118
▁बिभव	-4119
▁बिमो	-4120
▁बिरु	-4121
▁बिलख	-4122
▁बौरा	-4123
▁भावी	-4124
▁भाषी	-4125
▁भीरा	-4126
▁मंदा	-4127
▁मनहि	-4128
▁मागध	-4129
▁मागी	-4130
▁मिटइ	-4131
▁रजाइ	-4132
▁रजाई	-4133
▁लवाई	-4134
▁लाजा	-4135
▁लावा	-4136
▁संबत	-4137
▁सक्र	-4138
▁समाइ	-4139
▁सर्व	-4140
▁साखी	-4141
▁साधक	-4142
▁साधू	-4143
▁सिला	-4144
▁सुरा	-4145
▁सृंग	-4146
▁होहू	-4147
सुमिरि	-4148
▁अतिथि	-4149
▁अबिरल	-4150
▁आवहिं	-4151
▁इंद्र	-4152
▁उचारे	-4153
▁उदारा	-4154
▁कपिहि	-4155
▁कबहूँ	-4156
▁कलंकु	-4157
▁खिसिआ	-4158
▁गर्जा	-4159
▁गलानि	-4160
▁चढ़ाई	-4161
▁जीवनु	-4162
▁तातें	-4163
▁दसकंठ	-4164
▁दुर्ग	-4165
▁पयाना	-4166
▁परहीं	-4167
▁परायन	-4168
▁पूँछत	-4169
▁प्रभो	-4170
▁बराता	-4171
▁बिकार	-4172
▁बिसिख	-4173
▁भुजबल	-4174
▁मिलेउ	-4175
▁मोच्छ	-4176
▁राउरि	-4177
▁सनमान	-4178
▁सबहीं	-4179
▁सरसिज	-4180
▁सूद्र	-4181
▁स्वयं	-4182
▁अग्यान	-4183
▁इन्हहि	-4184
▁करतूति	-4185
▁कलिकाल	-4186
▁कुचाली	-4187
▁कुमारी	-4188
▁कृसानु	-4189
▁कोलाहल	-4190
▁छाँड़े	-4191
▁जलनिधि	-4192
▁तड़ागा	-4193
▁दिग्गज	-4194
▁निपाता	-4195
▁पहिराए	-4196
▁पुकारे	-4197
▁पुरारि	-4198
▁बाटिका	-4199
▁बिबाहू	-4200
▁बिहंगा	-4201
▁बोलाईं	-4202
▁भेंटेउ	-4203
▁महिदेव	-4204
▁महिपाल	-4205
▁मारहिं	-4206
▁मिटहिं	-4207
▁रजधानी	-4208
▁संदेहू	-4209
▁संसृति	-4210
▁सरनागत	-4211
▁सिद्धा	-4212
▁सुमिरन	-4213
▁स्यामा	-4214
▁हरषानी	-4215
▁अनुगामी	-4216
▁इतिहासा	-4217
▁उपरोहित	-4218
▁करुनाकर	-4219
▁नयनन्हि	-4220
▁परिपूरन	-4221
▁पहिचानी	-4222
▁पहिचाने	-4223
▁प्रसंसा	-4224
▁बरिसहिं	-4225
▁बालचरित	-4226
▁सत्यसंध	-4227
▁हनुमंता	-4228
कृपासिंधु	-4229
▁तुलसिदास	-4230
▁प्रानपति	-4231
▁बिग्यानी	-4232
▁रघुबीरहि	-4233
▁सुंदरताई	-4234
▁सुमंत्रु	-4235
▁करुनानिधि	-4236
ँह	-4237
छे	-4238
दृ	-4239
पथ	-4240
बय	-4241
भर	-4242
मू	-4243
यऊ	-4244
वी	-4245
सइ	-4246
ेन	-4247
॥।	-4248
ंजि	-4249
कंद	-4250
कनक	-4251
कपि	-4252
गहे	-4253
गुण	-4254
चनि	-4255
चाप	-4256
छरा	-4257
टीं	-4258
ण्ड	-4259
धरि	-4260
नाइ	-4261
पंथ	-4262
परि	-4263
बंद	-4264
बुक	-4265
मृग	-4266
रिद	-4267
र्थ	-4268
ल्प	-4269
सखा	-4270
साइ	-4271
सित	-4272
सोच	-4273
हें	-4274
ऽहं	-4275
ाएँ	-4276
ागत	-4277
ावइ	-4278
ावै	-4279
िहि	-4280
ुरत	-4281
्थि	-4282
▁आच	-4283
▁तल	-4284
▁पछ	-4285
▁पो	-4286
▁फू	-4287
▁मथ	-4288
▁सल	-4289
▁सस	-4290
आयसु	-4291
केहि	-4292
जाती	-4293
जानि	-4294
जोगु	-4295
तकही	-4296
तदपि	-4297
देखत	-4298
धन्य	-4299
धीसा	-4300
धुनि	-4301
नारद	-4302
न्ति	-4303
पाला	-4304
पुंज	-4305
बादी	-4306
बिनु	-4307
बृंद	-4308
रासी	-4309
र्मा	-4310
षहिं	-4311
सचिव	-4312
ितनय	-4313
ीमुख	-4314
॥15॥	-4315
॥16॥	-4316
॥18॥	-4317
▁अर्	-4318
▁अलि	-4319
▁आतप	-4320
▁इंद	-4321
▁इरि	-4322
▁उजा	-4323
▁उठा	-4324
▁उसा	-4325
▁ऐहि	-4326
▁किय	-4327
▁गोई	-4328
▁घनी	-4329
▁चलन	-4330
▁चोर	-4331
▁छोट	-4332
▁जरठ	-4333
▁जरे	-4334
▁जीत	-4335
▁टूट	-4336
▁डरु	-4337
▁डार	-4338
▁तरि	-4339
▁तसि	-4340
▁दहन	-4341
▁धरा	-4342
▁पबि	-4343
▁परु	-4344
▁पाट	-4345
▁पाथ	-4346
▁बनी	-4347
▁बसत	-4348
▁बसे	-4349
▁बाट	-4350
▁बीस	-4351
▁ब्र	-4352
▁भंग	-4353
▁भजि	-4354
▁भाउ	-4355
▁भाऊ	-4356
▁मदु	-4357
▁मसक	-4358
▁माय	-4359
▁रसु	-4360
▁रहई	-4361
▁राग	-4362
▁लजा	-4363
▁लरत	-4364
▁लहई	-4365
▁लहि	-4366
▁लिय	-4367
▁संभ	-4368
▁सके	-4369
▁सपन	-4370
▁सरब	-4371
▁सिं	-4372
▁सूख	-4373
▁सेज	-4374
▁हने	-4375
▁हास	-4376
▁हिं	-4377
कहहिं	-4378
कृत्य	-4379
कौतुक	-4380
च्छिन	-4381
छाहीं	-4382
थिन्ह	-4383
न्द्र	-4384
भाँति	-4385
भाग्य	-4386
मनहुँ	-4387
रावति	-4388
स्याम	-4389
िरहिं	-4390
▁अकास	-4391
▁अकेल	-4392
▁अग्य	-4393
▁अमान	-4394
▁असोक	-4395
▁आवहु	-4396
▁इष्ट	-4397
▁उठेउ	-4398
▁उड़ा	-4399
▁उतरे	-4400
▁उमहि	-4401
▁उलूक	-4402
▁एकरस	-4403
▁कंचन	-4404
▁कपाल	-4405
▁काली	-4406
▁कूदि	-4407
▁केतू	-4408
▁कैकई	-4409
▁कैसे	-4410
▁गभीर	-4411
▁गाधि	-4412
▁गाहा	-4413
▁गोचर	-4414
▁घायल	-4415
▁चंदन	-4416
▁चक्र	-4417
▁चलहु	-4418
▁चेतन	-4419
▁जनवा	-4420
▁जलचर	-4421
▁जारि	-4422
▁जैसी	-4423
▁झारी	-4424
▁तरंग	-4425
▁तरुन	-4426
▁तारा	-4427
▁दूरी	-4428
▁देइअ	-4429
▁द्वा	-4430
▁नदीं	-4431
▁नागा	-4432
▁नीरा	-4433
▁पतंग	-4434
▁पताक	-4435
▁पाँव	-4436
▁पूछा	-4437
▁पूछी	-4438
▁पेमु	-4439
▁बँधा	-4440
▁बजाई	-4441
▁बज्र	-4442
▁बड़े	-4443
▁बसंत	-4444
▁बहुर	-4445
▁बागा	-4446
▁बासा	-4447
▁बासू	-4448
▁बीति	-4449
▁बोलत	-4450
▁भंगा	-4451
▁भागे	-4452
▁भाथा	-4453
▁मंडन	-4454
▁महीस	-4455
▁मुँह	-4456
▁मेरे	-4457
▁रहति	-4458
▁राजत	-4459
▁लगाइ	-4460
▁लोगा	-4461
▁ल्या	-4462
▁शंकर	-4463
▁संतो	-4464
▁सपदि	-4465
▁समता	-4466
▁सरजू	-4467
▁सरोष	-4468
▁साँझ	-4469
▁सींच	-4470
▁सुबे	-4471
▁सोका	-4472
▁सोकु	-4473
▁सोहत	-4474
▁हरना	-4475
▁हरनि	-4476
बुद्धि	-4477
मित्रि	-4478
ानुकूल	-4479
▁अंकुर	-4480
▁अतिबल	-4481
▁अनंदु	-4482
▁अनुभव	-4483
▁अपछरा	-4484
▁अमंगल	-4485
▁आगमनु	-4486
▁उजागर	-4487
▁उत्तर	-4488
▁कुठार	-4489
▁कोकिल	-4490
▁खाहीं	-4491
▁गारीं	-4492
▁गोतीत	-4493
▁घनेरी	-4494
▁जबहीं	-4495
▁जरहिं	-4496
▁जानिअ	-4497
▁ज्यों	-4498
▁दारिद	-4499
▁दुराऊ	-4500
▁धारिअ	-4501
▁निवास	-4502
▁पठावा	-4503
▁पयादे	-4504
▁पाषंड	-4505
▁पूँछी	-4506
▁प्रता	-4507
▁प्रबि	-4508
▁प्रेत	-4509
▁फिरेउ	-4510
▁बतकही	-4511
▁बयारी	-4512
▁बहुते	-4513
▁भेंटे	-4514
▁मनिमय	-4515
▁मिताई	-4516
▁रच्छक	-4517
▁रसाला	-4518
▁रहस्य	-4519
▁राखेउ	-4520
▁राजहि	-4521
▁रुद्र	-4522
▁संकरु	-4523
▁संदोह	-4524
▁सत्रु	-4525
▁समाधि	-4526
▁समीरा	-4527
▁सराही	-4528
▁सहस्र	-4529
▁सुकबि	-4530
▁सुनहि	-4531
▁सोचिअ	-4532
▁सौंपि	-4533
▁स्वबस	-4534
▁स्वास	-4535
▁हरषेउ	-4536
▁अहमिति	-4537
▁उपकारी	-4538
▁कलपतरु	-4539
▁कहिहउँ	-4540
▁क्रिया	-4541
▁गोसाँई	-4542
▁ग्यानु	-4543
▁चरित्र	-4544
▁चारिदस	-4545
▁जगदीसा	-4546
▁जानेहु	-4547
▁त्राता	-4548
▁त्रेता	-4549
▁नावहिं	-4550
▁निवासी	-4551
▁निषादू	-4552
▁निहोरा	-4553
▁पहुँचे	-4554
▁प्रयाग	-4555
▁बधुन्ह	-4556
▁बनबासू	-4557
▁बरिआईं	-4558
▁बाहुबल	-4559
▁बिछुरत	-4560
▁बिदेहू	-4561
▁बिनवउँ	-4562
▁बिबेकु	-4563
▁बिभूती	-4564
▁बिलासा	-4565
▁बिहँसि	-4566
▁बिहीना	-4567
▁बैकुंठ	-4568
▁बैठारी	-4569
▁ब्याला	-4570
▁भुजदंड	-4571
▁महीपति	-4572
▁मानहिं	-4573
▁मृत्यु	-4574
▁रखवारे	-4575
▁रमापति	-4576
▁रोवहिं	-4577
▁लोकपति	-4578
▁श्रमित	-4579
▁सँभारि	-4580
▁संतन्ह	-4581
▁संदेहा	-4582
▁सस्त्र	-4583
▁सिखावन	-4584
▁सुतन्ह	-4585
▁सुपासू	-4586
▁सुमिरे	-4587
▁सोचहिं	-4588
▁स्यंदन	-4589
▁अन्हवाए	-4590
▁अभिलाषु	-4591
▁कीन्हें	-4592
▁कोसलपति	-4593
▁त्रिजटा	-4594
▁त्रैलोक	-4595
▁दीन्हेउ	-4596
▁निगमागम	-4597
▁पूँछेहु	-4598
▁प्रकारा	-4599
▁प्रचंडा	-4600
▁प्रभुता	-4601
▁बृषकेतू	-4602
▁भुसुंडि	-4603
▁महतारीं	-4604
▁मुरुछित	-4605
▁रनिवासु	-4606
▁लीन्हें	-4607
▁सकुचाने	-4608
▁सप्रीती	-4609
▁सुंदरता	-4610
▁हरिभगति	-4611
▁कृतकृत्य	-4612
▁देखावहिं	-4613
▁द्विजन्ह	-4614
▁प्रतिपाल	-4615
▁प्रसिद्ध	-4616
▁मारुतसुत	-4617
▁मुनिनायक	-4618
▁सिद्धांत	-4619
▁सौमित्रि	-4620
▁कोसलाधीसा	-4621
आए	-4622
आर	-4623
कं	-4624
कइ	-4625
कृ	-4626
खग	-4627
घर	-4628
चू	-4629
ठा	-4630
ठी	-4631
डर	-4632
णौ	-4633
तं	-4634
दो	-4635
धम	-4636
नन	-4637
बद	-4638
भट	-4639
भल	-4640
मद	-4641
ये	-4642
लं	-4643
लय	-4644
स्	-4645
हक	-4646
ैत	-4647
3।।	-4648
ंथि	-4649
ंपट	-4650
ंभा	-4651
आरे	-4652
करा	-4653
छबि	-4654
जीव	-4655
ञान	-4656
तनय	-4657
ताँ	-4658
ताल	-4659
तिक	-4660
त्य	-4661
धरम	-4662
धार	-4663
नगर	-4664
बंस	-4665
बलि	-4666
बास	-4667
भंग	-4668
मपि	-4669
राय	-4670
लगे	-4671
लुप	-4672
वसु	-4673
वाई	-4674
सरद	-4675
सिर	-4676
सीं	-4677
सैल	-4678
स्व	-4679
हरत	-4680
ानस	-4681
ार्	-4682
ावक	-4683
ीतर	-4684
ेसा	-4685
ोचर	-4686
ोधि	-4687
्टा	-4688
्सव	-4689
▁अं	-4690
▁उड	-4691
▁गँ	-4692
▁जथ	-4693
▁धु	-4694
▁फु	-4695
▁रौ	-4696
▁वा	-4697
▁षट	-4698
▁हं	-4699
ंकुस	-4700
अनुज	-4701
इन्ह	-4702
उतरु	-4703
कारि	-4704
कुअँ	-4705
कुटी	-4706
केतू	-4707
कोटि	-4708
गारा	-4709
गिरा	-4710
गृहँ	-4711
ग्या	-4712
च्छर	-4713
तांत	-4714
तिलक	-4715
दाता	-4716
देबि	-4717
धामा	-4718
न्यो	-4719
पितु	-4720
पीसा	-4721
बारा	-4722
बिनय	-4723
भूपा	-4724
मंगल	-4725
राति	-4726
रुचि	-4727
रूपा	-4728
लोचन	-4729
श्वर	-4730
सीतल	-4731
सीता	-4732
हवाँ	-4733
ानां	-4734
ारें	-4735
ूपुर	-4736
।।11	-4737
॥109	-4738
॥116	-4739
॥117	-4740
॥17॥	-4741
॥24॥	-4742
॥25॥	-4743
॥26॥	-4744
॥27॥	-4745
॥28॥	-4746
॥36॥	-4747
॥40॥	-4748
॥41॥	-4749
॥44॥	-4750
॥45॥	-4751
▁अंस	-4752
▁अकथ	-4753
▁अछत	-4754
▁अनि	-4755
▁अमो	-4756
▁अहइ	-4757
▁आगी	-4758
▁आही	-4759
▁उदय	-4760
▁औरउ	-4761
▁कंक	-4762
▁कंत	-4763
▁कंप	-4764
▁करे	-4765
▁कर्	-4766
▁कसि	-4767
▁कोक	-4768
▁कोट	-4769
▁खैं	-4770
▁गाथ	-4771
▁गेह	-4772
▁छाइ	-4773
▁छीर	-4774
▁जती	-4775
▁जमु	-4776
▁जाब	-4777
▁तेई	-4778
▁तेर	-4779
▁थार	-4780
▁दधि	-4781
▁दूल	-4782
▁धवल	-4783
▁नमत	-4784
▁नरा	-4785
▁पटल	-4786
▁परई	-4787
▁परै	-4788
▁पीर	-4789
▁फुल	-4790
▁बरज	-4791
▁बाघ	-4792
▁बेग	-4793
▁भजु	-4794
▁भिख	-4795
▁माई	-4796
▁मीत	-4797
▁मेट	-4798
▁रहउ	-4799
▁लहइ	-4800
▁लात	-4801
▁सकत	-4802
▁सतस	-4803
▁सरु	-4804
▁सहत	-4805
▁सिष	-4806
▁सैं	-4807
▁हते	-4808
▁होब	-4809
चेहुँ	-4810
टन्हि	-4811
द्भुत	-4812
द्योत	-4813
प्रान	-4814
मुक्त	-4815
समुझि	-4816
्रिका	-4817
▁अनरथ	-4818
▁अनीह	-4819
▁अन्न	-4820
▁असंत	-4821
▁आचरज	-4822
▁उन्ह	-4823
▁उपजइ	-4824
▁कपटु	-4825
▁करति	-4826
▁कराई	-4827
▁कलित	-4828
▁कागा	-4829
▁कालि	-4830
▁किसो	-4831
▁कुठा	-4832
▁कूजत	-4833
▁कृपन	-4834
▁गर्ब	-4835
▁गर्भ	-4836
▁गामी	-4837
▁गारी	-4838
▁गुहँ	-4839
▁चहउँ	-4840
▁चिक्	-4841
▁चोरा	-4842
▁छारा	-4843
▁जनमि	-4844
▁जानु	-4845
▁जामा	-4846
▁जैसा	-4847
▁जोनि	-4848
▁ठाउँ	-4849
▁डारि	-4850
▁तमकि	-4851
▁तरनि	-4852
▁त्रय	-4853
▁थकित	-4854
▁थोरि	-4855
▁देनी	-4856
▁दोषू	-4857
▁धरिअ	-4858
▁धीरज	-4859
▁निंद	-4860
▁नीके	-4861
▁नेहा	-4862
▁पचार	-4863
▁पठाई	-4864
▁परबस	-4865
▁पराइ	-4866
▁पाँच	-4867
▁पादप	-4868
▁पारु	-4869
▁पितर	-4870
▁पूरी	-4871
▁फिरइ	-4872
▁फेरे	-4873
▁बंदे	-4874
▁बढ़त	-4875
▁बधिर	-4876
▁बनिक	-4877
▁बरूथ	-4878
▁बसीठ	-4879
▁बाहू	-4880
▁बूझत	-4881
▁बूझा	-4882
▁बूढ़	-4883
▁भक्त	-4884
▁भाईं	-4885
▁भागी	-4886
▁भानू	-4887
▁भीतर	-4888
▁भेरि	-4889
▁मंडल	-4890
▁मरकत	-4891
▁मागत	-4892
▁मुंड	-4893
▁मुखु	-4894
▁मूदि	-4895
▁मृगी	-4896
▁मैना	-4897
▁मोहे	-4898
▁रहउँ	-4899
▁रहहु	-4900
▁रहेऊ	-4901
▁राके	-4902
▁राहु	-4903
▁रुंड	-4904
▁रेनु	-4905
▁लवाइ	-4906
▁लाहु	-4907
▁लिखि	-4908
▁लेखे	-4909
▁लोका	-4910
▁संजम	-4911
▁संसउ	-4912
▁सनाथ	-4913
▁समयँ	-4914
▁समरथ	-4915
▁समाई	-4916
▁साजू	-4917
▁सारि	-4918
▁सीयँ	-4919
▁सुअन	-4920
▁सुती	-4921
▁सेना	-4922
▁सोचत	-4923
▁सोधि	-4924
▁हरनी	-4925
▁हरषी	-4926
▁होहि	-4927
कुमारि	-4928
निसिचर	-4929
▁अगाधू	-4930
▁अनंता	-4931
▁अनीति	-4932
▁अपजसु	-4933
▁अबहिं	-4934
▁अभागा	-4935
▁अवलंब	-4936
▁असगुन	-4937
▁अहिवा	-4938
▁आहुति	-4939
▁इरिषा	-4940
▁ईस्वर	-4941
▁उछाहु	-4942
▁एकहिं	-4943
▁कटकाई	-4944
▁कपीसा	-4945
▁कारनु	-4946
▁कुंभज	-4947
▁कुबेर	-4948
▁कुसंग	-4949
▁कुसला	-4950
▁कुसुम	-4951
▁कैलास	-4952
▁खगेसा	-4953
▁गनहिं	-4954
▁गुप्त	-4955
▁चलावा	-4956
▁चहहीं	-4957
▁छाँड़	-4958
▁छाहीं	-4959
▁जयमाल	-4960
▁जाइहि	-4961
▁तबहीं	-4962
▁तरहिं	-4963
▁तृषित	-4964
▁त्रिय	-4965
▁दादुर	-4966
▁देखौं	-4967
▁द्वंद	-4968
▁नरेसू	-4969
▁निअरा	-4970
▁निर्ब	-4971
▁नूपुर	-4972
▁पचारि	-4973
▁पठवहु	-4974
▁पदारथ	-4975
▁पर्बत	-4976
▁पाइहि	-4977
▁पिआरी	-4978
▁प्रेर	-4979
▁फिरउँ	-4980
▁फिरहु	-4981
▁बढ़ाई	-4982
▁बाढ़ा	-4983
▁बिनोद	-4984
▁बिराज	-4985
▁बिरिद	-4986
▁बिलपत	-4987
▁बिसोक	-4988
▁बिहसे	-4989
▁बीतें	-4990
▁भरहीं	-4991
▁भेंटि	-4992
▁महाबल	-4993
▁मागहु	-4994
▁मिलनि	-4995
▁मोहबस	-4996
▁रमानि	-4997
▁राखहु	-4998
▁रानीं	-4999
▁लवलेस	-5000
▁लेखें	-5001
▁लोलुप	-5002
▁संजुत	-5003
▁सभीता	-5004
▁समस्त	-5005
▁साँची	-5006
▁सुखाई	-5007
▁सुद्ध	-5008
▁सुनाइ	-5009
▁सुरभि	-5010
▁सोपान	-5011
▁हमारि	-5012
▁हरिजन	-5013
कौसल्या	-5014
▁अपमाना	-5015
▁अभिषेक	-5016
▁अवतरेउ	-5017
▁अस्त्र	-5018
▁उदासीन	-5019
▁कपिपति	-5020
▁करतूती	-5021
▁काहुहि	-5022
▁कृतारथ	-5023
▁कृपाना	-5024
▁कौतुकी	-5025
▁क्रोधी	-5026
▁खद्योत	-5027
▁गोसाइँ	-5028
▁ग्रामा	-5029
▁जगदंबा	-5030
▁जथामति	-5031
▁जामिनि	-5032
▁जुबराज	-5033
▁तुरंता	-5034
▁निषादु	-5035
▁परिछनि	-5036
▁पारबती	-5037
▁पुकारी	-5038
▁प्रबीन	-5039
▁प्रमोद	-5040
▁प्रवान	-5041
▁प्रेरे	-5042
▁बलीमुख	-5043
▁बिदेहु	-5044
▁बिरोधी	-5045
▁बिलोके	-5046
▁भगवंता	-5047
▁मंत्री	-5048
▁मनोरथु	-5049
▁मिथिले	-5050
▁मुनिगन	-5051
▁रखवारी	-5052
▁रबिकुल	-5053
▁लागिहि	-5054
▁लोकहुँ	-5055
▁सँवारि	-5056
▁संघारे	-5057
▁समुद्र	-5058
▁सरन्हि	-5059
▁सुधारि	-5060
▁सुनेउँ	-5061
▁सुभाएँ	-5062
▁सृष्टि	-5063
▁स्वल्प	-5064
▁हनूमान	-5065
▁हरषाना	-5066
▁अनुमानि	-5067
▁अनुरागु	-5068
▁अमरावति	-5069
▁करुनामय	-5070
▁कीन्हीं	-5071
▁कोलाहलु	-5072
▁गर्जहिं	-5073
▁जुबराजू	-5074
▁तनुधारी	-5075
▁त्यागें	-5076
▁देखिहउँ	-5077
▁निपुनाई	-5078
▁पयोनिधि	-5079
▁परमारथु	-5080
▁परितोषु	-5081
▁परिवारु	-5082
▁परिहरहू	-5083
▁पहुँचाई	-5084
▁पूँछहिं	-5085
▁प्रतापु	-5086
▁प्रयागा	-5087
▁प्रसादा	-5088
▁प्रहारा	-5089
▁प्रियतम	-5090
▁बालितनय	-5091
▁बिप्रबर	-5092
▁बिस्तार	-5093
▁मंदोदरी	-5094
▁मज्जहिं	-5095
▁मिथिलेस	-5096
▁रघुबरहि	-5097
▁रानिन्ह	-5098
▁श्रद्धा	-5099
▁सकुचानी	-5100
▁सिहाहीं	-5101
▁सुआसिनि	-5102
▁सुकुमार	-5103
▁सुखकारी	-5104
▁सुनावहु	-5105
▁सुलोचनि	-5106
▁स्वयंबर	-5107
▁हिमगिरि	-5108
▁अनुरागीं	-5109
▁करुनायतन	-5110
▁कीन्हेहु	-5111
▁पछिताहीं	-5112
▁बिख्याता	-5113
▁बिश्रामु	-5114
▁मिलिहहिं	-5115
▁प्रतिकूला	-5116
▁कृपानिकेता	-5117
▁त्रिपुरारी	-5118
▁पुरबासिन्ह	-5119
▁बिस्वामित्र	-5120
▁रामचरितमानस	-5121
ःख	-5122
आइ	-5123
आई	-5124
आग	-5125
खल	-5126
छन	-5127
छल	-5128
णा	-5129
दल	-5130
दह	-5131
नभ	-5132
नव	-5133
नस	-5134
यप	-5135
वइ	-5136
षज	-5137
षम	-5138
ाँ	-5139
ाऊ	-5140
ेल	-5141
ोन	-5142
▁‍	-5143
2।।	-5144
4।।	-5145
5।।	-5146
ंचक	-5147
ंडल	-5148
अपर	-5149
उमा	-5150
एहु	-5151
करं	-5152
करम	-5153
कसे	-5154
कीं	-5155
केत	-5156
क्र	-5157
गाई	-5158
घरी	-5159
घ्न	-5160
चढ़	-5161
चली	-5162
जाम	-5163
तजि	-5164
तमा	-5165
थरी	-5166
थीं	-5167
थें	-5168
दीन	-5169
देउ	-5170
निर	-5171
परम	-5172
पहु	-5173
पीं	-5174
पूँ	-5175
बेद	-5176
बैठ	-5177
ब्र	-5178
भित	-5179
मंत	-5180
मनं	-5181
रहु	-5182
राँ	-5183
रीस	-5184
र्ज	-5185
लहि	-5186
लाग	-5187
लोग	-5188
वनी	-5189
वनू	-5190
वरि	-5191
षना	-5192
सदा	-5193
सभा	-5194
सलय	-5195
साए	-5196
सार	-5197
सिं	-5198
सीद	-5199
सूल	-5200
सोक	-5201
सोह	-5202
हात	-5203
हैं	-5204
ुर्	-5205
ृतक	-5206
ोभा	-5207
॥80	-5208
▁अथ	-5209
▁अद	-5210
▁उछ	-5211
▁कथ	-5212
▁जौ	-5213
▁झष	-5214
▁दई	-5215
▁दव	-5216
▁नई	-5217
▁नए	-5218
▁नब	-5219
▁मझ	-5220
▁या	-5221
▁रट	-5222
▁लइ	-5223
▁हए	-5224
ंकार	-5225
ंचित	-5226
ंजलि	-5227
अंगद	-5228
आगें	-5229
करहु	-5230
कामा	-5231
किनि	-5232
कृति	-5233
च्चर	-5234
जाता	-5235
जाति	-5236
जाना	-5237
जीवन	-5238
ठिका	-5239
ढ़ाई	-5240
तापस	-5241
तोहि	-5242
दिसि	-5243
देवा	-5244
नतरु	-5245
नहिं	-5246
नाथु	-5247
न्मु	-5248
पानी	-5249
बलिक	-5250
बहुत	-5251
बादु	-5252
बानी	-5253
बिदा	-5254
बिबस	-5255
ब्रह	-5256
मीकि	-5257
म्भु	-5258
रहीं	-5259
राउर	-5260
रानन	-5261
वाकर	-5262
सगुन	-5263
समाज	-5264
सिका	-5265
सिरा	-5266
स्तर	-5267
हरषे	-5268
हारु	-5269
ान्त	-5270
ीरति	-5271
ेहुँ	-5272
ोजनु	-5273
ोदरि	-5274
॥118	-5275
॥19॥	-5276
॥22॥	-5277
॥29॥	-5278
॥30॥	-5279
॥31॥	-5280
॥33॥	-5281
॥35॥	-5282
॥37॥	-5283
॥42॥	-5284
॥43॥	-5285
॥46॥	-5286
॥47॥	-5287
॥50॥	-5288
॥51॥	-5289
॥53॥	-5290
॥54॥	-5291
॥55॥	-5292
॥58॥	-5293
॥59॥	-5294
▁अकल	-5295
▁अजा	-5296
▁अनघ	-5297
▁अनत	-5298
▁अरध	-5299
▁अहो	-5300
▁आखर	-5301
▁आगि	-5302
▁आली	-5303
▁इमि	-5304
▁ईसा	-5305
▁उमग	-5306
▁कंध	-5307
▁कीट	-5308
▁कुअ	-5309
▁केस	-5310
▁गंग	-5311
▁गरब	-5312
▁गवँ	-5313
▁गीत	-5314
▁घरी	-5315
▁घरु	-5316
▁चंड	-5317
▁चपे	-5318
▁चाऊ	-5319
▁चूक	-5320
▁जरइ	-5321
▁जरई	-5322
▁जरि	-5323
▁जहा	-5324
▁जाल	-5325
▁जिअ	-5326
▁जीभ	-5327
▁झरि	-5328
▁टरइ	-5329
▁ठयऊ	-5330
▁डगम	-5331
▁तजा	-5332
▁तिल	-5333
▁तेऊ	-5334
▁थाह	-5335
▁थिर	-5336
▁थोर	-5337
▁दयऊ	-5338
▁दर्	-5339
▁दहे	-5340
▁दाम	-5341
▁धरत	-5342
▁धार	-5343
▁धौं	-5344
▁नखत	-5345
▁नार	-5346
▁निव	-5347
▁पचि	-5348
▁पसा	-5349
▁पहु	-5350
▁पिक	-5351
▁पूत	-5352
▁प्य	-5353
▁बधू	-5354
▁बनज	-5355
▁बने	-5356
▁बनै	-5357
▁बयर	-5358
▁बहू	-5359
▁बोध	-5360
▁मंच	-5361
▁मसि	-5362
▁रखि	-5363
▁रचइ	-5364
▁रहब	-5365
▁रहु	-5366
▁रीझ	-5367
▁रुज	-5368
▁लुक	-5369
▁लेई	-5370
▁संख	-5371
▁सचु	-5372
▁सबि	-5373
▁समि	-5374
▁सलभ	-5375
▁सोष	-5376
▁हिए	-5377
▁हुल	-5378
ंदिनि	-5379
उत्तर	-5380
कुंजर	-5381
कुमार	-5382
ग्यान	-5383
चित्र	-5384
ड़हिं	-5385
निंदक	-5386
निधान	-5387
न्यथा	-5388
पायनी	-5389
पुरजन	-5390
प्रति	-5391
बिबिध	-5392
महिमा	-5393
लेहिं	-5394
सक्ति	-5395
सेहिं	-5396
सोचिअ	-5397
हाकार	-5398
ानंदु	-5399
्तारा	-5400
।।3।।	-5401
▁अंचल	-5402
▁अजसु	-5403
▁अनभल	-5404
▁अपना	-5405
▁अमोघ	-5406
▁अवरा	-5407
▁अवसे	-5408
▁असंक	-5409
▁आगमन	-5410
▁आगार	-5411
▁आदरु	-5412
▁आयहु	-5413
▁आवौं	-5414
▁आसिर	-5415
▁आसीन	-5416
▁उडगन	-5417
▁उदित	-5418
▁एतना	-5419
▁कंदर	-5420
▁कपाट	-5421
▁करतब	-5422
▁करमु	-5423
▁कलेस	-5424
▁कादर	-5425
▁कारज	-5426
▁कीजै	-5427
▁कुतर	-5428
▁कुधर	-5429
▁केरा	-5430
▁केरि	-5431
▁कैरव	-5432
▁कैसा	-5433
▁कोही	-5434
▁खंडा	-5435
▁खेलत	-5436
▁खोरि	-5437
▁गाहक	-5438
▁गिरत	-5439
▁गुनि	-5440
▁ग्री	-5441
▁घालक	-5442
▁घालि	-5443
▁चंदु	-5444
▁चहहू	-5445
▁चहिअ	-5446
▁चाहा	-5447
▁चितु	-5448
▁छाँह	-5449
▁छुअत	-5450
▁छुधा	-5451
▁छोभा	-5452
▁छोहु	-5453
▁जरनि	-5454
▁जाऊँ	-5455
▁जीवत	-5456
▁जूथप	-5457
▁जेवन	-5458
▁जोगि	-5459
▁जोरे	-5460
▁ठाटा	-5461
▁डारी	-5462
▁डासि	-5463
▁तजेउ	-5464
▁तत्व	-5465
▁तर्क	-5466
▁ताड़	-5467
▁तिहु	-5468
▁तेजु	-5469
▁तेते	-5470
▁तोरन	-5471
▁दहेउ	-5472
▁दानि	-5473
▁दासा	-5474
▁दिएँ	-5475
▁दिसा	-5476
▁दूता	-5477
▁देवत	-5478
▁धाईं	-5479
▁धामु	-5480
▁धारे	-5481
▁धूरी	-5482
▁नलिन	-5483
▁नाऊँ	-5484
▁नाहा	-5485
▁निदर	-5486
▁नीकी	-5487
▁नेमा	-5488
▁नेमु	-5489
▁नेवा	-5490
▁पटकि	-5491
▁पटतर	-5492
▁पदचर	-5493
▁परती	-5494
▁परसत	-5495
▁पाछि	-5496
▁पायँ	-5497
▁पायउ	-5498
▁पालन	-5499
▁पालि	-5500
▁पाहु	-5501
▁पिरी	-5502
▁पुष्	-5503
▁पूछि	-5504
▁पूरे	-5505
▁प्रज	-5506
▁फिरा	-5507
▁फिरी	-5508
▁फुरि	-5509
▁बंचक	-5510
▁बरषे	-5511
▁बाधा	-5512
▁बानि	-5513
▁बिका	-5514
▁बिगो	-5515
▁बिरज	-5516
▁बिषु	-5517
▁बीचि	-5518
▁बेदा	-5519
▁बेनी	-5520
▁बेनु	-5521
▁भएसि	-5522
▁भाजि	-5523
▁भायँ	-5524
▁भायप	-5525
▁भिनु	-5526
▁भीरु	-5527
▁भूतल	-5528
▁भूपा	-5529
▁भेदा	-5530
▁भोगू	-5531
▁भोरु	-5532
▁महिष	-5533
▁मार्	-5534
▁माहु	-5535
▁मिटे	-5536
▁मिटै	-5537
▁मिला	-5538
▁मीचु	-5539
▁मुदा	-5540
▁मुधा	-5541
▁मूरि	-5542
▁मृतक	-5543
▁मेटि	-5544
▁मोदु	-5545
▁मोहँ	-5546
▁रचेउ	-5547
▁रसना	-5548
▁रसाल	-5549
▁रहनि	-5550
▁रहिअ	-5551
▁रहेउ	-5552
▁राजन	-5553
▁रामू	-5554
▁रिधि	-5555
▁रिषय	-5556
▁रूरी	-5557
▁रेखा	-5558
▁रोषु	-5559
▁लंपट	-5560
▁लगाई	-5561
▁लयली	-5562
▁लाजे	-5563
▁लिएँ	-5564
▁लिखा	-5565
▁लिखे	-5566
▁लियो	-5567
▁श्रे	-5568
▁संपा	-5569
▁सकृत	-5570
▁सखहि	-5571
▁समधी	-5572
▁समर्	-5573
▁समात	-5574
▁सरसी	-5575
▁सर्प	-5576
▁सवति	-5577
▁सहसा	-5578
▁साचा	-5579
▁साजा	-5580
▁साने	-5581
▁साला	-5582
▁सासू	-5583
▁सीवँ	-5584
▁सुमे	-5585
▁सुसा	-5586
▁सेषा	-5587
▁सोहई	-5588
▁हारि	-5589
▁हिएँ	-5590
▁हृदउ	-5591
▁हेरि	-5592
प्रिया	-5593
समाचार	-5594
्रिन्ह	-5595
▁अकंटक	-5596
▁अकाजू	-5597
▁अकासा	-5598
▁अगोचर	-5599
▁अजहूँ	-5600
▁अनुचर	-5601
▁अनुपम	-5602
▁अभागे	-5603
▁अमिति	-5604
▁आनंदु	-5605
▁आपुहि	-5606
▁आराती	-5607
▁उड़ाई	-5608
▁उपासक	-5609
▁एकन्ह	-5610
▁करेहू	-5611
▁काढ़ि	-5612
▁किंकर	-5613
▁किसलय	-5614
▁कुंजर	-5615
▁कृपान	-5616
▁केहीं	-5617
▁गनपति	-5618
▁गहगहे	-5619
▁ग्रसे	-5620
▁चंद्र	-5621
▁चकोरा	-5622
▁चरहिं	-5623
▁चिबुक	-5624
▁चौकें	-5625
▁जन्मु	-5626
▁जानें	-5627
▁जानेउ	-5628
▁जुद्ध	-5629
▁जुबती	-5630
▁ठाढ़ा	-5631
▁ठाढ़ी	-5632
▁तड़ाग	-5633
▁तड़ित	-5634
▁तमाला	-5635
▁तरहीं	-5636
▁तरुबर	-5637
▁तेहीं	-5638
▁त्रोन	-5639
▁थोरें	-5640
▁दाहिन	-5641
▁दिवसु	-5642
▁दीनता	-5643
▁दूलहु	-5644
▁दूसरि	-5645
▁देखेउ	-5646
▁धुरीन	-5647
▁नरेसु	-5648
▁नवहिं	-5649
▁नसावन	-5650
▁नहाने	-5651
▁निठुर	-5652
▁नित्य	-5653
▁निर्म	-5654
▁निसिच	-5655
▁नृत्य	-5656
▁पखारे	-5657
▁पचारी	-5658
▁पताका	-5659
▁परहित	-5660
▁परागा	-5661
▁परीछा	-5662
▁पावनी	-5663
▁पुकार	-5664
▁पूछउँ	-5665
▁पौरुष	-5666
▁प्रबा	-5667
▁प्रलय	-5668
▁बखानि	-5669
▁बधावा	-5670
▁बलवान	-5671
▁बाढ़इ	-5672
▁बाढ़े	-5673
▁बानीं	-5674
▁बालकु	-5675
▁बासना	-5676
▁बिचरत	-5677
▁बिराध	-5678
▁बिसरि	-5679
▁बूड़त	-5680
▁बोलीं	-5681
▁ब्याध	-5682
▁ब्याह	-5683
▁ब्रतु	-5684
▁भंजेउ	-5685
▁भगिनी	-5686
▁भवानि	-5687
▁भुआलू	-5688
▁भोजनु	-5689
▁मझारी	-5690
▁मनसिज	-5691
▁मनहीं	-5692
▁मराला	-5693
▁मलीना	-5694
▁महाजन	-5695
▁महीसु	-5696
▁मानुष	-5697
▁मायाँ	-5698
▁मारसि	-5699
▁मुकुर	-5700
▁रनधीर	-5701
▁रहिहि	-5702
▁लखनहि	-5703
▁लच्छि	-5704
▁लागें	-5705
▁वन्दे	-5706
▁संगति	-5707
▁संताप	-5708
▁सतिहि	-5709
▁सपनें	-5710
▁समुझा	-5711
▁सयाना	-5712
▁सहनाई	-5713
▁साँचा	-5714
▁सींवा	-5715
▁सीतलि	-5716
▁सुखेन	-5717
▁सुतहि	-5718
▁सुधाँ	-5719
▁सुनउँ	-5720
▁सुनहू	-5721
▁सुभाय	-5722
▁सोचबस	-5723
▁सोहति	-5724
▁सोहाइ	-5725
▁हरषीं	-5726
गर्जहिं	-5727
ब्याकुल	-5728
▁अंतहुँ	-5729
▁अगस्ति	-5730
▁अद्भुत	-5731
▁अनुमान	-5732
▁अन्यथा	-5733
▁अपराधू	-5734
▁अवगाहा	-5735
▁असवारा	-5736
▁उपजहिं	-5737
▁कराहीं	-5738
▁काटहिं	-5739
▁कुजाती	-5740
▁कुठारु	-5741
▁कूजहिं	-5742
▁कृतग्य	-5743
▁गंभीरा	-5744
▁ग्रंथि	-5745
▁चढ़ावा	-5746
▁छूटहिं	-5747
▁जननिहि	-5748
▁त्यागे	-5749
▁दिवाकर	-5750
▁दुखारे	-5751
▁दुर्गम	-5752
▁धरमसील	-5753
▁ध्याना	-5754
▁नरनाहा	-5755
▁नसाहीं	-5756
▁नारदहि	-5757
▁नासिका	-5758
▁निरादर	-5759
▁निवासा	-5760
▁निवासु	-5761
▁निषादा	-5762
▁नृपन्ह	-5763
▁पंकरुह	-5764
▁पछिताई	-5765
▁पयादें	-5766
▁पापिनि	-5767
▁पुरानी	-5768
▁प्रबंध	-5769
▁प्रबेस	-5770
▁प्रेरि	-5771
▁बहुताई	-5772
▁बहुरंग	-5773
▁बाँधें	-5774
▁बिचारे	-5775
▁बिदिसि	-5776
▁बिधिवत	-5777
▁बिपरीत	-5778
▁बिभूति	-5779
▁बिमाना	-5780
▁बिरक्त	-5781
▁बिहाना	-5782
▁बोलावा	-5783
▁ब्यर्थ	-5784
▁ब्यापा	-5785
▁ब्याहि	-5786
▁भ्राजा	-5787
▁मनुसाई	-5788
▁मुकुता	-5789
▁राखहिं	-5790
▁राखेहु	-5791
▁रिपुसू	-5792
▁लावहिं	-5793
▁सँकोची	-5794
▁सँकोचू	-5795
▁सँभारा	-5796
▁सँभारी	-5797
▁संकरहि	-5798
▁संदेसु	-5799
▁संभारि	-5800
▁सतसंगा	-5801
▁सनकादि	-5802
▁सनेहमय	-5803
▁सबदरसी	-5804
▁साँथरी	-5805
▁सिंगार	-5806
▁सिवधनु	-5807
▁सुंदरी	-5808
▁सुखधाम	-5809
▁सुनायउ	-5810
▁सुरसरी	-5811
▁हँकारी	-5812
▁हरषाने	-5813
▁हरिजान	-5814
▁हरिभगत	-5815
▁अकुलाने	-5816
▁अनपायनी	-5817
▁अनुरागू	-5818
▁अनुसारा	-5819
▁अनुहारि	-5820
▁आँखिन्ह	-5821
▁उड़ाहीं	-5822
▁किंकिनि	-5823
▁कीन्हेउ	-5824
▁कुसलाता	-5825
▁कुसुमित	-5826
▁कृपायतन	-5827
▁जागबलिक	-5828
▁जानतहूँ	-5829
▁डेराहीं	-5830
▁तुम्हरी	-5831
▁तुरतहिं	-5832
▁तेरहुति	-5833
▁त्रेताँ	-5834
▁पाँवड़े	-5835
▁प्रगटेउ	-5836
▁प्रनामू	-5837
▁प्रपंचु	-5838
▁प्रबोधि	-5839
▁प्रसंगु	-5840
▁प्रसंसि	-5841
▁बहुतेरे	-5842
▁बिपरीता	-5843
▁बिरुद्ध	-5844
▁रघुराजू	-5845
▁सत्रुहन	-5846
▁सहसबाहु	-5847
▁सानुकूल	-5848
▁सुअवसरु	-5849
▁सुनावउँ	-5850
▁सुरभूपा	-5851
▁हरषाहीं	-5852
▁हरिचरित	-5853
▁क्रोधवंत	-5854
▁त्रिबिधि	-5855
▁देखिअहिं	-5856
▁परिछाहीं	-5857
▁परिहरहीं	-5858
▁पुलकावलि	-5859
▁प्रतिकूल	-5860
▁बिस्तारा	-5861
▁ब्यवहारू	-5862
▁मनोहरताई	-5863
▁मुसुकाहीं	-5864
▁सुग्रीवहि	-5865
▁सुमित्राँ	-5866
▁प्रतापभानु	-5867
▁ब्रह्मानंद	-5868
▁श्रीरघुबीर	-5869
अह	-5870
इज	-5871
कम	-5872
खु	-5873
जई	-5874
जप	-5875
झर	-5876
णी	-5877
तज	-5878
तृ	-5879
धक	-5880
फि	-5881
भो	-5882
मख	-5883
यर	-5884
यु	-5885
रई	-5886
रच	-5887
लत	-5888
लै	-5889
वट	-5890
सख	-5891
हट	-5892
है	-5893
िक	-5894
ूर	-5895
ृथ	-5896
ेष	-5897
्क	-5898
-5॥	-5899
ंधि	-5900
ंभव	-5901
अहह	-5902
आपन	-5903
उठे	-5904
कंठ	-5905
कपट	-5906
करी	-5907
करु	-5908
कहे	-5909
काश	-5910
खोज	-5911
गृह	-5912
गेस	-5913
चति	-5914
जहु	-5915
जाग	-5916
जीत	-5917
टिक	-5918
ढ़े	-5919
तां	-5920
तूल	-5921
तेय	-5922
धिग	-5923
धुर	-5924
धें	-5925
ध्व	-5926
नीक	-5927
पसु	-5928
पाई	-5929
पार	-5930
फुल	-5931
फूल	-5932
बंध	-5933
बति	-5934
बरी	-5935
बाक	-5936
बान	-5937
बीत	-5938
बोल	-5939
भरु	-5940
भरे	-5941
मनी	-5942
मयं	-5943
माग	-5944
रचि	-5945
रबि	-5946
रहे	-5947
रिन	-5948
र्ग	-5949
र्ण	-5950
लखि	-5951
लाइ	-5952
लार	-5953
वँत	-5954
संक	-5955
सखि	-5956
सिअ	-5957
सिव	-5958
सुभ	-5959
सेन	-5960
सों	-5961
सोई	-5962
हनू	-5963
ारइ	-5964
ारत	-5965
ेमा	-5966
ोटा	-5967
ोता	-5968
ोहा	-5969
्तम	-5970
॥38	-5971
॥39	-5972
॥48	-5973
▁औष	-5974
▁खभ	-5975
▁घं	-5976
▁चू	-5977
▁चो	-5978
▁छू	-5979
▁जठ	-5980
▁ज्	-5981
▁डे	-5982
▁थर	-5983
▁न्	-5984
▁पइ	-5985
▁पब	-5986
▁पस	-5987
▁बग	-5988
▁ये	-5989
▁शं	-5990
▁सै	-5991
▁‍ि	-5992
ंधुर	-5993
एकहि	-5994
कहउँ	-5995
काजु	-5996
कुंभ	-5997
क्रम	-5998
घाती	-5999
चिक्	-6000
जादा	-6001
जाहु	-6002
ज्जल	-6003
टहिं	-6004
टिहि	-6005
टुंब	-6006
ड़ाइ	-6007
ड़ाई	-6008
तर्क	-6009
तापा	-6010
तुरत	-6011
दिनु	-6012
देखी	-6013
देहु	-6014
धरमु	-6015
धावा	-6016
न्दु	-6017
पुलक	-6018
बंदि	-6019
बालक	-6020
बिंद	-6021
बिंब	-6022
बिगत	-6023
बिड़	-6024
भीरा	-6025
भीषन	-6026
भृगु	-6027
माचल	-6028
मानु	-6029
मारु	-6030
माला	-6031
मिदं	-6032
मिला	-6033
मूला	-6034
म्बु	-6035
यारि	-6036
रामा	-6037
रिनि	-6038
र्ता	-6039
लंका	-6040
लहिं	-6041
लिहि	-6042
श्री	-6043
सभाँ	-6044
समुझ	-6045
सासु	-6046
सिंघ	-6047
सुधा	-6048
सोभा	-6049
सोहत	-6050
ानें	-6051
ावति	-6052
ावनी	-6053
ावली	-6054
ूढ़ा	-6055
्त्व	-6056
्यता	-6057
्योम	-6058
॥101	-6059
॥108	-6060
॥110	-6061
॥119	-6062
॥121	-6063
॥124	-6064
॥20॥	-6065
॥21॥	-6066
॥23॥	-6067
॥32॥	-6068
॥34॥	-6069
॥38॥	-6070
॥39॥	-6071
॥49॥	-6072
॥52॥	-6073
॥56॥	-6074
॥57॥	-6075
॥60॥	-6076
॥61॥	-6077
॥64॥	-6078
॥65॥	-6079
॥86॥	-6080
▁अजय	-6081
▁अपन	-6082
▁अमी	-6083
▁अलप	-6084
▁अली	-6085
▁अहह	-6086
▁अही	-6087
▁आउब	-6088
▁आकर	-6089
▁आनत	-6090
▁आयत	-6091
▁आयस	-6092
▁आयो	-6093
▁ईछा	-6094
▁ईसु	-6095
▁उचा	-6096
▁उजि	-6097
▁उता	-6098
▁कटा	-6099
▁करी	-6100
▁कलह	-6101
▁काउ	-6102
▁कूर	-6103
▁कूल	-6104
▁खलु	-6105
▁खान	-6106
▁खोई	-6107
▁खोट	-6108
▁खोह	-6109
▁गदा	-6110
▁गनै	-6111
▁गयो	-6112
▁गहई	-6113
▁गुण	-6114
▁गुम	-6115
▁घात	-6116
▁चपल	-6117
▁चहइ	-6118
▁चाँ	-6119
▁चुन	-6120
▁चुप	-6121
▁जना	-6122
▁जरा	-6123
▁जिव	-6124
▁जीह	-6125
▁जुझ	-6126
▁झपट	-6127
▁ढोल	-6128
▁तजइ	-6129
▁तजी	-6130
▁तरी	-6131
▁तेल	-6132
▁तोष	-6133
▁थलु	-6134
▁दहइ	-6135
▁दाह	-6136
▁दूध	-6137
▁दैउ	-6138
▁धरइ	-6139
▁धृत	-6140
▁ध्य	-6141
▁नतो	-6142
▁नवल	-6143
▁नाच	-6144
▁निग	-6145
▁निम	-6146
▁निल	-6147
▁नेव	-6148
▁पठइ	-6149
▁पठा	-6150
▁पदा	-6151
▁परब	-6152
▁पहर	-6153
▁पाउ	-6154
▁पीन	-6155
▁पूग	-6156
▁फूट	-6157
▁बछल	-6158
▁बहइ	-6159
▁बिड	-6160
▁बैर	-6161
▁भजइ	-6162
▁भयँ	-6163
▁भया	-6164
▁भरी	-6165
▁भाट	-6166
▁भाष	-6167
▁भोर	-6168
▁मकु	-6169
▁मथि	-6170
▁मनभ	-6171
▁मना	-6172
▁मात	-6173
▁मिथ	-6174
▁मुए	-6175
▁रची	-6176
▁रजु	-6177
▁रमन	-6178
▁रहै	-6179
▁लखी	-6180
▁लयऊ	-6181
▁लला	-6182
▁लहै	-6183
▁लाख	-6184
▁लीन	-6185
▁संश	-6186
▁सघन	-6187
▁सना	-6188
▁सबइ	-6189
▁सबल	-6190
▁ससु	-6191
▁सात	-6192
▁सीप	-6193
▁सुच	-6194
▁सेइ	-6195
▁हरइ	-6196
▁हरत	-6197
▁हसि	-6198
▁हाट	-6199
▁हैं	-6200
▁होम	-6201
कबहुँ	-6202
काहीं	-6203
किसोर	-6204
कुअँर	-6205
कौसिक	-6206
ग्रंथ	-6207
देखहु	-6208
द्रुम	-6209
द्रोह	-6210
नाहिं	-6211
निरखि	-6212
प्रात	-6213
फुल्ल	-6214
बस्तु	-6215
मंदिर	-6216
मादिक	-6217
लीमुख	-6218
लोचनि	-6219
सरिता	-6220
सुतहि	-6221
सुद्ध	-6222
होहिं	-6223
ुर्मि	-6224
ूपनखा	-6225
्याति	-6226
।।2।।	-6227
।।4।।	-6228
▁अकनि	-6229
▁अघाइ	-6230
▁अघाई	-6231
▁अघात	-6232
▁अचेत	-6233
▁अच्छ	-6234
▁अजित	-6235
▁अनंग	-6236
▁अनीक	-6237
▁अपजस	-6238
▁अपनी	-6239
▁अपान	-6240
▁अर्ध	-6241
▁अलंक	-6242
▁अवनी	-6243
▁अवरे	-6244
▁अहहू	-6245
▁आएहु	-6246
▁आदिक	-6247
▁आसनु	-6248
▁ईषना	-6249
▁उग्र	-6250
▁उछाह	-6251
▁उठाए	-6252
▁उमगत	-6253
▁उरगा	-6254
▁उरिन	-6255
▁ऐसेइ	-6256
▁कंकन	-6257
▁कंदु	-6258
▁करऊँ	-6259
▁करनि	-6260
▁कष्ट	-6261
▁कसें	-6262
▁कहऊँ	-6263
▁कहीं	-6264
▁कहूँ	-6265
▁काटत	-6266
▁कामु	-6267
▁कायँ	-6268
▁कायर	-6269
▁कासी	-6270
▁किरन	-6271
▁कुमत	-6272
▁कैकय	-6273
▁कैसी	-6274
▁कौसल	-6275
▁क्री	-6276
▁खंडन	-6277
▁खगना	-6278
▁खाहू	-6279
▁खोजि	-6280
▁गंजन	-6281
▁गनिअ	-6282
▁गनेस	-6283
▁गलीं	-6284
▁गाँव	-6285
▁गाउँ	-6286
▁गावन	-6287
▁गेहा	-6288
▁गेहू	-6289
▁गौतम	-6290
▁घाटा	-6291
▁घेरी	-6292
▁चढ़ी	-6293
▁चर्म	-6294
▁चलिअ	-6295
▁चहसि	-6296
▁चामर	-6297
▁चाहि	-6298
▁चेरि	-6299
▁चौदह	-6300
▁छमहु	-6301
▁छूटे	-6302
▁जंबु	-6303
▁जटिल	-6304
▁जनेउ	-6305
▁जागत	-6306
▁जाचत	-6307
▁जानब	-6308
▁जानै	-6309
▁जायँ	-6310
▁जितब	-6311
▁जिते	-6312
▁जिनस	-6313
▁जीहा	-6314
▁जेता	-6315
▁जोटा	-6316
▁टेरे	-6317
▁ठाऊँ	-6318
▁ठाना	-6319
▁डसाई	-6320
▁डोला	-6321
▁ढोटा	-6322
▁तग्य	-6323
▁तजिअ	-6324
▁तबही	-6325
▁ताके	-6326
▁तारन	-6327
▁तूनी	-6328
▁तैसी	-6329
▁दंडक	-6330
▁दाइज	-6331
▁दारु	-6332
▁दाहु	-6333
▁दियो	-6334
▁दुःख	-6335
▁दुखद	-6336
▁देखब	-6337
▁देवर	-6338
▁देसू	-6339
▁द्रव	-6340
▁धायो	-6341
▁धावत	-6342
▁धावन	-6343
▁नयना	-6344
▁नाचा	-6345
▁नाभि	-6346
▁नामू	-6347
▁निति	-6348
▁निबे	-6349
▁नीरु	-6350
▁नौमि	-6351
▁पठइअ	-6352
▁पठवा	-6353
▁पतिआ	-6354
▁पत्र	-6355
▁परमा	-6356
▁परिघ	-6357
▁परीं	-6358
▁परुष	-6359
▁परेऊ	-6360
▁पलँग	-6361
▁पावत	-6362
▁पियू	-6363
▁पुरट	-6364
▁पूछत	-6365
▁पूजन	-6366
▁पूजी	-6367
▁पूरब	-6368
▁पेखि	-6369
▁पोचू	-6370
▁पोषक	-6371
▁फिरब	-6372
▁फेरत	-6373
▁बकता	-6374
▁बक्र	-6375
▁बधें	-6376
▁बनचर	-6377
▁बनाव	-6378
▁बपुष	-6379
▁बलकल	-6380
▁बाजी	-6381
▁बामा	-6382
▁बारे	-6383
▁बिजई	-6384
▁बिदू	-6385
▁बिबर	-6386
▁बिभो	-6387
▁बिषई	-6388
▁बीता	-6389
▁बूझी	-6390
▁बेदु	-6391
▁बैरु	-6392
▁बोधा	-6393
▁भइउँ	-6394
▁भयंक	-6395
▁भयहु	-6396
▁भरता	-6397
▁भावँ	-6398
▁भाषे	-6399
▁भीति	-6400
▁भुअन	-6401
▁भूखा	-6402
▁भूला	-6403
▁भूलि	-6404
▁भूले	-6405
▁भेषज	-6406
▁भोगा	-6407
▁भोगी	-6408
▁मंडप	-6409
▁मनाव	-6410
▁मयना	-6411
▁मर्द	-6412
▁महोत	-6413
▁मानत	-6414
▁माने	-6415
▁मारत	-6416
▁मारन	-6417
▁मारू	-6418
▁मिटी	-6419
▁मुहु	-6420
▁मेचक	-6421
▁रंगा	-6422
▁राका	-6423
▁राजम	-6424
▁राता	-6425
▁राया	-6426
▁रारी	-6427
▁रूखा	-6428
▁रोषू	-6429
▁लखेउ	-6430
▁लाता	-6431
▁लीका	-6432
▁लेउँ	-6433
▁लोभी	-6434
▁संछे	-6435
▁सद्य	-6436
▁सपना	-6437
▁सबरी	-6438
▁सबुइ	-6439
▁सयान	-6440
▁ससोच	-6441
▁सहमि	-6442
▁साजी	-6443
▁साधि	-6444
▁सारा	-6445
▁सिंच	-6446
▁सिहा	-6447
▁सींव	-6448
▁सीया	-6449
▁सुनै	-6450
▁सुपु	-6451
▁सुबि	-6452
▁सूझा	-6453
▁सेइअ	-6454
▁सेतू	-6455
▁सोहइ	-6456
▁स्वप	-6457
▁हंसा	-6458
▁हतेउ	-6459
▁हरित	-6460
▁हहिं	-6461
▁हासा	-6462
▁होउँ	-6463
जद्यपि	-6464
जामवंत	-6465
त्राता	-6466
त्रिका	-6467
दृष्टि	-6468
न्यासी	-6469
प्रीति	-6470
बिस्वा	-6471
बृष्टि	-6472
ब्रह्म	-6473
मानहुँ	-6474
स्वामि	-6475
हनूमान	-6476
ानिधान	-6477
▁अंकित	-6478
▁अंकुस	-6479
▁अंबुज	-6480
▁अकाजु	-6481
▁अकारन	-6482
▁अचारा	-6483
▁अधारा	-6484
▁अधीरा	-6485
▁अनंदा	-6486
▁अपबर्	-6487
▁अपावन	-6488
▁अभंगा	-6489
▁अमाया	-6490
▁अमिअँ	-6491
▁अस्थि	-6492
▁अहहिं	-6493
▁आधीना	-6494
▁आनँदु	-6495
▁आनहिं	-6496
▁आनेहु	-6497
▁उघारी	-6498
▁उच्चर	-6499
▁उछाहा	-6500
▁उजारि	-6501
▁उठावा	-6502
▁उतरेउ	-6503
▁उपबीत	-6504
▁उपायँ	-6505
▁उपारी	-6506
▁उबारा	-6507
▁कज्जल	-6508
▁कदराई	-6509
▁करतार	-6510
▁करिबर	-6511
▁करिही	-6512
▁कलेसा	-6513
▁कलेसु	-6514
▁कहावत	-6515
▁कालहि	-6516
▁कालहु	-6517
▁कुंडल	-6518
▁कुतरक	-6519
▁कुपंथ	-6520
▁कुबेष	-6521
▁कुरंग	-6522
▁केवटु	-6523
▁क्यों	-6524
▁गँभीर	-6525
▁गंभीर	-6526
▁गर्जत	-6527
▁गवाँई	-6528
▁गाढ़ी	-6529
▁ग्रंथ	-6530
▁ग्रसन	-6531
▁चलिहि	-6532
▁चलेउँ	-6533
▁चहहिं	-6534
▁चौथें	-6535
▁छाड़े	-6536
▁जड़ता	-6537
▁जनवास	-6538
▁जमपुर	-6539
▁जेवाँ	-6540
▁डोलति	-6541
▁तरंगा	-6542
▁तिमिर	-6543
▁तीनिउ	-6544
▁तैसें	-6545
▁देइहि	-6546
▁देखरा	-6547
▁देवता	-6548
▁धनुषु	-6549
▁धर्मा	-6550
▁नचावा	-6551
▁नमामी	-6552
▁नरेसा	-6553
▁नसावा	-6554
▁नाराच	-6555
▁निकाय	-6556
▁निदरि	-6557
▁निरखत	-6558
▁न्हाइ	-6559
▁पखारन	-6560
▁पतंगा	-6561
▁पतिहि	-6562
▁पसारी	-6563
▁पहिरि	-6564
▁पाकरि	-6565
▁पाछिल	-6566
▁पारहि	-6567
▁पावहु	-6568
▁पावौं	-6569
▁पिआरा	-6570
▁पिआरे	-6571
▁पिआसे	-6572
▁पुलके	-6573
▁पूछहु	-6574
▁पूछें	-6575
▁प्रीत	-6576
▁बढ़ाइ	-6577
▁बनदेव	-6578
▁बनबास	-6579
▁बनाएँ	-6580
▁बनिता	-6581
▁बयारि	-6582
▁बरनउँ	-6583
▁बलवंत	-6584
▁बसहुँ	-6585
▁बसिहि	-6586
▁बहुतक	-6587
▁बहूता	-6588
▁बाँकी	-6589
▁बाँधे	-6590
▁बापीं	-6591
▁बिंजन	-6592
▁बिकसे	-6593
▁बिघ्न	-6594
▁बिधंस	-6595
▁बिबरन	-6596
▁बिरचि	-6597
▁बिरहु	-6598
▁बिलखा	-6599
▁बिलगा	-6600
▁बिसरे	-6601
▁बिसेष	-6602
▁बैठीं	-6603
▁ब्याज	-6604
▁ब्योम	-6605
▁ब्रह्	-6606
▁भच्छक	-6607
▁भजेहु	-6608
▁भरोसा	-6609
▁भलाईं	-6610
▁भुआला	-6611
▁भृंगा	-6612
▁मंडली	-6613
▁मकरंद	-6614
▁मध्यम	-6615
▁मनोभव	-6616
▁मर्दि	-6617
▁महीधर	-6618
▁महीसा	-6619
▁मागेउ	-6620
▁मिलें	-6621
▁मुकुत	-6622
▁रबिहि	-6623
▁रह्यो	-6624
▁राकेस	-6625
▁राखें	-6626
▁राजिव	-6627
▁रिसाइ	-6628
▁लगावा	-6629
▁लिलार	-6630
▁लौकिक	-6631
▁ल्याए	-6632
▁सकुचे	-6633
▁सदगुन	-6634
▁सनेहा	-6635
▁सपच्छ	-6636
▁समागम	-6637
▁समुझु	-6638
▁सरीरु	-6639
▁सहहिं	-6640
▁सांति	-6641
▁सिष्य	-6642
▁सुगति	-6643
▁सुसंग	-6644
▁सेब्य	-6645
▁हरषाई	-6646
जनकसुता	-6647
▁अंबुधि	-6648
▁अकुलाइ	-6649
▁अनुसरई	-6650
▁अपराधा	-6651
▁अबिबेक	-6652
▁अमरपति	-6653
▁अमरपुर	-6654
▁आश्रित	-6655
▁इंदिरा	-6656
▁उपदेसा	-6657
▁कटकटाइ	-6658
▁कबिकुल	-6659
▁कामरूप	-6660
▁कामादि	-6661
▁किसोरा	-6662
▁कुटुंब	-6663
▁कुठारी	-6664
▁कुमारग	-6665
▁कुलगुर	-6666
▁कृतजुग	-6667
▁कृतांत	-6668
▁कृसानू	-6669
▁कैकइहि	-6670
▁खगराजा	-6671
▁खगराया	-6672
▁खेलहिं	-6673
▁गाजहिं	-6674
▁गिरिबर	-6675
▁ग्याति	-6676
▁चंदिनि	-6677
▁चतुरंग	-6678
▁चाहहिं	-6679
▁चितवनि	-6680
▁जनवासे	-6681
▁जलजाता	-6682
▁जल्पसि	-6683
▁जानेसु	-6684
▁जितेहु	-6685
▁जेवनार	-6686
▁जोगिनि	-6687
▁जोहारि	-6688
▁डारहिं	-6689
▁त्रिबे	-6690
▁दच्छिन	-6691
▁दामिनी	-6692
▁दिनेसा	-6693
▁दुस्तर	-6694
▁दृढ़ाई	-6695
▁देवसरि	-6696
▁द्रब्य	-6697
▁द्वापर	-6698
▁धावहीं	-6699
▁नभबानी	-6700
▁नसावनि	-6701
▁निअराई	-6702
▁निबाहू	-6703
▁निबिड़	-6704
▁निरंजन	-6705
▁निरुपम	-6706
▁निरूपन	-6707
▁निर्भय	-6708
▁निर्भर	-6709
▁निवारि	-6710
▁निहारा	-6711
▁निहोरी	-6712
▁पंचानन	-6713
▁पढ़हिं	-6714
▁परिहरे	-6715
▁पहुनाई	-6716
▁पायन्ह	-6717
▁पालकीं	-6718
▁पिरीते	-6719
▁पुष्पक	-6720
▁पूजहिं	-6721
▁पूजिहि	-6722
▁प्रमान	-6723
▁प्रसीद	-6724
▁प्रातक	-6725
▁प्रेरक	-6726
▁बढ़ावा	-6727
▁बनबासी	-6728
▁बनमाला	-6729
▁बरनहिं	-6730
▁बलसीला	-6731
▁बामदेव	-6732
▁बिधिहि	-6733
▁बिबेकी	-6734
▁बिराजे	-6735
▁बिलोकन	-6736
▁बिलोकु	-6737
▁बिसराई	-6738
▁बिसारद	-6739
▁बिहँसे	-6740
▁बैनतेय	-6741
▁ब्याधि	-6742
▁ब्याहु	-6743
▁भिखारि	-6744
▁भिरहिं	-6745
▁मनुजाद	-6746
▁महाबीर	-6747
▁महामोह	-6748
▁मीजहिं	-6749
▁लातन्ह	-6750
▁लोगाईं	-6751
▁विभीषन	-6752
▁श्रीभग	-6753
▁श्रेनी	-6754
▁श्रोता	-6755
▁सँदेसु	-6756
▁सँदेसू	-6757
▁सँवारा	-6758
▁संघारा	-6759
▁संदेहु	-6760
▁संधाना	-6761
▁संधानि	-6762
▁संधाने	-6763
▁संध्या	-6764
▁संपन्न	-6765
▁संबादा	-6766
▁सतिभाउ	-6767
▁सरबग्य	-6768
▁सरासनु	-6769
▁सर्वदा	-6770
▁सुखमूल	-6771
▁सुधाकर	-6772
▁सुधासम	-6773
▁सुनेहि	-6774
▁सुबाहु	-6775
▁सुरारी	-6776
▁सुसेवक	-6777
▁सेवकहि	-6778
▁सोहहीं	-6779
▁स्वमति	-6780
▁स्वर्ग	-6781
▁हरिकथा	-6782
प्रथमहिं	-6783
▁अंगदादि	-6784
▁अंतरधान	-6785
▁अनुरूपा	-6786
▁अभिलाषे	-6787
▁अभिषेका	-6788
▁इष्टदेव	-6789
▁कामधेनु	-6790
▁कुअवसरु	-6791
▁कुमंत्र	-6792
▁खिसिआना	-6793
▁गिरिन्ह	-6794
▁गिरिराज	-6795
▁चतुरानन	-6796
▁चलावहिं	-6797
▁चिदानंद	-6798
▁जथाजोगु	-6799
▁जुड़ाने	-6800
▁तर्जहिं	-6801
▁तुलसिका	-6802
▁त्रिसूल	-6803
▁द्रवहिं	-6804
▁निदरहिं	-6805
▁निरखहिं	-6806
▁निर्बान	-6807
▁निषादहि	-6808
▁नृपनीति	-6809
▁पतिब्रत	-6810
▁पत्रिका	-6811
▁परद्रोह	-6812
▁परितोषू	-6813
▁परिनामा	-6814
▁परिहरहु	-6815
▁परिहरिअ	-6816
▁पहिचाना	-6817
▁पुलस्ति	-6818
▁प्रकृति	-6819
▁प्रतीती	-6820
▁प्रबेसु	-6821
▁प्रभंजन	-6822
▁प्रयासा	-6823
▁प्रवाना	-6824
▁प्रसादु	-6825
▁प्रानपि	-6826
▁प्रानहु	-6827
▁बजावहिं	-6828
▁बालमीकि	-6829
▁बालिसुत	-6830
▁बिलोकति	-6831
▁बिलोकनि	-6832
▁बिहंगबर	-6833
▁बीथिन्ह	-6834
▁बृषकेतु	-6835
▁भुजदंडा	-6836
▁भूमिसुर	-6837
▁भृगुपति	-6838
▁मंडपहिं	-6839
▁महोत्सव	-6840
▁मुनिराऊ	-6841
▁मुनिराज	-6842
▁मुसुकाइ	-6843
▁रनिवासू	-6844
▁रावनारि	-6845
▁रिषिन्ह	-6846
▁लंकापति	-6847
▁श्रीपति	-6848
▁सदग्रंथ	-6849
▁सनकादिक	-6850
▁सपनेहूँ	-6851
▁समुझाईं	-6852
▁सरसीरुह	-6853
▁सिरन्हि	-6854
▁सिलीमुख	-6855
▁सुतंत्र	-6856
▁सुनतहिं	-6857
▁सुभासुभ	-6858
▁सुरधेनु	-6859
▁सुरराजू	-6860
▁सेवकाईं	-6861
▁सोहाहीं	-6862
▁स्वारथी	-6863
▁हरिजाना	-6864
▁हरिमाया	-6865
▁हाहाकार	-6866
▁उच्चरहीं	-6867
▁कीन्हिहु	-6868
▁चपेटन्हि	-6869
▁त्रिभुअन	-6870
▁दुर्बादा	-6871
▁पयादेहिं	-6872
▁प्रगटेसि	-6873
▁बरातिन्ह	-6874
▁बिस्वनाथ	-6875
▁बिहंगपति	-6876
▁ब्यापिहि	-6877
▁ब्रह्माँ	-6878
▁भ्रातन्ह	-6879
▁मिथिलेसू	-6880
▁मुद्रिका	-6881
▁मुनिनाथा	-6882
▁मुनिबृंद	-6883
▁मुनिराया	-6884
▁मुसुकानी	-6885
▁रघुनाथहि	-6886
▁रमानिवास	-6887
▁रिपुसूदन	-6888
▁संग्रामा	-6889
▁संन्यासी	-6890
▁सनमानहिं	-6891
▁साँचेहुँ	-6892
▁सुकुमारि	-6893
▁सुग्रीवँ	-6894
▁सुग्रीवा	-6895
▁सुनावहीं	-6896
▁सुनिहहिं	-6897
▁हनुमदादि	-6898
▁कौसल्यादि	-6899
▁पवनकुमारा	-6900
▁प्रसंसहिं	-6901
▁प्रेमबिबस	-6902
▁प्रेमाकुल	-6903
▁मंत्रिन्ह	-6904
▁मुसुकाहिं	-6905
▁रघुकुलमनि	-6906
▁राजकुमारी	-6907
▁सुरत्राता	-6908
▁करुनानिधान	-6909
▁त्रिपुरारि	-6910
▁ब्रह्मादिक	-6911
ंख	-6912
ंव	-6913
अज	-6914
अप	-6915
आँ	-6916
आन	-6917
इक	-6918
इल	-6919
उप	-6920
कस	-6921
गइ	-6922
गो	-6923
गौ	-6924
झा	-6925
टन	-6926
तस	-6927
नउ	-6928
नख	-6929
नौ	-6930
पठ	-6931
फत	-6932
ब्	-6933
भत	-6934
मई	-6935
यण	-6936
यू	-6937
ल्	-6938
वं	-6939
वे	-6940
सठ	-6941
सृ	-6942
हल	-6943
िआ	-6944
ैव	-6945
ों	-6946
्थ	-6947
॥॥	-6948
ंचन	-6949
ंडा	-6950
ंसि	-6951
अधम	-6952
अवध	-6953
अहि	-6954
इति	-6955
ऐहि	-6956
कछु	-6957
कटि	-6958
कलप	-6959
कलि	-6960
कहा	-6961
कही	-6962
किए	-6963
कुट	-6964
खित	-6965
गंग	-6966
गगन	-6967
गयउ	-6968
गात	-6969
गार	-6970
घोर	-6971
चंद	-6972
चरा	-6973
चला	-6974
चेउ	-6975
जनम	-6976
जनि	-6977
जलु	-6978
जित	-6979
ज्ज	-6980
झपट	-6981
ड़ी	-6982
तरि	-6983
तीं	-6984
तेउ	-6985
दनु	-6986
दिए	-6987
देत	-6988
देह	-6989
धनी	-6990
धीन	-6991
नहि	-6992
नेउ	-6993
पनु	-6994
पहं	-6995
पहि	-6996
पाइ	-6997
पास	-6998
पुत	-6999
दसर	-7000
नाघ	-7001
पदु	-7002
पेउ	-7003
बड़	-7004
बदन	-7005
बधु	-7006
बरं	-7007
बरे	-7008
बिष	-7009
बीच	-7010
ब्ज	-7011
भरि	-7012
भवं	-7013
भुं	-7014
भें	-7015
मंड	-7016
मरु	-7017
महा	-7018
मृत	-7019
मेउ	-7020
रती	-7021
रना	-7022
रही	-7023
राख	-7024
रुन	-7025
रुब	-7026
लिए	-7027
लें	-7028
ल्ल	-7029
वधि	-7030
वना	-7031
श्व	-7032
सकु	-7033
सजल	-7034
सजि	-7035
सहि	-7036
सीस	-7037
हनु	-7038
हरी	-7039
हला	-7040
होइ	-7041
ागे	-7042
ानल	-7043
ाले	-7044
ावँ	-7045
िति	-7046
ीरथ	-7047
ुनी	-7048
ूहा	-7049
ृथक	-7050
ेदा	-7051
ोदु	-7052
ोधु	-7053
ोला	-7054
ौढ़	-7055
ौती	-7056
ौलि	-7057
्था	-7058
्यक	-7059
्सर	-7060
▁अइ	-7061
▁अख	-7062
▁आल	-7063
▁ऐन	-7064
▁ओऊ	-7065
▁क्	-7066
▁गच	-7067
▁चख	-7068
▁टा	-7069
▁दए	-7070
▁नो	-7071
▁पक	-7072
▁पष	-7073
▁फा	-7074
▁भँ	-7075
▁मस	-7076
▁यत	-7077
▁रउ	-7078
▁रद	-7079
▁लस	-7080
▁सग	-7081
▁हट	-7082
▁हल	-7083
▁।।	-7084
ंथरा	-7085
अमित	-7086
अवसर	-7087
आरें	-7088
उतरि	-7089
कन्ह	-7090
कहुँ	-7091
कादि	-7092
कुरे	-7093
केवट	-7094
खानस	-7095
खोजत	-7096
गमेल	-7097
गर्भ	-7098
चंदु	-7099
मउ	-7100
आपु	-7101
चलत	-7102
भूत	-7103
महे	-7104
माय	-7105
र्त	-7106
लकत	-7107
संस	-7108
चकित	-7109
चतुर	-7110
चलहु	-7111
चारा	-7112
छिनु	-7113
जदपि	-7114
जननी	-7115
जन्म	-7116
जामि	-7117
तजउँ	-7118
तसुत	-7119
ताते	-7120
ताला	-7121
ताहि	-7122
तीनि	-7123
तेहु	-7124
दसरथ	-7125
दारा	-7126
दिति	-7127
देखे	-7128
देसा	-7129
द्यम	-7130
धानु	-7131
नादा	-7132
नादि	-7133
न्वी	-7134
पिता	-7135
पुरी	-7136
प्रग	-7137
फिरि	-7138
बयरु	-7139
बरनत	-7140
बरषि	-7141
बादि	-7142
बारि	-7143
बालि	-7144
बिधु	-7145
बुधि	-7146
बूझि	-7147
बेलि	-7148
भक्त	-7149
भिरे	-7150
भुवन	-7151
भ्रम	-7152
मितल	-7153
मिहि	-7154
मुरु	-7155
रतनु	-7156
रायत	-7157
रूपि	-7158
र्बा	-7159
लंबा	-7160
लाहक	-7161
लोकि	-7162
वंतु	-7163
वल्य	-7164
वहीं	-7165
वहुँ	-7166
वासा	-7167
श्रु	-7168
संभव	-7169
समयँ	-7170
साला	-7171
साली	-7172
सिंह	-7173
सिहि	-7174
सुगम	-7175
सुभग	-7176
सुमन	-7177
सेहु	-7178
स्वर	-7179
हियँ	-7180
ानाथ	-7181
ानेउ	-7182
ारथु	-7183
ाहिं	-7184
ुराई	-7185
्तार	-7186
॥48॥	-7187
॥66॥	-7188
॥67॥	-7189
॥68॥	-7190
॥69॥	-7191
॥70॥	-7192
॥71॥	-7193
॥72॥	-7194
॥73॥	-7195
॥78॥	-7196
॥79॥	-7197
॥84॥	-7198
॥85॥	-7199
थल	-7200
म्भ	-7201
राउ	-7202
हनी	-7203
▁ढह	-7204
जग्य	-7205
जोनी	-7206
त्ति	-7207
देखन	-7208
धरनि	-7209
बेषु	-7210
मत्त	-7211
वंता	-7212
ूटीं	-7213
्रान	-7214
॥122	-7215
॥62॥	-7216
॥63॥	-7217
॥81॥	-7218
॥83॥	-7219
॥87॥	-7220
॥88॥	-7221
॥91॥	-7222
॥92॥	-7223
॥93॥	-7224
॥94॥	-7225
॥95॥	-7226
॥96॥	-7227
॥97॥	-7228
॥98॥	-7229
॥99॥	-7230
▁अजर	-7231
▁अजस	-7232
▁अबल	-7233
▁अबा	-7234
▁आपू	-7235
▁उयउ	-7236
▁ऊँच	-7237
▁एकू	-7238
▁एही	-7239
▁ऐसि	-7240
▁कँग	-7241
▁कटत	-7242
▁करव	-7243
▁कली	-7244
▁काई	-7245
▁काठ	-7246
▁कीर	-7247
▁खंभ	-7248
▁खेद	-7249
▁गाँ	-7250
▁घटइ	-7251
▁चहै	-7252
▁चार	-7253
▁चीर	-7254
▁छति	-7255
▁छमब	-7256
▁छरस	-7257
▁छें	-7258
▁छोभ	-7259
▁जपि	-7260
▁जला	-7261
▁जाऊ	-7262
▁जुर	-7263
▁जेई	-7264
▁जेऊ	-7265
▁जेठ	-7266
▁जोऊ	-7267
▁झरो	-7268
▁झाँ	-7269
▁टरई	-7270
▁टेक	-7271
▁डरे	-7272
▁तथा	-7273
▁तनो	-7274
▁तमी	-7275
▁तरल	-7276
▁तरे	-7277
▁तार	-7278
▁तुअ	-7279
▁तून	-7280
▁तूल	-7281
▁तृप	-7282
▁त्व	-7283
▁थके	-7284
▁दधी	-7285
▁दलि	-7286
▁दहँ	-7287
▁दाप	-7288
▁दिआ	-7289
▁दिख	-7290
▁धनद	-7291
▁धरई	-7292
▁धरन	-7293
▁धरै	-7294
▁धूप	-7295
▁धोए	-7296
▁नगन	-7297
▁नति	-7298
▁नात	-7299
ंबर	-7300
घवँ	-7301
ण्य	-7302
हसि	-7303
कहिअ	-7304
कहेउ	-7305
कुरा	-7306
चक्र	-7307
निर्	-7308
नेमि	-7309
भोजन	-7310
लकंठ	-7311
▁तीय	-7312
▁नाद	-7313
▁निच	-7314
▁पटु	-7315
▁पठई	-7316
▁पनव	-7317
▁पनस	-7318
▁पलो	-7319
▁पाठ	-7320
▁पीठ	-7321
▁फंद	-7322
▁फेन	-7323
▁बधब	-7324
▁बरइ	-7325
▁बरई	-7326
▁बरत	-7327
▁बसउ	-7328
▁बिथ	-7329
▁बृत	-7330
▁भइँ	-7331
▁भजत	-7332
▁भयो	-7333
▁भीम	-7334
▁भूख	-7335
▁भेक	-7336
▁मरइ	-7337
▁मरई	-7338
▁मरि	-7339
▁मरै	-7340
▁मला	-7341
▁मूक	-7342
▁मोल	-7343
▁रिझ	-7344
▁रीछ	-7345
▁लखा	-7346
▁लगत	-7347
▁लपे	-7348
▁लवन	-7349
▁लसत	-7350
▁लोह	-7351
▁सकि	-7352
▁सको	-7353
▁सजग	-7354
▁सजे	-7355
▁सठु	-7356
▁समे	-7357
▁साग	-7358
▁सान	-7359
▁सुध	-7360
▁सूप	-7361
▁सृज	-7362
▁सेई	-7363
▁सेस	-7364
▁सोन	-7365
▁सोर	-7366
▁सौच	-7367
▁हनी	-7368
▁हेम	-7369
▁॥2॥	-7370
▁॥3॥	-7371
ंजुलि	-7372
अतिसय	-7373
इंद्र	-7374
एकहिं	-7375
कन्हि	-7376
कीन्ह	-7377
ग्राम	-7378
छिमनु	-7379
जातें	-7380
ज्ञान	-7381
तंत्र	-7382
दातमा	-7383
नामृत	-7384
निवास	-7385
निहार	-7386
पुन्य	-7387
पूँछत	-7388
बदनीं	-7389
बयनीं	-7390
बिनती	-7391
बिनोद	-7392
बिपुल	-7393
बृंदा	-7394
बृद्ध	-7395
भक्ति	-7396
भाँती	-7397
मंत्र	-7398
मंदोद	-7399
बटी	-7400
प्रमे	-7401
मनिशं	-7402
मिनीं	-7403
म्बुज	-7404
राँसू	-7405
लापति	-7406
श्रवन	-7407
सनमुख	-7408
सानुज	-7409
सिथिल	-7410
सीतहि	-7411
सुकृत	-7412
सुतोष	-7413
सुदिन	-7414
होइहि	-7415
ागीसा	-7416
ारेहु	-7417
्टहास	-7418
्यवंत	-7419
्लहिं	-7420
।।1।।	-7421
।।5।।	-7422
॥100॥	-7423
॥102॥	-7424
॥103॥	-7425
॥104॥	-7426
॥105॥	-7427
॥106॥	-7428
॥107॥	-7429
॥108॥	-7430
॥110॥	-7431
॥127॥	-7432
॥128॥	-7433
॥129॥	-7434
॥4-5॥	-7435
▁अंका	-7436
▁अंगन	-7437
▁अंगा	-7438
▁अंता	-7439
▁अंबक	-7440
▁अथवा	-7441
▁अपडर	-7442
▁अपनप	-7443
▁अपहर	-7444
▁अबुध	-7445
▁अभेद	-7446
▁अयना	-7447
▁अरघु	-7448
▁असनु	-7449
▁अस्त	-7450
▁आइहि	-7451
▁आधीन	-7452
▁आनहि	-7453
▁आनिअ	-7454
▁आनौं	-7455
▁आपनी	-7456
▁आवउँ	-7457
▁आहिं	-7458
▁उछंग	-7459
▁उड़त	-7460
▁उतंग	-7461
▁उतपा	-7462
▁उतरन	-7463
▁उदयँ	-7464
▁उपहा	-7465
▁ऊतरु	-7466
▁एहीं	-7467
▁कंजा	-7468
▁कंटक	-7469
▁कंदा	-7470
▁कंबु	-7471
▁कदरा	-7472
▁कदलि	-7473
▁कपोल	-7474
▁कबंध	-7475
▁कवने	-7476
▁कहाइ	-7477
▁कहैं	-7478
▁काटी	-7479
▁कामद	-7480
▁काया	-7481
▁कारु	-7482
▁किरी	-7483
▁कुंद	-7484
▁कुपथ	-7485
▁कुमा	-7486
▁केलि	-7487
▁केहू	-7488
▁कोकी	-7489
▁कोपर	-7490
▁कोपी	-7491
▁कोहू	-7492
▁खारा	-7493
▁खाहु	-7494
▁खीसा	-7495
▁खेदा	-7496
▁खेला	-7497
▁गमनु	-7498
▁गवनी	-7499
▁गहरु	-7500
▁गाईं	-7501
▁गाऊँ	-7502
▁गाजे	-7503
▁गाथे	-7504
▁गारि	-7505
▁गिरे	-7506
▁गुहा	-7507
▁गृही	-7508
▁गोपद	-7509
▁घमंड	-7510
▁घाली	-7511
▁घेरि	-7512
▁घेरे	-7513
▁घोरे	-7514
▁चक्क	-7515
▁चढ़इ	-7516
▁चढ़ा	-7517
▁चलाई	-7518
▁चलाए	-7519
▁चहति	-7520
▁चहूँ	-7521
▁चापु	-7522
▁चाही	-7523
▁चितए	-7524
▁चीरा	-7525
▁चोरि	-7526
▁चोरी	-7527
▁चौहट	-7528
▁छाला	-7529
▁छाहँ	-7530
▁छीनि	-7531
▁छीने	-7532
▁छूटइ	-7533
▁छूटि	-7534
▁छोड़	-7535
▁जगमय	-7536
▁जच्छ	-7537
▁जनमत	-7538
▁जनेऊ	-7539
▁जलधर	-7540
▁जवास	-7541
▁जाइअ	-7542
▁जाएँ	-7543
▁जाकर	-7544
▁जाकी	-7545
▁जाया	-7546
▁जारी	-7547
▁जिता	-7548
▁जिति	-7549
▁जुबा	-7550
▁जैसे	-7551
▁जोगा	-7552
▁जोति	-7553
▁जोती	-7554
▁जोही	-7555
▁झूठइ	-7556
▁टारि	-7557
▁ठवनि	-7558
▁ठानी	-7559
▁डोली	-7560
▁तजउँ	-7561
▁तजें	-7562
▁तमाल	-7563
▁तरकि	-7564
▁तरिअ	-7565
▁ताकि	-7566
▁तानि	-7567
▁तारे	-7568
▁ताहु	-7569
▁ताहू	-7570
▁तिथि	-7571
▁तिला	-7572
▁तीनी	-7573
▁तुरी	-7574
▁तृषा	-7575
▁तेपि	-7576
▁तोमर	-7577
▁तोषे	-7578
▁थलहि	-7579
▁थाहा	-7580
▁दहेऊ	-7581
▁दावा	-7582
▁दाहा	-7583
▁दीजे	-7584
▁दीजै	-7585
▁दुरत	-7586
▁दुरे	-7587
▁दुहि	-7588
▁दूजी	-7589
▁दूना	-7590
▁देखइ	-7591
▁देता	-7592
▁दोना	-7593
▁दोसू	-7594
▁दोहा	-7595
▁धरउँ	-7596
▁धरमू	-7597
▁धरेऊ	-7598
▁ध्रु	-7599
▁नतरु	-7600
▁नसाई	-7601
▁नाउँ	-7602
▁नाघि	-7603
▁नाचत	-7604
▁नासी	-7605
▁निधन	-7606
▁निरी	-7607
▁निलज	-7608
▁नीकि	-7609
▁नीचा	-7610
▁नीचु	-7611
▁नीचू	-7612
▁नीरज	-7613
▁नेकु	-7614
▁नौमी	-7615
▁पदार	-7616
▁पयान	-7617
▁परधन	-7618
▁पराग	-7619
▁पादु	-7620
▁पापा	-7621
▁पावई	-7622
▁पावै	-7623
▁पाहन	-7624
▁पाही	-7625
▁पिना	-7626
▁पीठि	-7627
▁पीपर	-7628
▁पुरु	-7629
▁पूछन	-7630
▁पूजत	-7631
▁पूरा	-7632
▁पेखी	-7633
▁पैठत	-7634
▁पैठे	-7635
▁फूले	-7636
▁फेरी	-7637
▁बंका	-7638
▁बंदत	-7639
▁बंदन	-7640
▁बधाए	-7641
▁बधिक	-7642
▁बरषइ	-7643
▁बरहि	-7644
▁बरिस	-7645
▁बरुन	-7646
▁बसति	-7647
▁बसहँ	-7648
▁बसाए	-7649
▁बाउर	-7650
▁बागु	-7651
▁बाजन	-7652
▁बाजा	-7653
▁बाटा	-7654
▁बाहि	-7655
▁बिआह	-7656
▁बिचर	-7657
▁बिरथ	-7658
▁बिसा	-7659
▁बीचु	-7660
▁बीछी	-7661
▁बीना	-7662
▁बीसा	-7663
▁बृषभ	-7664
▁बैठन	-7665
▁बैभव	-7666
▁बैरी	-7667
▁बोरि	-7668
▁बोरी	-7669
▁भंजि	-7670
▁भरेउ	-7671
▁भलेउ	-7672
▁भवँर	-7673
▁भाएँ	-7674
▁भागु	-7675
▁भागू	-7676
▁भालू	-7677
▁भावइ	-7678
▁भावत	-7679
▁भावन	-7680
▁भिरे	-7681
▁भुजग	-7682
▁भोरि	-7683
▁भोरे	-7684
▁मदनु	-7685
▁मनाई	-7686
▁मयंक	-7687
▁मरकट	-7688
▁मरना	-7689
▁मरहु	-7690
▁मरिअ	-7691
▁महिं	-7692
▁माखा	-7693
▁माखी	-7694
▁माखे	-7695
▁माची	-7696
▁माथे	-7697
▁मानब	-7698
▁मीचू	-7699
▁मुदि	-7700
▁मेली	-7701
▁मेले	-7702
▁मोहई	-7703
▁मौलि	-7704
▁रंका	-7705
▁रचहु	-7706
▁रसिक	-7707
▁रहीं	-7708
▁रहौं	-7709
▁रीछा	-7710
▁रुदन	-7711
▁रूरे	-7712
▁रेनू	-7713
▁रोपा	-7714
▁रोपी	-7715
▁रोसू	-7716
▁रौरव	-7717
▁लगाए	-7718
▁लगें	-7719
▁लच्छ	-7720
▁लहऊँ	-7721
▁लहिअ	-7722
▁लाएँ	-7723
▁लेसु	-7724
▁लोकप	-7725
▁लोयन	-7726
▁व्या	-7727
▁शोभा	-7728
▁सँजो	-7729
▁सकउँ	-7730
▁सकति	-7731
▁सकहु	-7732
▁सजहु	-7733
▁सजें	-7734
▁सत्व	-7735
▁सदनु	-7736
▁सबनि	-7737
▁सहाइ	-7738
▁सहाए	-7739
▁सहिअ	-7740
▁सांत	-7741
▁साइँ	-7742
▁साखि	-7743
▁सापा	-7744
▁सारू	-7745
▁सालि	-7746
▁सावक	-7747
▁सिंह	-7748
▁सिखा	-7749
▁सिबि	-7750
▁सिवा	-7751
▁सीकर	-7752
▁सीला	-7753
▁सीसु	-7754
▁सुतु	-7755
▁सुनय	-7756
▁सुबस	-7757
▁सूकर	-7758
▁सूरा	-7759
▁सेनप	-7760
▁सेषु	-7761
▁सोकू	-7762
▁सोधा	-7763
▁सोना	-7764
▁सोषक	-7765
▁सोही	-7766
▁हतौं	-7767
▁हरषा	-7768
▁हहरि	-7769
▁हाटक	-7770
▁हियो	-7771
▁हुला	-7772
▁हेरी	-7773
▁होसि	-7774
अवलोकि	-7775
कीन्हि	-7776
खिअहिं	-7777
गर्जेउ	-7778
गामिनि	-7779
झपटहिं	-7780
दूतन्ह	-7781
देखहिं	-7782
द्यमान	-7783
न्यपात	-7784
पुलकित	-7785
बरषहिं	-7786
बारहिं	-7787
बिधिहि	-7788
बेरपुर	-7789
भलेहिं	-7790
भृकुटि	-7791
मद्राम	-7792
मुनिबर	-7793
सुरपति	-7794
सुरसरि	-7795
सृष्टि	-7796
सेवहिं	-7797
ारिन्ह	-7798
▁अकंपन	-7799
▁अकाजा	-7800
▁अगवान	-7801
▁अगाधा	-7802
▁अघारी	-7803
▁अचरजु	-7804
▁अतिका	-7805
▁अदभुत	-7806
▁अदिति	-7807
▁अधर्म	-7808
▁अधिका	-7809
▁अधिकु	-7810
▁अनंदे	-7811
▁अनन्य	-7812
▁अनाथा	-7813
▁अनादी	-7814
▁अनामय	-7815
▁अनीती	-7816
▁अपनाई	-7817
▁अबहीं	-7818
▁अमानी	-7819
▁अरंभा	-7820
▁अवरेब	-7821
▁असत्य	-7822
▁अहारा	-7823
▁अहारी	-7824
▁अहारू	-7825
▁आगवनु	-7826
▁आगारा	-7827
▁आपुनु	-7828
▁उघारे	-7829
▁उजारा	-7830
▁उड़ाइ	-7831
▁उतपति	-7832
▁उतपात	-7833
▁उतारी	-7834
▁उत्तम	-7835
▁उपचार	-7836
▁उपजाए	-7837
▁उपहास	-7838
▁उपाया	-7839
▁उमगेउ	-7840
▁उसासा	-7841
▁कंदुक	-7842
▁कंपति	-7843
▁कंपित	-7844
▁कमनीय	-7845
▁करतबु	-7846
▁करहुँ	-7847
▁करिनि	-7848
▁कर्मा	-7849
▁कलपना	-7850
▁कवनिउ	-7851
▁कहारा	-7852
▁कहावा	-7853
▁कह्यो	-7854
▁काकभु	-7855
▁काछें	-7856
▁कामना	-7857
▁कामबस	-7858
▁कुकबि	-7859
▁कुरोग	-7860
▁कुसमउ	-7861
▁केतिक	-7862
▁केरें	-7863
▁खगराई	-7864
▁खगराज	-7865
▁खभारू	-7866
▁खरभरु	-7867
▁खाहिं	-7868
▁खिन्न	-7869
▁खैंचि	-7870
▁गजराज	-7871
▁गनेसु	-7872
▁गरुआई	-7873
▁गवनहु	-7874
▁गहहिं	-7875
▁गिरीस	-7876
▁गुपुत	-7877
▁घनेरा	-7878
▁चकोरी	-7879
▁चरननि	-7880
▁चरहीं	-7881
▁चाहउँ	-7882
▁चितवा	-7883
▁छत्री	-7884
▁जंबुक	-7885
▁जगावा	-7886
▁जनावा	-7887
▁जपहिं	-7888
▁जमुना	-7889
▁जहाजू	-7890
▁जाएहु	-7891
▁जागें	-7892
▁जातना	-7893
▁जातें	-7894
▁जानहि	-7895
▁जेहीं	-7896
▁जैहउँ	-7897
▁जोगवत	-7898
▁ज्ञान	-7899
▁डरपहु	-7900
▁डरहीं	-7901
▁डेराई	-7902
▁तलावा	-7903
▁तहवाँ	-7904
▁तासों	-7905
▁तिलकु	-7906
▁तुरंग	-7907
▁तुरंत	-7908
▁तुहिन	-7909
▁दरबार	-7910
▁दवारी	-7911
▁दसकंध	-7912
▁दसहुँ	-7913
▁दहहीं	-7914
▁दायकु	-7915
▁दासीं	-7916
▁दुआरा	-7917
▁दुकाल	-7918
▁दुबिद	-7919
▁दुर्म	-7920
▁दुहूँ	-7921
▁दूषनु	-7922
▁देखाए	-7923
▁देखीं	-7924
▁देवाई	-7925
▁देहउँ	-7926
▁द्रवउ	-7927
▁धनवंत	-7928
▁धन्वी	-7929
▁धरेहु	-7930
▁नचावत	-7931
▁नबीना	-7932
▁नरपाल	-7933
▁नररूप	-7934
▁नातें	-7935
▁नाथहि	-7936
▁निमज्	-7937
▁निसरि	-7938
▁निहोर	-7939
▁नीलहि	-7940
▁पच्छि	-7941
▁पठाईं	-7942
▁पनहीं	-7943
▁पराने	-7944
▁परिकर	-7945
▁परुसन	-7946
▁परेउँ	-7947
▁पहारा	-7948
▁पाँति	-7949
▁पाताल	-7950
▁पारसु	-7951
▁पावउँ	-7952
▁पावकु	-7953
▁पाषान	-7954
▁पियहि	-7955
▁पिसुन	-7956
▁पूगफल	-7957
▁पूरुब	-7958
▁प्रला	-7959
▁फिरिअ	-7960
▁बंदित	-7961
▁बगमेल	-7962
▁बजारू	-7963
▁बड़ें	-7964
▁बनहिं	-7965
▁बनाईं	-7966
▁बनिहि	-7967
▁बरासन	-7968
▁बरिआई	-7969
▁बलहीन	-7970
▁बलाहक	-7971
▁बल्लभ	-7972
▁बसुधा	-7973
▁बहहिं	-7974
▁बाँके	-7975
▁बाँची	-7976
▁बाढ़ि	-7977
▁बापुर	-7978
▁बारीस	-7979
▁बिंदु	-7980
▁बिआहू	-7981
▁बितान	-7982
▁बिलंब	-7983
▁बिषइक	-7984
▁बिषया	-7985
▁बिसमउ	-7986
▁बिसरी	-7987
▁बिहसा	-7988
▁बिहाल	-7989
▁बीथीं	-7990
▁बूझिअ	-7991
▁बूढ़ा	-7992
▁बैठें	-7993
▁बैठेउ	-7994
▁बोलनि	-7995
▁बोहित	-7996
▁भाजनु	-7997
▁भिल्ल	-7998
▁भुअंग	-7999
▁भूपाल	-8000
▁भूषित	-8001
▁भेंटा	-8002
▁भ्रमत	-8003
▁भ्रात	-8004
▁मंथरा	-8005
▁मंदरु	-8006
▁मगाईं	-8007
▁मत्सर	-8008
▁मनोमल	-8009
▁मरजाद	-8010
▁मरहिं	-8011
▁मराली	-8012
▁मरिहि	-8013
▁मर्दन	-8014
▁मलीनी	-8015
▁महेसू	-8016
▁मागें	-8017
▁मानउँ	-8018
▁मानिक	-8019
▁मारउँ	-8020
▁मारेउ	-8021
▁माहुर	-8022
▁मीनगन	-8023
▁मुक्त	-8024
▁मृगया	-8025
▁मृदंग	-8026
▁मोचनि	-8027
▁रघुबं	-8028
▁रघुवर	-8029
▁रहेहु	-8030
▁राखिअ	-8031
▁राच्छ	-8032
▁रिपुद	-8033
▁लंकाँ	-8034
▁लघुता	-8035
▁लजानी	-8036
▁लयलीन	-8037
▁लरहिं	-8038
▁लरहीं	-8039
▁लरिका	-8040
▁लहेउँ	-8041
▁लाघवँ	-8042
▁लोभाई	-8043
▁श्रमु	-8044
▁संकोच	-8045
▁संजुग	-8046
▁संसृत	-8047
▁सकुचत	-8048
▁सचिवँ	-8049
▁सदगुर	-8050
▁सनाथा	-8051
▁समानी	-8052
▁समिटि	-8053
▁समीपा	-8054
▁सरबसु	-8055
▁सराहा	-8056
▁सरोबर	-8057
▁सलिलु	-8058
▁साँगी	-8059
▁सारंग	-8060
▁सिखाई	-8061
▁सिखाए	-8062
▁सींचत	-8063
▁सींचि	-8064
▁सीताँ	-8065
▁सुआसन	-8066
▁सुक्र	-8067
▁सुदिन	-8068
▁सुदेस	-8069
▁सुप्र	-8070
▁सुबास	-8071
▁सुरबर	-8072
▁सुरभी	-8073
▁सुराज	-8074
▁सोहाग	-8075
▁हन्यो	-8076
▁हरषाइ	-8077
▁हरहिं	-8078
▁हरहीं	-8079
▁हुलसी	-8080
▁होहीं	-8081
▁होहुँ	-8082
अस्तुति	-8083
कुंभकरन	-8084
धर्मसील	-8085
फुल्लित	-8086
बहुबिधि	-8087
भृगुपति	-8088
मंदोदरी	-8089
संग्राम	-8090
▁अगवाना	-8091
▁अतुलबल	-8092
▁अनुसरे	-8093
▁अनुहरत	-8094
▁अपकारी	-8095
▁अपबर्ग	-8096
▁अपराधी	-8097
▁अभागें	-8098
▁अभिलाष	-8099
▁अलंकृत	-8100
▁अवग्या	-8101
▁अवलंबा	-8102
▁अवलोकत	-8103
▁अवलोकी	-8104
▁अवसाना	-8105
▁अवसेषा	-8106
▁अहिवात	-8107
▁आदरहिं	-8108
▁आश्रमु	-8109
▁उपदेसू	-8110
▁ऐसेहिं	-8111
▁कबिन्ह	-8112
▁करन्हि	-8113
▁काँधें	-8114
▁काँवरि	-8115
▁कामिहि	-8116
▁कुंचित	-8117
▁कुतर्क	-8118
▁कुमारि	-8119
▁कृपालु	-8120
▁कैवल्य	-8121
▁कोसलेस	-8122
▁कौसिला	-8123
▁खगनाहा	-8124
▁गर्जेउ	-8125
▁गवँहिं	-8126
▁गुनाकर	-8127
▁गौरीसा	-8128
▁ग्याता	-8129
▁ग्यानि	-8130
▁ग्रीषम	-8131
▁घननादा	-8132
▁घुर्मि	-8133
▁चढ़ाईं	-8134
▁चुनौती	-8135
▁छाड़िअ	-8136
▁जगतपति	-8137
▁जड़ताई	-8138
▁जथाजोग	-8139
▁जनकपुर	-8140
▁जयमाला	-8141
▁जाचहिं	-8142
▁जानकीं	-8143
▁जानहुँ	-8144
▁जानिहि	-8145
▁जानेहि	-8146
▁जामहिं	-8147
▁जीतेहु	-8148
▁जीवन्ह	-8149
▁जोगिजन	-8150
▁जोहारी	-8151
▁जोहारु	-8152
▁जोहारे	-8153
▁डेराने	-8154
▁तत्त्व	-8155
▁तरवारि	-8156
▁तरुनाई	-8157
▁ताड़का	-8158
▁तिसिरा	-8159
▁त्रसित	-8160
▁दासन्ह	-8161
▁दुराएँ	-8162
▁दुरावा	-8163
▁दूतन्ह	-8164
▁दृष्टि	-8165
▁द्वारे	-8166
▁नखन्हि	-8167
▁नतोऽहं	-8168
▁नमामहे	-8169
▁नहाहीं	-8170
▁नागपास	-8171
▁नासहिं	-8172
▁निदाना	-8173
▁निधानू	-8174
▁निपाति	-8175
▁निबाहा	-8176
▁निरवधि	-8177
▁निरुपा	-8178
▁निवारन	-8179
▁नीलकंठ	-8180
▁परतीती	-8181
▁पराधीन	-8182
▁पराहीं	-8183
▁परिहास	-8184
▁पारहिं	-8185
▁पाहुने	-8186
▁पिअहिं	-8187
▁पुकारत	-8188
▁पुकारि	-8189
▁पुरंदर	-8190
▁पुरवहु	-8191
▁पुराईं	-8192
▁पुरातन	-8193
▁पूँछउँ	-8194
▁पैहहिं	-8195
▁प्रगटत	-8196
▁प्रजहि	-8197
▁प्रधान	-8198
▁प्रलंब	-8199
▁प्रौढ़	-8200
▁फरकहिं	-8201
▁फिरेउँ	-8202
▁फूलहिं	-8203
▁बँधायो	-8204
▁बड़ेरे	-8205
▁बरदाना	-8206
▁बसीठीं	-8207
▁बहुबरन	-8208
▁बागीसा	-8209
▁बामदेउ	-8210
▁बारुनी	-8211
▁बिगारा	-8212
▁बिदूषक	-8213
▁बिनोदु	-8214
▁बिभंजि	-8215
▁बिमानु	-8216
▁बिमोचन	-8217
▁बियोगा	-8218
▁बियोगी	-8219
▁बियोगु	-8220
▁बिरागु	-8221
▁बिलखाइ	-8222
▁बिलगाई	-8223
▁बिलासु	-8224
▁बिलासू	-8225
▁बिलोका	-8226
▁बिसोकी	-8227
▁बिहँसा	-8228
▁बिहगेस	-8229
▁बिहाला	-8230
▁बुझावा	-8231
▁बूझहिं	-8232
▁बेताला	-8233
▁बैखानस	-8234
▁ब्राता	-8235
▁भगतिहि	-8236
▁भटमानी	-8237
▁भयंकरु	-8238
▁भयकारी	-8239
▁भामिनी	-8240
▁भूमितल	-8241
▁मयत्री	-8242
▁मरजादा	-8243
▁महाछबि	-8244
▁महामनि	-8245
▁महाराज	-8246
▁मागहिं	-8247
▁मारिहि	-8248
▁मारुति	-8249
▁मुएहुँ	-8250
▁मुकुंद	-8251
▁मुकुति	-8252
▁मुकुरु	-8253
▁मुक्ति	-8254
▁मुठिका	-8255
▁मुनीसु	-8256
▁मुष्टि	-8257
▁मृगपति	-8258
▁मृगराज	-8259
▁मोहहीं	-8260
▁रखवारा	-8261
▁रघुराउ	-8262
▁रतिनाथ	-8263
▁राखेसि	-8264
▁राजहिं	-8265
▁राजहीं	-8266
▁रामभगत	-8267
▁रामसखा	-8268
▁रिषिहि	-8269
▁रिसाना	-8270
▁लजाहीं	-8271
▁लपटानी	-8272
▁लरिकाई	-8273
▁लुकाने	-8274
▁श्रीहत	-8275
▁सँवारन	-8276
▁संतसभा	-8277
▁संतोषा	-8278
▁संतोषु	-8279
▁संपाती	-8280
▁संभारी	-8281
▁संसारू	-8282
▁सकुचति	-8283
▁सतानंद	-8284
▁सतिभाऊ	-8285
▁सनकादी	-8286
▁सनमाना	-8287
▁समदरसी	-8288
▁समर्पि	-8289
▁सर्बदा	-8290
▁सहसानन	-8291
▁सारिका	-8292
▁सिंधुर	-8293
▁सिधारे	-8294
▁सुकृतु	-8295
▁सुखकंद	-8296
▁सुतीछन	-8297
▁सुधारी	-8298
▁सुबंधु	-8299
▁सुमेरु	-8300
▁सुरगुर	-8301
▁सुरलोक	-8302
▁सुसीतल	-8303
▁सुसीला	-8304
▁सूपनखा	-8305
▁सोपाना	-8306
▁सोहाती	-8307
▁स्वागत	-8308
▁हँसहिं	-8309
▁हराँसू	-8310
▁हिमवंत	-8311
▁हिमाचल	-8312
▁हेरहिं	-8313
मंदोदरीं	-8314
मारुतसुत	-8315
▁अँधिआरा	-8316
▁अँधिआरी	-8317
▁अग्याना	-8318
▁अट्टहास	-8319
▁अबिबेका	-8320
▁अभिरामा	-8321
▁अभिषेकू	-8322
▁अरुनारे	-8323
▁असुरारी	-8324
▁उड़ाहिं	-8325
▁कटकटहिं	-8326
▁कालनेमि	-8327
▁कुभाँति	-8328
▁कोसलधनी	-8329
▁कोसलराऊ	-8330
▁गाधिसुत	-8331
▁गुनागार	-8332
▁चारिहुँ	-8333
▁छाड़ेसि	-8334
▁जुड़ानी	-8335
▁जोगवहिं	-8336
▁तपसिन्ह	-8337
▁तरिहहिं	-8338
▁तीरथपति	-8339
▁तीरथराज	-8340
▁तैसेहिं	-8341
▁त्रिकूट	-8342
▁दिगपाला	-8343
▁दुंदुभि	-8344
▁दुंदुभी	-8345
▁दुरबासा	-8346
▁दुर्बचन	-8347
▁धनुपानी	-8348
▁धरमरुचि	-8349
▁नचावहिं	-8350
▁नारदादि	-8351
▁नारिन्ह	-8352
▁निठुराई	-8353
▁निर्गुण	-8354
▁निर्मित	-8355
▁पछितावा	-8356
▁पयादेहि	-8357
▁परनकुटी	-8358
▁परसुराम	-8359
▁परितापा	-8360
▁परितापी	-8361
▁परिहरीं	-8362
▁परिहरेउ	-8363
▁पूँछिहु	-8364
▁पूरनकाम	-8365
▁प्रचारा	-8366
▁प्रतिमा	-8367
▁प्रबोधा	-8368
▁प्रभावा	-8369
▁प्रेममय	-8370
▁बलिहारी	-8371
▁बाँकुरा	-8372
▁बाँकुरे	-8373
▁बाहुबलु	-8374
▁बिनिंदक	-8375
▁बिरहागी	-8376
▁बिलपहिं	-8377
▁बिलोकहु	-8378
▁बिसुद्ध	-8379
▁बैदेहीं	-8380
▁मंदोदरि	-8381
▁मर्दहिं	-8382
▁महाधुनि	-8383
▁महिभारा	-8384
▁मारिहउँ	-8385
▁मुनितिय	-8386
▁मुनिनाथ	-8387
▁रघुराजु	-8388
▁रजनीचरा	-8389
▁राजनीति	-8390
▁राजसभाँ	-8391
▁रुद्रहि	-8392
▁लरिकाईं	-8393
▁लीन्हीं	-8394
▁श्रीखंड	-8395
▁श्रीमुख	-8396
▁सकुचानि	-8397
▁सतसंगति	-8398
▁समुझहिं	-8399
▁साँपिनि	-8400
▁सासुन्ह	-8401
▁सास्त्र	-8402
▁सिंगारु	-8403
▁सिंगारू	-8404
▁सिहाहिं	-8405
▁सुखप्रद	-8406
▁सुखरासी	-8407
▁सुखसागर	-8408
▁सुनाएसि	-8409
▁सुरगुरु	-8410
▁सुरराया	-8411
▁सुरासुर	-8412
▁सुलच्छन	-8413
▁सुसाहिब	-8414
▁स्वान्त	-8415
▁स्वारथु	-8416
▁हरषानीं	-8417
▁हिमवंतु	-8418
कौसल्यादि	-8419
चिक्करहिं	-8420
▁अकुलाहीं	-8421
▁अटारिन्ह	-8422
▁अनिमादिक	-8423
▁अनुरागें	-8424
▁आसिरबादु	-8425
▁कपिकुंजर	-8426
▁कुबुद्धि	-8427
▁कैकयसुता	-8428
▁कौतुकहीं	-8429
▁जनकसुतहि	-8430
▁त्यागहिं	-8431
▁त्रैलोका	-8432
▁पछिताहिं	-8433
▁पूरनकामा	-8434
▁प्राननाथ	-8435
▁बिगतश्रम	-8436
▁बिलखाहीं	-8437
▁बिस्तारी	-8438
▁बिस्वरूप	-8439
▁ब्रतधारी	-8440
▁भिनुसारा	-8441
▁माल्यवंत	-8442
▁मुनीसन्ह	-8443
▁मुसुकाना	-8444
▁मृगलोचनि	-8445
▁रघुनंदनु	-8446
▁सत्यकेतु	-8447
▁सप्तरिषि	-8448
▁समुझाएहु	-8449
▁सारथिन्ह	-8450
▁सिखावहिं	-8451
▁सुकुमारी	-8452
▁सुपुनीता	-8453
▁सुमिरहिं	-8454
▁सुरसरिहि	-8455
▁होनिहारा	-8456
▁उपरोहितहि	-8457
▁कृपानिकेत	-8458
▁क्रोधातुर	-8459
▁जीवनमुक्त	-8460
▁प्रतिबिंब	-8461
▁प्रबिसहिं	-8462
▁बालिकुमार	-8463
▁बिरिदावलि	-8464
▁बिष्नुभगत	-8465
▁ब्रह्मकुल	-8466
▁ब्रह्मसुख	-8467
▁मुनिबरन्ह	-8468
▁मुनिबृंदा	-8469
▁रामचन्द्र	-8470
▁सैलकुमारी	-8471
बिस्वामित्र	-8472
▁कोकिलबयनीं	-8473
▁परमारथबादी	-8474
▁प्रफुल्लित	-8475
▁प्रानपिआरे	-8476
▁रघुकुलतिलक	-8477
▁रिपुसूदनहि	-8478
▁श्रीमद्राम	-8479
▁सृंगबेरपुर	-8480
▁भानुकुलभूषन	-8481
चौ	-8482
छो	-8483
णश	-8484
रौ	-8485
6।।	-8486
ंपक	-8487
अकल	-8488
औरउ	-8489
काक	-8490
कास	-8491
घटत	-8492
घनं	-8493
घाट	-8494
जथा	-8495
टित	-8496
तूह	-8497
दंघ	-8498
दूत	-8499
चइ	-8500
करइ	-8501
देय	-8502
दोउ	-8503
द्व	-8504
ध्य	-8505
पंख	-8506
पवन	-8507
भाऊ	-8508
मयउ	-8509
मला	-8510
यनं	-8511
यास	-8512
रीर	-8513
वनै	-8514
वरो	-8515
षाव	-8516
सपथ	-8517
सीर	-8518
ुकु	-8519
ोहि	-8520
्पू	-8521
्यम	-8522
॥84	-8523
॥85	-8524
॥95	-8525
॥96	-8526
▁71	-8527
▁73	-8528
▁और	-8529
▁गम	-8530
▁घे	-8531
▁झग	-8532
▁फौ	-8533
▁वै	-8534
▁हन	-8535
ँवाई	-8536
ंगूर	-8537
ंभोज	-8538
अवधि	-8539
उठहु	-8540
कंठि	-8541
कछुक	-8542
करति	-8543
करमू	-8544
करूप	-8545
कासा	-8546
काहु	-8547
कूपा	-8548
कौसि	-8549
गाँव	-8550
गारि	-8551
गौरि	-8552
घनाद	-8553
चढ़ि	-8554
चलीं	-8555
चापं	-8556
जाकर	-8557
जानत	-8558
जारि	-8559
जिहि	-8560
जोगू	-8561
ट्टा	-8562
ड्यं	-8563
ण्डि	-8564
तरिअ	-8565
ताके	-8566
तूहल	-8567
त्रा	-8568
दंबा	-8569
देहि	-8570
दोषा	-8571
धीरज	-8572
धुकर	-8573
धेनू	-8574
नाघि	-8575
नाहू	-8576
न्धु	-8577
पतिं	-8578
पल्ल	-8579
पाणौ	-8580
पाता	-8581
पारं	-8582
पावक	-8583
पृथक	-8584
फटिक	-8585
फिरत	-8586
फोरी	-8587
बंदी	-8588
बिमल	-8589
बिहग	-8590
बोलत	-8591
भाजन	-8592
भितं	-8593
भुअन	-8594
मखिल	-8595
मधुर	-8596
मिलत	-8597
मीशं	-8598
युतं	-8599
रभ	-8600
अचल	-8601
अबि	-8602
आरत	-8603
इनि	-8604
रीक	-8605
रीब	-8606
रुख	-8607
लरत	-8608
सयन	-8609
हरु	-8610
हिआ	-8611
॥88	-8612
▁उख	-8613
▁एइ	-8614
▁खस	-8615
केलि	-8616
नामु	-8617
बटीं	-8618
भंगा	-8619
मोहा	-8620
रायँ	-8621
रारा	-8622
रिजा	-8623
रोसा	-8624
र्जर	-8625
लागे	-8626
लोकप	-8627
शमनं	-8628
श्रय	-8629
संभु	-8630
सखहि	-8631
सत्त	-8632
साधु	-8633
सिजन	-8634
सिपु	-8635
सैलु	-8636
सोभत	-8637
स्ना	-8638
हितु	-8639
हिबु	-8640
हेहु	-8641
ारहु	-8642
ारुन	-8643
ावरी	-8644
ासनु	-8645
ुलाई	-8646
ृन्द	-8647
ोचित	-8648
ोपरि	-8649
्यात	-8650
्याल	-8651
॥106	-8652
॥208	-8653
॥74॥	-8654
▁अखय	-8655
▁अचि	-8656
▁अपि	-8657
▁अयं	-8658
▁अरघ	-8659
▁अले	-8660
▁अहे	-8661
▁आँक	-8662
▁आगर	-8663
▁उपर	-8664
▁ऊँट	-8665
▁ऊना	-8666
▁औषध	-8667
▁कढ़	-8668
▁कदा	-8669
▁कल्	-8670
▁कुद	-8671
▁कैट	-8672
▁क्व	-8673
▁खरे	-8674
▁खर्	-8675
▁खाँ	-8676
▁घंट	-8677
▁घुर	-8678
▁चलै	-8679
▁चौत	-8680
▁छंद	-8681
▁छबी	-8682
▁छयल	-8683
▁छरु	-8684
▁छूँ	-8685
▁जठर	-8686
▁जाप	-8687
▁जिए	-8688
▁झूँ	-8689
▁ठाट	-8690
▁डरत	-8691
▁ढीठ	-8692
▁तिन	-8693
▁थाप	-8694
▁दहई	-8695
▁धसइ	-8696
▁धोइ	-8697
▁धोख	-8698
▁नाल	-8699
अघ	-8700
िव	-8701
8।।	-8702
ंकू	-8703
अनि	-8704
कन्	-8705
खिअ	-8706
गति	-8707
चिद	-8708
जूथ	-8709
तीस	-8710
दरु	-8711
पूत	-8712
मुक	-8713
वसि	-8714
साथ	-8715
हरा	-8716
॥43	-8717
▁72	-8718
▁77	-8719
▁ऐक	-8720
▁कछ	-8721
▁नइ	-8722
▁पव	-8723
▁शा	-8724
▁सव	-8725
ंध्र	-8726
अंतर	-8727
काला	-8728
तनया	-8729
बद्ध	-8730
बैठि	-8731
सबहि	-8732
ावसि	-8733
॥182	-8734
▁असे	-8735
▁कछू	-8736
▁केउ	-8737
▁छोह	-8738
▁तास	-8739
▁पकव	-8740
▁पदु	-8741
▁पाक	-8742
▁पुज	-8743
▁पेख	-8744
▁फौज	-8745
▁बदर	-8746
▁बबू	-8747
▁बर्	-8748
▁बला	-8749
▁बसब	-8750
▁बसी	-8751
▁बाच	-8752
▁बाद	-8753
▁बीज	-8754
▁बेह	-8755
▁भूँ	-8756
▁मते	-8757
▁मथन	-8758
▁मथै	-8759
▁माँ	-8760
▁माघ	-8761
▁माम	-8762
▁मूर	-8763
▁मौन	-8764
▁यत्	-8765
▁रटि	-8766
▁रतन	-8767
▁रहँ	-8768
▁रूख	-8769
▁लवा	-8770
▁लूक	-8771
▁लेस	-8772
▁लोच	-8773
▁लोल	-8774
▁लौं	-8775
▁शिव	-8776
▁शूल	-8777
▁संह	-8778
▁सची	-8779
▁साक	-8780
▁सीम	-8781
▁हनत	-8782
▁हुआ	-8783
ंगिनी	-8784
ंचरीक	-8785
अंभोज	-8786
अग्या	-8787
कतहुँ	-8788
कबिहि	-8789
करुना	-8790
कसिपु	-8791
किंचन	-8792
क्रोध	-8793
खन्हि	-8794
गमागम	-8795
गुरहि	-8796
चर्मा	-8797
जबहिं	-8798
जागेउ	-8799
डु	-8800
णि	-8801
थः	-8802
थस	-8803
फी	-8804
शव	-8805
▁ङ	-8806
कवन	-8807
देब	-8808
रतं	-8809
रहि	-8810
सहु	-8811
सीत	-8812
॥42	-8813
चारक	-8814
चिरु	-8815
जादि	-8816
थसंघ	-8817
देखा	-8818
फीरि	-8819
मलोक	-8820
मागत	-8821
ुर्व	-8822
▁अगर	-8823
▁गनइ	-8824
▁गहा	-8825
▁नाह	-8826
▁फनी	-8827
▁फरइ	-8828
▁फूँ	-8829
▁सचि	-8830
▁सरऊ	-8831
कहेसि	-8832
टिन्ह	-8833
ड़िहि	-8834
त्यूह	-8835
दाब्ज	-8836
दासीं	-8837
दिनीं	-8838
देहिं	-8839
नेहुँ	-8840
न्दसा	-8841
पतिहि	-8842
पुंजा	-8843
फूलें	-8844
बड़ें	-8845
बधुहि	-8846
बर्ति	-8847
बिहंग	-8848
बिहसि	-8849
बिहसे	-8850
बेताल	-8851
भूपति	-8852
भूसुर	-8853
मधुकर	-8854
मर्दन	-8855
महारा	-8856
मानाथ	-8857
म्बरं	-8858
म्भुः	-8859
म्भोध	-8860
रावनु	-8861
लंकाँ	-8862
वनारा	-8863
वृन्द	-8864
शुद्ध	-8865
संसार	-8866
सचिवँ	-8867
ानन्द	-8868
ुनिधि	-8869
ुमुकु	-8870
ूकूला	-8871
ौंहें	-8872
्यक्त	-8873
।।6।।	-8874
।।8।।	-8875
॥125॥	-8876
॥130॥	-8877
॥151॥	-8878
॥153॥	-8879
॥155॥	-8880
॥170॥	-8881
॥172॥	-8882
॥173॥	-8883
॥175॥	-8884
॥176॥	-8885
॥177॥	-8886
॥183॥	-8887
॥187॥	-8888
॥211॥	-8889
॥213॥	-8890
॥214॥	-8891
॥215॥	-8892
॥216॥	-8893
॥217॥	-8894
॥219॥	-8895
॥220॥	-8896
॥221॥	-8897
॥222॥	-8898
॥223॥	-8899
उज	-8900
छठ	-8901
नट	-8902
भौ	-8903
सप	-8904
ऽस	-8905
अनु	-8906
घुन	-8907
धरा	-8908
पेम	-8909
यका	-8910
राए	-8911
॥92	-8912
▁70	-8913
▁75	-8914
जूथा	-8915
मेकम	-8916
रागा	-8917
हानि	-8918
्याण	-8919
▁अँब	-8920
▁अबू	-8921
▁अवँ	-8922
▁उबर	-8923
▁खाल	-8924
▁छार	-8925
▁तीस	-8926
▁नयो	-8927
▁पुट	-8928
▁बजा	-8929
▁बलब	-8930
▁मयन	-8931
▁रसा	-8932
▁रोद	-8933
▁लखे	-8934
▁हों	-8935
दसमुख	-8936
देवता	-8937
॥113॥	-8938
॥133॥	-8939
॥191॥	-8940
॥225॥	-8941
॥226॥	-8942
॥227॥	-8943
॥228॥	-8944
॥229॥	-8945
॥240॥	-8946
॥241॥	-8947
॥242॥	-8948
॥243॥	-8949
॥244॥	-8950
॥246॥	-8951
॥247॥	-8952
॥248॥	-8953
॥249॥	-8954
॥251॥	-8955
॥252॥	-8956
॥253॥	-8957
॥255॥	-8958
॥256॥	-8959
॥257॥	-8960
॥258॥	-8961
॥260॥	-8962
॥263॥	-8963
॥264॥	-8964
॥265॥	-8965
॥266॥	-8966
॥267॥	-8967
॥268॥	-8968
॥269॥	-8969
॥270॥	-8970
॥271॥	-8971
॥273॥	-8972
॥274॥	-8973
॥275॥	-8974
॥278॥	-8975
॥279॥	-8976
॥280॥	-8977
॥281॥	-8978
॥282॥	-8979
॥283॥	-8980
॥284॥	-8981
॥286॥	-8982
॥287॥	-8983
॥288॥	-8984
॥289॥	-8985
॥290॥	-8986
॥298॥	-8987
॥307॥	-8988
॥308॥	-8989
॥310॥	-8990
॥311॥	-8991
॥312॥	-8992
॥313॥	-8993
॥314॥	-8994
॥315॥	-8995
॥316॥	-8996
॥318॥	-8997
॥319॥	-8998
॥321॥	-8999
बच	-9000
ाम	-9001
अधि	-9002
ऊँच	-9003
गाइ	-9004
गाह	-9005
दंभ	-9006
धहु	-9007
नां	-9008
नील	-9009
पटि	-9010
पधि	-9011
पुट	-9012
पोष	-9013
ष्न	-9014
स्र	-9015
ऽपि	-9016
▁उन	-9017
▁रै	-9018
▁सई	-9019
ंग्य	-9020
ंबुज	-9021
अधिक	-9022
कानन	-9023
जननि	-9024
ड़ित	-9025
दातप	-9026
नीया	-9027
नेहि	-9028
पोषे	-9029
बचनु	-9030
रचहु	-9031
सुनी	-9032
हूति	-9033
िनीं	-9034
्यहि	-9035
॥1॥॥	-9036
▁घरि	-9037
▁डीठ	-9038
▁तान	-9039
▁सोए	-9040
॥118॥	-9041
॥259॥	-9042
॥291॥	-9043
॥322॥	-9044
॥323॥	-9045
॥324॥	-9046
॥325॥	-9047
▁अंबर	-9048
▁अगहु	-9049
▁अदेय	-9050
▁अधीर	-9051
▁अरंभ	-9052
▁अरनी	-9053
▁अर्क	-9054
▁अवघट	-9055
▁अवलि	-9056
▁असरन	-9057
▁असाँ	-9058
▁अहऊँ	-9059
▁अहेर	-9060
▁आगिल	-9061
▁आचरत	-9062
▁आनउँ	-9063
▁उपाइ	-9064
▁उलटि	-9065
▁ऐसिउ	-9066
▁ऐसेउ	-9067
▁कंधर	-9068
▁कटकई	-9069
▁कटाह	-9070
▁कन्द	-9071
▁कपूत	-9072
▁करवा	-9073
▁करही	-9074
▁करैं	-9075
▁कहबि	-9076
▁काटइ	-9077
▁कारि	-9078
▁कारी	-9079
▁कुबि	-9080
▁कुम्	-9081
▁केइँ	-9082
▁केकि	-9083
▁कैटभ	-9084
▁कोका	-9085
▁कोरी	-9086
▁कोहा	-9087
▁खंभन	-9088
▁खंभा	-9089
▁गतिं	-9090
▁गम्य	-9091
▁गरजत	-9092
▁गरीब	-9093
▁गहहु	-9094
▁गहें	-9095
▁गहेउ	-9096
▁गाइअ	-9097
▁गातु	-9098
▁गावई	-9099
खत	-9100
दम	-9101
धव	-9102
रज	-9103
रै	-9104
ँरु	-9105
तनो	-9106
धिप	-9107
धौं	-9108
मात	-9109
सुग	-9110
ारग	-9111
॥93	-9112
▁खु	-9113
▁गथ	-9114
उचित	-9115
चहीं	-9116
छिहि	-9117
फूला	-9118
बेना	-9119
भीता	-9120
मारग	-9121
रिजन	-9122
रिजु	-9123
लिनी	-9124
सारद	-9125
सुन्	-9126
॥105	-9127
▁अनइ	-9128
▁उली	-9129
▁चाह	-9130
▁जंज	-9131
▁जमन	-9132
▁जोए	-9133
▁थकि	-9134
▁धरं	-9135
▁नभु	-9136
▁पाद	-9137
▁फलत	-9138
▁बँध	-9139
▁साम	-9140
कुटिल	-9141
श्वरं	-9142
॥139॥	-9143
॥194॥	-9144
॥197॥	-9145
॥199॥	-9146
॥209॥	-9147
॥218॥	-9148
॥250॥	-9149
॥254॥	-9150
▁अस्व	-9151
▁उड़इ	-9152
▁उतरी	-9153
▁गिरी	-9154
▁गुनत	-9155
▁गेरु	-9156
▁गेहु	-9157
▁घालइ	-9158
▁चंचल	-9159
▁चढ़त	-9160
▁चहहु	-9161
▁चुकइ	-9162
▁चेरी	-9163
▁चेरे	-9164
▁चोखा	-9165
▁चौपट	-9166
▁छमिअ	-9167
▁छोहा	-9168
▁जनमी	-9169
▁जनाए	-9170
▁जाका	-9171
▁जारत	-9172
▁जिअन	-9173
▁जिवन	-9174
▁जिसु	-9175
▁जोहा	-9176
▁ज्वर	-9177
▁झगुल	-9178
▁झरना	-9179
▁झूँठ	-9180
▁टारी	-9181
▁टूटे	-9182
▁टेकी	-9183
▁ठावँ	-9184
▁डगमग	-9185
▁डरपत	-9186
▁डरपे	-9187
▁डसाए	-9188
▁डाटि	-9189
▁डाबर	-9190
▁डोरि	-9191
▁डोले	-9192
▁ढहाए	-9193
▁तकेउ	-9194
▁ताकर	-9195
▁तानी	-9196
▁ताने	-9197
▁तामर	-9198
▁तेइँ	-9199
उदर	-9200
काट	-9201
कुर	-9202
जरा	-9203
निअ	-9204
निष	-9205
नीद	-9206
बिट	-9207
भति	-9208
भयँ	-9209
भूष	-9210
लाभ	-9211
सौं	-9212
ूटन	-9213
▁खी	-9214
▁छे	-9215
▁भन	-9216
तिमि	-9217
त्रु	-9218
भूषण	-9219
रेहि	-9220
िन्ह	-9221
ुनिअ	-9222
▁अवर	-9223
▁आलि	-9224
▁ओटा	-9225
▁औरु	-9226
▁खेम	-9227
▁गनी	-9228
▁जगद	-9229
▁जनं	-9230
▁जिऐ	-9231
▁बता	-9232
▁बहई	-9233
▁बही	-9234
▁बाउ	-9235
▁बिट	-9236
▁भवा	-9237
▁भास	-9238
▁रिष	-9239
▁सकी	-9240
▁हार	-9241
कलोचन	-9242
च्छित	-9243
मनिगन	-9244
मर्कट	-9245
हाकुल	-9246
ोधिहि	-9247
्तांत	-9248
॥115॥	-9249
॥149॥	-9250
॥160॥	-9251
▁अकाज	-9252
▁करते	-9253
▁कुसा	-9254
▁गुनद	-9255
▁चलौं	-9256
▁छुटि	-9257
▁जागी	-9258
▁जापर	-9259
▁जामी	-9260
▁ठकुर	-9261
▁थापि	-9262
▁थिति	-9263
▁दर्भ	-9264
▁दीपा	-9265
▁दीसा	-9266
▁देखई	-9267
▁देना	-9268
▁देसा	-9269
▁देसु	-9270
▁दैअँ	-9271
▁दोषा	-9272
▁दोसा	-9273
▁धरमा	-9274
▁धोरी	-9275
▁नचाव	-9276
▁नरकु	-9277
▁नसाइ	-9278
▁नसाऊ	-9279
▁नाघत	-9280
▁नाची	-9281
▁नाती	-9282
▁नायो	-9283
▁नैना	-9284
▁न्या	-9285
▁पंथु	-9286
▁पंपा	-9287
▁पटकइ	-9288
▁पठाइ	-9289
▁पतित	-9290
▁पदिक	-9291
▁परसा	-9292
▁परौं	-9293
▁पलना	-9294
▁पषान	-9295
▁पसाउ	-9296
▁पहार	-9297
▁पागे	-9298
▁पाटल	-9299
गई	-9300
छम	-9301
अंत	-9302
करब	-9303
खाइ	-9304
गनु	-9305
चरि	-9306
ज्य	-9307
दूल	-9308
धरु	-9309
परो	-9310
बनु	-9311
लकि	-9312
▁आठ	-9313
▁खँ	-9314
▁चम	-9315
▁भौ	-9316
▁हइ	-9317
उपरो	-9318
गम्य	-9319
डारू	-9320
दानि	-9321
दामि	-9322
पिका	-9323
बरनि	-9324
बरषन	-9325
॥82॥	-9326
▁करष	-9327
▁छेम	-9328
▁ताग	-9329
▁बदि	-9330
▁भीख	-9331
▁सता	-9332
▁हहु	-9333
आश्रम	-9334
जाहिं	-9335
नायकु	-9336
रिन्ह	-9337
ारेसि	-9338
॥179॥	-9339
॥188॥	-9340
॥297॥	-9341
॥299॥	-9342
॥302॥	-9343
॥306॥	-9344
▁चापा	-9345
▁नबीन	-9346
▁पलटि	-9347
▁पागी	-9348
▁पापि	-9349
▁पापु	-9350
▁पारू	-9351
▁पावस	-9352
▁पिकब	-9353
▁पेखा	-9354
▁पोची	-9355
▁प्रम	-9356
▁फटिक	-9357
▁फनिक	-9358
▁फनीस	-9359
▁फरकत	-9360
▁फरकि	-9361
▁फाबी	-9362
▁फूली	-9363
▁बढ़ी	-9364
▁बरजि	-9365
▁बरने	-9366
▁बरबर	-9367
▁बरिब	-9368
▁बलाक	-9369
▁बसाइ	-9370
▁बाएँ	-9371
▁बाती	-9372
▁बाधक	-9373
▁बिछो	-9374
▁बिनई	-9375
▁बिभु	-9376
▁बिसर	-9377
▁बिसू	-9378
▁बीरु	-9379
▁बेधि	-9380
▁बेसा	-9381
▁बैसा	-9382
▁बोलन	-9383
▁ब्रन	-9384
▁ब्री	-9385
▁भंगू	-9386
▁भजसि	-9387
▁भयान	-9388
▁भयाव	-9389
▁भरेऊ	-9390
▁भागत	-9391
▁भाबी	-9392
▁भीता	-9393
▁भुला	-9394
▁भ्रू	-9395
▁मनाइ	-9396
▁महाग	-9397
▁महान	-9398
▁माते	-9399
गए	-9400
गज	-9401
ट्	-9402
नः	-9403
ंबत	-9404
असि	-9405
गाए	-9406
दुइ	-9407
नाभ	-9408
बात	-9409
भंज	-9410
ससि	-9411
हेउ	-9412
ऽति	-9413
ालं	-9414
ितं	-9415
॥36	-9416
॥52	-9417
॥94	-9418
▁उब	-9419
▁कई	-9420
गाना	-9421
छिना	-9422
तमसा	-9423
नारी	-9424
नेहु	-9425
पतंग	-9426
पादप	-9427
बरबस	-9428
भालु	-9429
रेहु	-9430
सरूप	-9431
सानी	-9432
सिरु	-9433
हानी	-9434
॥102	-9435
॥112	-9436
॥114	-9437
॥130	-9438
▁कीच	-9439
▁चरि	-9440
▁धाव	-9441
▁रहन	-9442
▁सबद	-9443
करहीं	-9444
चिंता	-9445
भंजेउ	-9446
्थिति	-9447
्रिहि	-9448
॥112॥	-9449
॥235॥	-9450
॥304॥	-9451
▁काही	-9452
▁गढ़ि	-9453
▁गढ़ु	-9454
▁चरति	-9455
▁छपाई	-9456
▁छिति	-9457
▁जुरे	-9458
▁झूठि	-9459
▁दानी	-9460
▁दुआर	-9461
▁निबु	-9462
▁निरस	-9463
▁पालइ	-9464
▁माधव	-9465
▁मिति	-9466
▁मीजि	-9467
▁मीला	-9468
▁मुहँ	-9469
▁मूदे	-9470
▁मृगछ	-9471
▁मृगन	-9472
▁मेटत	-9473
▁मोहु	-9474
▁मौरु	-9475
▁रंकु	-9476
▁रचीं	-9477
▁रजनि	-9478
▁रमेस	-9479
▁रसोई	-9480
▁राखन	-9481
▁रामं	-9482
▁रीझत	-9483
▁रूखे	-9484
▁रैनि	-9485
▁रोकि	-9486
▁रोदन	-9487
▁रोषा	-9488
▁रोसा	-9489
▁लकुट	-9490
▁लखाऊ	-9491
▁लगीं	-9492
▁लजाए	-9493
▁ललकि	-9494
▁ललना	-9495
▁ललाट	-9496
▁लवले	-9497
▁लाइअ	-9498
▁लाईं	-9499
द्भ	-9500
बाँ	-9501
बाग	-9502
मले	-9503
लाज	-9504
॥57	-9505
॥69	-9506
॥89	-9507
▁79	-9508
▁वह	-9509
किंक	-9510
ढ़ाए	-9511
दिका	-9512
दूषन	-9513
द्रव	-9514
पीलि	-9515
सारू	-9516
ारंभ	-9517
॥100	-9518
॥113	-9519
॥90॥	-9520
▁अँथ	-9521
▁अनव	-9522
▁कुट	-9523
▁खेत	-9524
▁चरम	-9525
▁जलप	-9526
▁तरन	-9527
▁दात	-9528
▁दूष	-9529
▁धुन	-9530
▁निब	-9531
▁लहब	-9532
तबहुँ	-9533
राग्य	-9534
लीन्ह	-9535
सेवकु	-9536
॥137॥	-9537
॥168॥	-9538
॥238॥	-9539
▁अहित	-9540
▁कदंब	-9541
▁घाला	-9542
▁छोनी	-9543
▁जाईं	-9544
▁जागि	-9545
▁दाबि	-9546
▁दाहि	-9547
▁नाथु	-9548
▁नाहू	-9549
▁नीचि	-9550
▁भाला	-9551
▁भूली	-9552
▁रिसा	-9553
▁लागू	-9554
▁लागै	-9555
▁लायो	-9556
▁लाला	-9557
▁लीनी	-9558
▁लूटन	-9559
▁लेइअ	-9560
▁लेऊँ	-9561
▁लेखी	-9562
▁लेबा	-9563
▁लोकु	-9564
▁लोना	-9565
▁लोभु	-9566
▁श्रव	-9567
▁संगम	-9568
▁संशो	-9569
▁सकिअ	-9570
▁सखाँ	-9571
▁सजहि	-9572
▁सजीव	-9573
▁सदैव	-9574
▁समनं	-9575
▁समनि	-9576
▁समरु	-9577
▁सरनि	-9578
▁सरसइ	-9579
▁सरुज	-9580
▁ससंक	-9581
▁सहेउ	-9582
▁साथू	-9583
▁साधा	-9584
▁सामु	-9585
▁सुअर	-9586
▁सुआर	-9587
▁सुखक	-9588
▁सुथल	-9589
▁सुनब	-9590
▁सुहा	-9591
▁सूखत	-9592
▁सूखि	-9593
▁सूचक	-9594
▁सैलु	-9595
▁सोचन	-9596
▁सोपि	-9597
▁सोरह	-9598
▁सोवा	-9599
तृन	-9600
धरष	-9601
ोदर	-9602
॥46	-9603
उदित	-9604
च्छु	-9605
देसू	-9606
रूपं	-9607
लखनु	-9608
सूनु	-9609
हाईं	-9610
॥111	-9611
▁असम	-9612
▁कौन	-9613
▁तोय	-9614
▁दूब	-9615
▁भरई	-9616
▁लखइ	-9617
ंकहिं	-9618
शम्भु	-9619
स्तथा	-9620
िरामा	-9621
्लानी	-9622
॥131॥	-9623
॥144॥	-9624
॥147॥	-9625
॥277॥	-9626
॥303॥	-9627
▁उठीं	-9628
▁केते	-9629
▁गाला	-9630
▁जाचा	-9631
▁जोंक	-9632
▁जोते	-9633
▁झारि	-9634
▁देबा	-9635
▁परति	-9636
▁पाईं	-9637
▁बकुल	-9638
▁बचउँ	-9639
▁बिरत	-9640
▁भूपु	-9641
▁मूलक	-9642
▁मेकल	-9643
▁मेटे	-9644
▁लोगु	-9645
▁सानि	-9646
▁सुभद	-9647
▁सेवइ	-9648
▁सोषइ	-9649
▁सोषा	-9650
▁सोहे	-9651
▁सौंप	-9652
▁सौरभ	-9653
▁स्वर	-9654
▁हटकि	-9655
▁हतहु	-9656
▁हरति	-9657
▁हरषत	-9658
▁हरेऊ	-9659
▁हाँक	-9660
▁हारा	-9661
▁हाला	-9662
▁हितू	-9663
▁हीनी	-9664
▁हीरा	-9665
▁हेला	-9666
▁होइअ	-9667
ँगपानी	-9668
ंवन्दे	-9669
अनुचित	-9670
अस्त्र	-9671
काटेसि	-9672
कुअँरि	-9673
गामिनी	-9674
गिरिजा	-9675
ड़ामनि	-9676
तकीरति	-9677
तब्यता	-9678
त्राना	-9679
दंघ्रि	-9680
दीन्हि	-9681
देखेउँ	-9682
धराकार	-9683
निवारे	-9684
निवासा	-9685
निहारे	-9686
परिहरि	-9687
पल्लवत	-9688
पुरारि	-9689
प्रमेय	-9690
प्रातक	-9691
बाजहिं	-9692
बिद्या	-9693
भाइन्ह	-9694
भुजदंड	-9695
महाराज	-9696
मिलहिं	-9697
मुठिका	-9698
मेघनाद	-9699
ंगव	-9700
ंजय	-9701
कमल	-9702
गान	-9703
तकि	-9704
लगि	-9705
हकि	-9706
हरष	-9707
▁74	-9708
▁डग	-9709
ंजनि	-9710
किनी	-9711
खारा	-9712
जहाँ	-9713
जेसि	-9714
दानी	-9715
दायक	-9716
न्तु	-9717
बेषा	-9718
बोली	-9719
सिखा	-9720
॥350	-9721
▁अगे	-9722
▁फलइ	-9723
▁सजी	-9724
कबहिं	-9725
किन्ह	-9726
खाहिं	-9727
गम्यं	-9728
दुंदु	-9729
बिस्व	-9730
सबाहु	-9731
॥121॥	-9732
॥196॥	-9733
॥301॥	-9734
॥317॥	-9735
▁अपबर	-9736
▁असनि	-9737
▁कालू	-9738
▁कुरु	-9739
▁खोली	-9740
▁छमबि	-9741
▁ठानि	-9742
▁डहकि	-9743
▁डारा	-9744
▁नादू	-9745
▁निष्	-9746
▁पतिं	-9747
▁पारस	-9748
▁भरें	-9749
▁मानु	-9750
▁मानै	-9751
▁राखइ	-9752
▁लेति	-9753
▁लेना	-9754
▁लेसा	-9755
▁सतां	-9756
▁सारस	-9757
▁सिखि	-9758
▁हितु	-9759
▁हिहि	-9760
रघुनंद	-9761
रातिनि	-9762
र्णाना	-9763
लिहहिं	-9764
लीन्हि	-9765
लोकपाल	-9766
श्रुति	-9767
संध्या	-9768
समुझाए	-9769
सिबिका	-9770
सुग्री	-9771
सुतन्ह	-9772
सुदिनु	-9773
सुमिरत	-9774
सोचहिं	-9775
स्वारथ	-9776
ूरन्हि	-9777
्यन्ति	-9778
▁अंजलि	-9779
▁अंडको	-9780
▁अकुंठ	-9781
▁अखंडा	-9782
▁अखारा	-9783
▁अघटित	-9784
▁अघरूप	-9785
▁अजादि	-9786
▁अढ़ाई	-9787
▁अधीना	-9788
▁अन्हव	-9789
▁अपनपउ	-9790
▁अपबाद	-9791
▁अपहरई	-9792
▁अपहरत	-9793
▁अपारू	-9794
▁अबर्त	-9795
▁अभागु	-9796
▁अयाना	-9797
▁अयानी	-9798
▁अरगाई	-9799
7।।	-9800
जेस	-9801
मीक	-9802
मीश	-9803
॥83	-9804
▁थन	-9805
कारु	-9806
चारु	-9807
जातं	-9808
जाने	-9809
जिये	-9810
नाथू	-9811
पांत	-9812
सेनी	-9813
सेवा	-9814
▁उएँ	-9815
▁खसे	-9816
▁घटा	-9817
▁चवै	-9818
▁तिज	-9819
▁महो	-9820
▁सँघ	-9821
▁हूह	-9822
जुद्ध	-9823
नृपहि	-9824
मंजुल	-9825
ेन्दु	-9826
्टहिं	-9827
।।7।।	-9828
॥185॥	-9829
॥206॥	-9830
॥210॥	-9831
॥239॥	-9832
॥276॥	-9833
॥285॥	-9834
॥305॥	-9835
▁अरुझ	-9836
▁अवाँ	-9837
▁कारे	-9838
▁कूबर	-9839
▁कोपा	-9840
▁खोहा	-9841
▁जीती	-9842
▁तारी	-9843
▁देवक	-9844
▁फूलत	-9845
▁बदति	-9846
▁बैठी	-9847
▁भाखे	-9848
▁रच्छ	-9849
▁राखत	-9850
▁राजे	-9851
▁समबल	-9852
▁सृजत	-9853
▁स्रग	-9854
गावहिं	-9855
जानेउँ	-9856
रिहहिं	-9857
▁अच्छत	-9858
▁अवतरि	-9859
▁अवनिप	-9860
▁असाधि	-9861
▁असाधु	-9862
▁असाधू	-9863
▁असोका	-9864
▁अहीसा	-9865
▁आगवनू	-9866
▁आचारु	-9867
▁आसिषा	-9868
▁आसीना	-9869
▁उखारी	-9870
▁उघारि	-9871
▁उठाएँ	-9872
▁उठावन	-9873
▁उड़ात	-9874
▁उतराई	-9875
▁उताइल	-9876
▁उतारि	-9877
▁उत्सव	-9878
▁उद्यम	-9879
▁उपजें	-9880
▁उपजेउ	-9881
▁उपाएँ	-9882
▁उपारा	-9883
▁उपारि	-9884
▁एकांत	-9885
▁ऐसेहु	-9886
▁कठोरे	-9887
▁कपोला	-9888
▁कबिता	-9889
▁कमलनि	-9890
▁करारा	-9891
▁करावा	-9892
▁करोरी	-9893
▁कर्ता	-9894
▁कलंकू	-9895
▁कलकंठ	-9896
▁कलापा	-9897
▁कलेवर	-9898
▁कस्यो	-9899
आजु	-9900
आसन	-9901
चलइ	-9902
मरन	-9903
मास	-9904
सनं	-9905
समय	-9906
॥97	-9907
कठिन	-9908
जोरि	-9909
तलफत	-9910
तुरग	-9911
नितल	-9912
बसहु	-9913
बाहा	-9914
हासन	-9915
॥107	-9916
॥161	-9917
▁आसू	-9918
▁उठत	-9919
▁गिर	-9920
▁चिर	-9921
▁भिर	-9922
▁मलय	-9923
॥198॥	-9924
॥203॥	-9925
॥224॥	-9926
॥245॥	-9927
॥261॥	-9928
▁आराम	-9929
▁करिऐ	-9930
▁घेरा	-9931
▁चंदू	-9932
▁डमरु	-9933
▁फेरू	-9934
▁बधेउ	-9935
▁बासन	-9936
▁मेला	-9937
▁मोती	-9938
▁रहसी	-9939
▁रहहू	-9940
▁रहें	-9941
▁लायउ	-9942
▁वारि	-9943
▁संगु	-9944
▁सचेत	-9945
▁सरगु	-9946
▁सरबस	-9947
▁सोचै	-9948
द्धर्म	-9949
मुरुछा	-9950
▁अंगुल	-9951
▁अनूपम	-9952
▁अवधेस	-9953
▁कहाउब	-9954
▁कहिउँ	-9955
▁कहेहू	-9956
▁काँपी	-9957
▁कागभु	-9958
▁काढ़ा	-9959
▁काढ़े	-9960
▁काननु	-9961
▁कारजु	-9962
▁कासीं	-9963
▁काहीं	-9964
▁किधौं	-9965
▁किमपि	-9966
▁किरीट	-9967
▁कुआरी	-9968
▁कुबरी	-9969
▁कुरूप	-9970
▁कुलहि	-9971
▁कुलीन	-9972
▁कूबरी	-9973
▁कैकयन	-9974
▁कोपेउ	-9975
▁कोमलं	-9976
▁कोहबर	-9977
▁क्लेस	-9978
▁खंडित	-9979
▁खंडेउ	-9980
▁खगनाथ	-9981
▁खरारि	-9982
▁खर्पर	-9983
▁खाएसि	-9984
▁खोजहु	-9985
▁गँवाई	-9986
▁गभीरा	-9987
▁गरहिं	-9988
▁गहेसि	-9989
▁गाढ़ा	-9990
▁गाढ़े	-9991
▁गावउँ	-9992
▁गुंजा	-9993
▁गुहहि	-9994
▁ग्रसइ	-9995
▁ग्रहइ	-9996
▁घटिहि	-9997
▁घननाद	-9998
▁घुर्म	-9999
दुष	-10000
वँर	-10001
ोरू	-10002
।2॥	-10003
।3॥	-10004
॥37	-10005
▁छई	-10006
करिअ	-10007
कारन	-10008
कारू	-10009
चवँर	-10010
चातक	-10011
चारू	-10012
त्रय	-10013
परसि	-10014
मानं	-10015
सहमि	-10016
▁उठइ	-10017
▁कनी	-10018
▁गनत	-10019
▁चलब	-10020
▁चहई	-10021
▁जूट	-10022
▁बीन	-10023
▁रोइ	-10024
▁रोई	-10025
▁हेठ	-10026
चित्त	-10027
पतिनी	-10028
॥122॥	-10029
॥146॥	-10030
॥150॥	-10031
॥152॥	-10032
॥166॥	-10033
॥202॥	-10034
▁अगमु	-10035
▁ऊँचि	-10036
▁खचित	-10037
▁गालु	-10038
▁गृहा	-10039
▁चापत	-10040
▁तहूँ	-10041
▁तोरब	-10042
▁धरौं	-10043
▁पठयउ	-10044
▁बृथा	-10045
▁बेटा	-10046
▁भाषि	-10047
▁मरौं	-10048
▁रोगा	-10049
▁रोपि	-10050
▁रोवत	-10051
▁सोषि	-10052
▁हेरा	-10053
बिचारू	-10054
्यमानं	-10055
▁अकेलि	-10056
▁अपमान	-10057
▁कुसमय	-10058
▁गुरजन	-10059
▁घ्रान	-10060
▁चंदनु	-10061
▁चढ़ाए	-10062
▁चढ़ीं	-10063
▁चबेना	-10064
▁चलायो	-10065
▁चलेसि	-10066
▁चाँपि	-10067
▁चाहहु	-10068
▁चितवन	-10069
▁चौपाई	-10070
▁छड़ाइ	-10071
▁छड़ाई	-10072
▁छनभंग	-10073
▁छनहिं	-10074
▁छमिहि	-10075
▁छायाँ	-10076
▁छुभित	-10077
▁छेंकी	-10078
▁जगदीस	-10079
▁जटायू	-10080
▁जनमीं	-10081
▁जनमेउ	-10082
▁जयजीव	-10083
▁जयसील	-10084
▁जर्जर	-10085
▁जहवाँ	-10086
▁जाकीं	-10087
▁जानौं	-10088
▁जिअहु	-10089
▁जिआवा	-10090
▁जीवहि	-10091
▁जुझाऊ	-10092
▁जुबति	-10093
▁जेवँत	-10094
▁जोगीं	-10095
▁झरोखा	-10096
▁ठाढ़ि	-10097
▁डरहिं	-10098
▁तजेहु	-10099
गह	-10100
तत	-10101
बीस	-10102
सरल	-10103
॥49	-10104
॥81	-10105
▁78	-10106
▁झल	-10107
▁झु	-10108
▁मइ	-10109
आरति	-10110
बरीं	-10111
भद्र	-10112
मोदु	-10113
वासं	-10114
॥178	-10115
▁अजं	-10116
▁कटन	-10117
▁खरो	-10118
▁तरक	-10119
▁नंच	-10120
▁नेग	-10121
▁मेल	-10122
छिद्र	-10123
जाकें	-10124
िराना	-10125
॥195॥	-10126
॥272॥	-10127
॥293॥	-10128
॥296॥	-10129
▁आगवन	-10130
▁कबहु	-10131
▁कराइ	-10132
▁खर्ब	-10133
▁गुनु	-10134
▁तहीं	-10135
▁नेवत	-10136
▁पन्न	-10137
▁पाउब	-10138
▁बरषत	-10139
▁बोलु	-10140
▁भइसि	-10141
▁भारु	-10142
▁भिरत	-10143
▁भोगु	-10144
▁राखु	-10145
देवन्ह	-10146
▁अधमाई	-10147
▁अबिनय	-10148
▁अरूपा	-10149
▁असेषा	-10150
▁उपकार	-10151
▁कुमुख	-10152
▁छाड़ै	-10153
▁जीकें	-10154
▁जोगीस	-10155
▁तनुजा	-10156
▁तनोतु	-10157
▁तबहुँ	-10158
▁तमारी	-10159
▁तमीचर	-10160
▁तर्जा	-10161
▁तहँइँ	-10162
▁तापसु	-10163
▁तारकु	-10164
▁तीब्र	-10165
▁तुराई	-10166
▁तुरीय	-10167
▁तोरौं	-10168
▁दधीचि	-10169
▁दातार	-10170
▁दिसिप	-10171
▁दीजहु	-10172
▁दुराई	-10173
▁दुराव	-10174
▁दुलार	-10175
▁देखाउ	-10176
▁देखाऊ	-10177
▁दैहउँ	-10178
▁द्वेष	-10179
▁द्वैत	-10180
▁धरिही	-10181
▁धावहु	-10182
▁ध्रुव	-10183
▁नचावइ	-10184
▁नफीरि	-10185
▁नयननि	-10186
▁नरतनु	-10187
▁नरनाथ	-10188
▁नरपति	-10189
▁नरहरी	-10190
▁नसाना	-10191
▁नाएसि	-10192
▁निंदत	-10193
▁निकंद	-10194
▁निकसि	-10195
▁निकाई	-10196
▁निकाम	-10197
▁निघटत	-10198
▁निदरे	-10199
ंडि	-10200
आने	-10201
घात	-10202
छूट	-10203
धरं	-10204
पूर	-10205
॥56	-10206
▁ओघ	-10207
▁वर	-10208
जायँ	-10209
जोगि	-10210
ाननु	-10211
॥103	-10212
॥104	-10213
॥125	-10214
▁घटि	-10215
▁धान	-10216
▁रचा	-10217
कोदंड	-10218
पुरुष	-10219
ान्ति	-10220
्नाना	-10221
॥109॥	-10222
॥111॥	-10223
॥114॥	-10224
॥116॥	-10225
॥117॥	-10226
॥119॥	-10227
॥162॥	-10228
॥174॥	-10229
॥300॥	-10230
▁अरूप	-10231
▁खोजइ	-10232
▁गयऊँ	-10233
▁घाता	-10234
▁घाती	-10235
▁टारन	-10236
▁टारा	-10237
▁थारा	-10238
▁देऊँ	-10239
▁नहाई	-10240
▁नियो	-10241
▁बराह	-10242
▁बरुथ	-10243
▁बाँझ	-10244
▁बाँह	-10245
▁भजें	-10246
▁मनसा	-10247
▁मूरी	-10248
▁रहऊँ	-10249
▁रोगी	-10250
▁लहैं	-10251
▁सपेम	-10252
▁सराह	-10253
▁सावन	-10254
▁सोची	-10255
▁हँसे	-10256
▁अपलोक	-10257
▁कलंका	-10258
▁छुद्र	-10259
▁दुराउ	-10260
▁निपात	-10261
▁निरमल	-10262
▁निरीह	-10263
▁निरूप	-10264
▁निवार	-10265
▁निसित	-10266
▁निहार	-10267
▁नीचहु	-10268
▁पचारै	-10269
▁पच्छी	-10270
▁पछारा	-10271
▁पछिले	-10272
▁पठायो	-10273
▁पढ़ाई	-10274
▁पताला	-10275
▁पथिगत	-10276
▁पबारे	-10277
▁परंतु	-10278
▁परत्र	-10279
▁परपति	-10280
▁परसेउ	-10281
▁परिछन	-10282
▁परिछि	-10283
▁परिपा	-10284
▁परेहु	-10285
▁पसारा	-10286
▁पसारि	-10287
▁पहारू	-10288
▁पहिरे	-10289
▁पाँती	-10290
▁पाँवर	-10291
▁पाथोज	-10292
▁पापमय	-10293
▁पालहु	-10294
▁पिनाक	-10295
▁पियूष	-10296
▁पुंजा	-10297
▁पूछिअ	-10298
▁पूजीं	-10299
उभय	-10300
दधि	-10301
॥60	-10302
॥62	-10303
॥63	-10304
॥66	-10305
॥67	-10306
॥68	-10307
॥82	-10308
॥87	-10309
॥90	-10310
॥98	-10311
॥99	-10312
ऊतरु	-10313
कंता	-10314
दिवस	-10315
देखु	-10316
स्यो	-10317
॥123	-10318
॥89॥	-10319
▁आवै	-10320
▁ईति	-10321
▁चकई	-10322
▁दलु	-10323
▁रथी	-10324
▁सजह	-10325
॥101॥	-10326
॥123॥	-10327
॥126॥	-10328
॥134॥	-10329
॥165॥	-10330
॥171॥	-10331
▁अंबा	-10332
▁आमिष	-10333
▁उतरै	-10334
▁कोहु	-10335
▁गायक	-10336
▁चिंत	-10337
▁जनमे	-10338
▁जनाव	-10339
▁जपहु	-10340
▁तमसा	-10341
▁दूनउ	-10342
▁नारे	-10343
▁पालत	-10344
▁बढ़ि	-10345
▁बरनब	-10346
▁बारक	-10347
▁बिधव	-10348
▁बूड़	-10349
▁मष्ट	-10350
▁राचा	-10351
▁साली	-10352
▁सेसू	-10353
पालन्ह	-10354
सिद्धि	-10355
▁अबिगत	-10356
▁चल्यो	-10357
▁चित्त	-10358
▁जोरीं	-10359
▁झरहिं	-10360
▁ठट्टा	-10361
▁तिहूँ	-10362
▁धामदा	-10363
▁धामहि	-10364
▁निर्भ	-10365
▁पटोरे	-10366
▁पूरित	-10367
▁पैहहु	-10368
▁प्रसव	-10369
▁फिरें	-10370
▁बंचित	-10371
▁बछलता	-10372
▁बजाईं	-10373
▁बजारु	-10374
▁बतासा	-10375
▁बध्यो	-10376
▁बनावन	-10377
▁बरजित	-10378
▁बरदान	-10379
▁बरनहु	-10380
▁बरनिअ	-10381
▁बरनैं	-10382
▁बराहू	-10383
▁बरिहि	-10384
▁बरीसा	-10385
▁बलसीं	-10386
▁बसहीं	-10387
▁बसेरा	-10388
▁बाँचा	-10389
▁बाँटि	-10390
▁बाँधत	-10391
▁बाँधा	-10392
▁बातें	-10393
▁बानसम	-10394
▁बारंब	-10395
▁बारिज	-10396
▁बाहिज	-10397
▁बिंदक	-10398
▁बिंधि	-10399
ौघ	-10400
टूट	-10401
डरे	-10402
दीय	-10403
नदी	-10404
प्प	-10405
मेव	-10406
सफल	-10407
॥91	-10408
▁ढा	-10409
कल्प	-10410
किला	-10411
त्मा	-10412
निकट	-10413
सीलु	-10414
सुपा	-10415
ोचनं	-10416
॥115	-10417
॥77॥	-10418
▁कसम	-10419
▁तजत	-10420
▁ततक	-10421
▁दृग	-10422
▁पाख	-10423
▁बधे	-10424
▁सित	-10425
▁हाय	-10426
मात्र	-10427
॥205॥	-10428
॥237॥	-10429
॥292॥	-10430
॥294॥	-10431
॥320॥	-10432
▁उसास	-10433
▁कस्य	-10434
▁कृमि	-10435
▁कोरि	-10436
▁खंजन	-10437
▁चिता	-10438
▁चेता	-10439
▁पबार	-10440
▁बधउँ	-10441
▁बहाई	-10442
▁बादी	-10443
▁बिरद	-10444
▁मसान	-10445
▁माली	-10446
▁लोभइ	-10447
▁सजाई	-10448
सतानंद	-10449
सुन्दर	-10450
▁अबिचल	-10451
▁अहिगन	-10452
▁आचरनू	-10453
▁उचाटु	-10454
▁ऐहहिं	-10455
▁कतहूँ	-10456
▁कसहीं	-10457
▁कस्यप	-10458
▁किलकत	-10459
▁चिन्ह	-10460
▁जलंधर	-10461
▁जलजान	-10462
▁पनारे	-10463
▁बिआहा	-10464
▁बिआहु	-10465
▁बिगोई	-10466
▁बिगोए	-10467
▁बिचलत	-10468
▁बिडंब	-10469
▁बिदुष	-10470
▁बिधान	-10471
▁बिभाग	-10472
▁बिरुज	-10473
▁बिलगु	-10474
▁बिषयँ	-10475
▁बिहान	-10476
▁बीरता	-10477
▁बुलाई	-10478
▁बूझउँ	-10479
▁बूड़े	-10480
▁बैठाई	-10481
▁बौराह	-10482
▁ब्यजन	-10483
▁ब्यास	-10484
▁भगिनि	-10485
▁भजंति	-10486
▁भजामि	-10487
▁भटन्ह	-10488
▁भयानक	-10489
▁भयावन	-10490
▁भरहिं	-10491
▁भरोसो	-10492
▁भर्ता	-10493
▁भाइहि	-10494
▁भावति	-10495
▁भावते	-10496
▁भावनी	-10497
▁भुआलु	-10498
▁भुलाई	-10499
कहइ	-10500
कोल	-10501
खेल	-10502
गोद	-10503
दाइ	-10504
हरू	-10505
ेहि	-10506
॥74	-10507
आरीं	-10508
करीं	-10509
गवने	-10510
टुकि	-10511
पूजे	-10512
मारे	-10513
समरथ	-10514
्लभं	-10515
॥75॥	-10516
॥76॥	-10517
▁अलख	-10518
▁खीस	-10519
▁गमु	-10520
▁जगम	-10521
▁दमन	-10522
▁पेट	-10523
अत्रि	-10524
ध्वंस	-10525
॥180॥	-10526
▁काटु	-10527
▁कृषी	-10528
▁गेहँ	-10529
▁घरीं	-10530
▁चलाइ	-10531
▁धनदु	-10532
▁पारे	-10533
▁पेली	-10534
▁बाधी	-10535
▁बीजु	-10536
▁भूखे	-10537
▁मारइ	-10538
▁लजाई	-10539
▁सदाई	-10540
▁सभहि	-10541
▁सावँ	-10542
▁सुषे	-10543
▁हतउँ	-10544
▁आरतीं	-10545
▁उपाधी	-10546
▁जाहुँ	-10547
▁नरहरि	-10548
▁पलोटत	-10549
▁पायहु	-10550
▁पाहरू	-10551
▁बासरु	-10552
▁बिदेस	-10553
▁बिरची	-10554
▁भाइहु	-10555
▁भारती	-10556
▁भुवने	-10557
▁भूपबर	-10558
▁भेंटत	-10559
▁भेंटी	-10560
▁भेटीं	-10561
▁भ्रमि	-10562
▁मंगलु	-10563
▁मंडपु	-10564
▁मगावा	-10565
▁मच्छर	-10566
▁मधुबन	-10567
▁मनकाम	-10568
▁मनजात	-10569
▁मनावन	-10570
▁मर्दै	-10571
▁महाभट	-10572
▁महामो	-10573
▁महिषे	-10574
▁महीपा	-10575
▁महेसा	-10576
▁मातलि	-10577
▁माथें	-10578
▁मानसि	-10579
▁मायार	-10580
▁मारगु	-10581
▁मारहु	-10582
▁मिलीं	-10583
▁मुखिआ	-10584
▁मुदरी	-10585
▁मुनिब	-10586
▁मूढ़ा	-10587
▁मेटहु	-10588
▁मैनाक	-10589
▁मोचति	-10590
▁मोचनं	-10591
▁मोतें	-10592
▁रंजनं	-10593
▁रंध्र	-10594
▁रखवार	-10595
▁रचहिं	-10596
▁रच्छा	-10597
▁रहिहु	-10598
▁रहेसि	-10599
▁:	-10600
एकइ	-10601
कपटी	-10602
चलेउ	-10603
॥159	-10604
॥80॥	-10605
▁अरग	-10606
▁खात	-10607
▁खोइ	-10608
▁घना	-10609
▁छुइ	-10610
▁जूझ	-10611
▁डरप	-10612
▁ढिग	-10613
▁दोइ	-10614
▁भाथ	-10615
तातें	-10616
॥132॥	-10617
॥136॥	-10618
॥138॥	-10619
॥140॥	-10620
॥141॥	-10621
॥142॥	-10622
॥143॥	-10623
॥145॥	-10624
॥148॥	-10625
॥154॥	-10626
॥156॥	-10627
॥157॥	-10628
॥158॥	-10629
॥190॥	-10630
॥192॥	-10631
॥193॥	-10632
॥201॥	-10633
॥207॥	-10634
॥230॥	-10635
॥231॥	-10636
॥232॥	-10637
॥233॥	-10638
॥234॥	-10639
॥236॥	-10640
॥262॥	-10641
॥295॥	-10642
॥309॥	-10643
▁अनाम	-10644
▁अपेल	-10645
▁अल्प	-10646
▁कुलु	-10647
▁खैंच	-10648
▁खोजन	-10649
▁गरुअ	-10650
▁गीता	-10651
▁चापि	-10652
▁जिअब	-10653
▁निमि	-10654
▁राखब	-10655
▁लबार	-10656
▁समास	-10657
▁हँसत	-10658
कामादि	-10659
रघुकुल	-10660
सन्मुख	-10661
▁उदासा	-10662
▁एकतनु	-10663
▁काटें	-10664
▁पिआरि	-10665
▁बाढ़त	-10666
▁बिरचे	-10667
▁बैदिक	-10668
▁मलीने	-10669
▁राखउँ	-10670
▁राखीं	-10671
▁राखौं	-10672
▁राजति	-10673
▁राममय	-10674
▁रावरी	-10675
▁रिसाई	-10676
▁रोगबस	-10677
▁रोदति	-10678
▁लंगूर	-10679
▁लखहिं	-10680
▁लजाएँ	-10681
▁लजावन	-10682
▁लपटाई	-10683
▁लपेटि	-10684
▁लागहु	-10685
▁लालचु	-10686
▁लुकाई	-10687
▁लेइहि	-10688
▁लेवाई	-10689
▁लोचनं	-10690
▁ल्याइ	-10691
▁वदामि	-10692
▁विभुं	-10693
▁विषाद	-10694
▁शंकरः	-10695
▁शान्त	-10696
▁शाश्व	-10697
▁सँदेस	-10698
▁सँभार	-10699
कवने	-10700
बैठे	-10701
राजी	-10702
मायाँ	-10703
॥163॥	-10704
॥164॥	-10705
॥167॥	-10706
॥169॥	-10707
॥181॥	-10708
॥184॥	-10709
॥186॥	-10710
॥189॥	-10711
॥200॥	-10712
॥204॥	-10713
॥326॥	-10714
▁उपजे	-10715
▁खोटी	-10716
▁गौरव	-10717
▁हरहू	-10718
▁पूँछे	-10719
▁संकलप	-10720
▁संघार	-10721
▁संछेप	-10722
▁संबुक	-10723
▁सकुचा	-10724
▁सकुची	-10725
▁सकोचु	-10726
▁सकोचू	-10727
▁सचेता	-10728
▁सजहिं	-10729
▁सजीवन	-10730
▁सफूला	-10731
▁समरपी	-10732
▁समर्थ	-10733
▁समाति	-10734
▁समाधी	-10735
▁समुझइ	-10736
▁समुझी	-10737
▁समूहा	-10738
▁समेते	-10739
▁सम्यक	-10740
▁सयानप	-10741
▁सयानि	-10742
▁सरभंग	-10743
▁सरीरू	-10744
▁सर्बस	-10745
▁सर्बा	-10746
▁ससंका	-10747
▁सहमेउ	-10748
▁सहाया	-10749
▁सहावा	-10750
▁सहेली	-10751
▁साँचि	-10752
▁साँचे	-10753
▁साँधा	-10754
▁सागरु	-10755
▁सादें	-10756
▁सायकु	-10757
▁सारथि	-10758
▁साहनी	-10759
▁सिखाव	-10760
▁सिधाई	-10761
▁सियहि	-10762
▁सिसिर	-10763
▁सिसुर	-10764
▁सींचा	-10765
▁सुआरा	-10766
▁सुखहि	-10767
▁सुघरी	-10768
▁सुचित	-10769
▁सुतीय	-10770
▁सुधरम	-10771
▁सुनाउ	-10772
▁सुपंथ	-10773
▁सुपास	-10774
▁सुपेम	-10775
▁सुबचन	-10776
▁सुबेल	-10777
▁सुबेष	-10778
▁सुभ्र	-10779
▁सुरगन	-10780
▁सुरवर	-10781
▁सुराई	-10782
▁सुरूप	-10783
▁सुसेव	-10784
▁सुहाइ	-10785
▁सूत्र	-10786
▁सूनें	-10787
▁सृकाल	-10788
▁सेवहु	-10789
▁सेवाँ	-10790
▁सोभति	-10791
▁सोषेउ	-10792
▁सोहीं	-10793
▁स्वकर	-10794
▁स्वपच	-10795
▁स्वाद	-10796
▁हत्यो	-10797
▁हमहुँ	-10798
▁हरिही	-10799
▁हाँकि	-10800
▁हारें	-10801
▁हारेउ	-10802
▁होंही	-10803
▁होनेउ	-10804
उपरोहित	-10805
करिहहिं	-10806
कोटिन्ह	-10807
चक्रबाक	-10808
जिन्हहि	-10809
तिन्हहि	-10810
तुम्हहि	-10811
निगमागम	-10812
निर्गुन	-10813
प्रभुहि	-10814
प्रियम्	-10815
मंदोदरि	-10816
मर्थसंघ	-10817
मर्दहिं	-10818
रामानुज	-10819
वनिहारा	-10820
श्रद्धा	-10821
सपनेहुँ	-10822
सहसबाहु	-10823
सानुकूल	-10824
सास्त्र	-10825
सिंघासन	-10826
सिंहनाद	-10827
सिजनयनं	-10828
▁अंकुरे	-10829
▁अंगारा	-10830
▁अंडकोस	-10831
▁अंतकाल	-10832
▁अंसन्ह	-10833
▁अकलंका	-10834
▁अकिंचन	-10835
▁अघाहिं	-10836
▁अघाहीं	-10837
▁अटारीं	-10838
▁अतिकाय	-10839
▁अनवद्य	-10840
▁अनायास	-10841
▁अनुसार	-10842
▁अपमानु	-10843
▁अपराधु	-10844
▁अभिराम	-10845
▁अवँराई	-10846
▁अवगाही	-10847
▁अवगाहू	-10848
▁अवधेसा	-10849
▁अवनीसा	-10850
▁अवस्था	-10851
▁अहंकार	-10852
▁अहिपति	-10853
▁आदरहीं	-10854
▁आसुतोष	-10855
▁उघरहिं	-10856
▁उजिआरी	-10857
▁उड़ाउँ	-10858
▁उड़ाना	-10859
▁उतपातु	-10860
▁उपकारा	-10861
▁उपजावा	-10862
▁उपदेसे	-10863
▁उपद्रव	-10864
▁उपहासी	-10865
▁उमापति	-10866
▁उरगादा	-10867
▁उरगारि	-10868
▁कटेहुँ	-10869
▁कदराहू	-10870
▁कपिंदा	-10871
▁कपिराई	-10872
▁करनधार	-10873
▁करनीया	-10874
▁करावहु	-10875
▁कराहिं	-10876
▁करिहहु	-10877
▁करिहिं	-10878
▁कलकंठि	-10879
▁कल्पित	-10880
▁कल्याण	-10881
▁कहाहीं	-10882
▁कामारि	-10883
▁कारिनि	-10884
▁कालरूप	-10885
▁कालिका	-10886
▁किराती	-10887
▁किसोरी	-10888
▁कुअवसर	-10889
▁कुकरमू	-10890
▁कुजाति	-10891
▁कुजोगु	-10892
▁कुठाटु	-10893
▁कुठायँ	-10894
▁कुठारा	-10895
▁कुठारू	-10896
▁कुठाहर	-10897
▁कुमातु	-10898
▁कुरंगा	-10899
▁कुरूपा	-10900
▁कुलिसा	-10901
▁कुसमयँ	-10902
▁कुसलाई	-10903
▁केवटहि	-10904
▁कैलासा	-10905
▁कैलासू	-10906
▁कोदंडा	-10907
▁कोदंडु	-10908
▁कोपभवन	-10909
▁कौतुकु	-10910
▁कौतूहल	-10911
▁क्रोधु	-10912
▁खगनायक	-10913
▁गँभीरा	-10914
▁गवनहिं	-10915
▁गानहिं	-10916
▁गिरहिं	-10917
▁गिरिगन	-10918
▁गिरिगु	-10919
▁गिरिहि	-10920
▁गिरीसा	-10921
▁गीधराज	-10922
▁गुनग्य	-10923
▁गुमानी	-10924
▁गुरतिय	-10925
▁ग्रीवा	-10926
▁ग्लानी	-10927
▁घटजोनी	-10928
▁घनस्या	-10929
▁घरफोरी	-10930
▁घालहिं	-10931
▁चंचरीक	-10932
▁चंद्रम	-10933
▁चतुरता	-10934
▁चलिहउँ	-10935
▁चलेहुँ	-10936
▁चापखंड	-10937
▁चितवति	-10938
▁चीन्ही	-10939
▁चीन्हे	-10940
▁चौतनीं	-10941
▁चौरासी	-10942
▁छत्रिय	-10943
▁छन्दसा	-10944
▁छलहीना	-10945
▁छाड़हु	-10946
▁छीजहिं	-10947
▁जड़मति	-10948
▁जथोचित	-10949
▁जनतेउँ	-10950
▁जनवासा	-10951
▁जलधारा	-10952
▁जल्पना	-10953
▁जातहिं	-10954
▁जानेउँ	-10955
▁जान्यो	-10956
▁जीवहुँ	-10957
▁जुझारा	-10958
▁जेवाँइ	-10959
▁जेवाँए	-10960
▁जैहहिं	-10961
▁ठुमुकु	-10962
▁डारहीं	-10963
▁डोलहिं	-10964
▁ततकाला	-10965
▁तहँहुँ	-10966
▁ताड़ना	-10967
▁तिभुवन	-10968
▁तुम्हउ	-10969
▁तुसारू	-10970
▁तूनीरा	-10971
▁त्यागू	-10972
▁त्रातु	-10973
▁त्रिजग	-10974
▁दर्पित	-10975
▁दातन्ह	-10976
▁दिनेसू	-10977
▁दुआरें	-10978
▁दुर्मद	-10979
▁दूरिहि	-10980
▁दृढ़ाइ	-10981
▁देखावत	-10982
▁देखिअत	-10983
▁देखिहि	-10984
▁देखेसि	-10985
▁देवतरु	-10986
▁द्वारा	-10987
▁धनहीना	-10988
▁धरनितल	-10989
▁धर्ममय	-10990
▁धर्मरत	-10991
▁धुरीना	-10992
▁नभगिरा	-10993
▁नरलीला	-10994
▁नवनीता	-10995
▁नसाहिं	-10996
▁नाराचा	-10997
▁निचोरि	-10998
▁नितहीं	-10999
▁निबाहि	-11000
▁निबुकि	-11001
▁निरमयउ	-11002
▁निरासा	-11003
▁निरूपा	-11004
▁निर्झर	-11005
▁निर्बि	-11006
▁निर्वा	-11007
▁निर्वि	-11008
▁निवारे	-11009
▁निषंगा	-11010
▁निसेनी	-11011
▁निहोरे	-11012
▁नृपतनु	-11013
▁नेवारे	-11014
▁पंचबटी	-11015
▁पकवाने	-11016
▁पच्छिम	-11017
▁पछिताऊ	-11018
▁पटतरिअ	-11019
▁पतिआहू	-11020
▁पबित्र	-11021
▁पबिपात	-11022
▁परतीति	-11023
▁परदारा	-11024
▁परनामा	-11025
▁परनारि	-11026
▁परनारी	-11027
▁परन्तु	-11028
▁परमिति	-11029
▁परलोकु	-11030
▁परसुधर	-11031
▁पराहिं	-11032
▁परिहरइ	-11033
▁परिहरई	-11034
▁पवनतनय	-11035
▁पवित्र	-11036
▁पहिचान	-11037
▁पहिराइ	-11038
▁पाइहौं	-11039
▁पाथोधि	-11040
▁पादुका	-11041
▁पारावत	-11042
▁पालिहि	-11043
▁पिपीलि	-11044
▁पियूषा	-11045
▁पीड़ित	-11046
▁पुत्रि	-11047
▁पुरइनि	-11048
▁पुरोधा	-11049
▁पुलकेउ	-11050
▁पूँछति	-11051
▁पूँछहु	-11052
▁पूँछेउ	-11053
▁पूछहिं	-11054
▁पूजेउँ	-11055
▁पौढ़ाए	-11056
▁प्यारी	-11057
▁प्यारे	-11058
▁प्रगटइ	-11059
▁प्रगटै	-11060
▁प्रजंत	-11061
▁प्रजेस	-11062
▁प्रदेस	-11063
▁प्रदोष	-11064
▁प्रलाप	-11065
▁प्रहला	-11066
▁प्राची	-11067
▁प्रेरा	-11068
▁फिरहीं	-11069
▁फुलवाई	-11070
▁फूटहिं	-11071
▁बँधायउ	-11072
▁बंदिता	-11073
▁बंदीजन	-11074
▁बजावहु	-11075
▁बड़वान	-11076
▁बनचारी	-11077
▁बरदानू	-11078
▁बरबरनी	-11079
▁बराबरि	-11080
▁बरिआरा	-11081
▁बलबीरा	-11082
▁बलवंता	-11083
▁बलसाली	-11084
▁बाजहीं	-11085
▁बापिका	-11086
▁बापुरो	-11087
▁बारिचर	-11088
▁बिंग्य	-11089
▁बिकलतर	-11090
▁बिकलाई	-11091
▁बिकासा	-11092
▁बिगारी	-11093
▁बिचरहु	-11094
▁बिचलाइ	-11095
▁बिचारत	-11096
▁बिदारी	-11097
▁बिधंसि	-11098
▁बिबाहँ	-11099
▁बिभंजन	-11100
▁बिभेदा	-11101
▁बिमूढ़	-11102
▁बिमोहन	-11103
▁बिरचेउ	-11104
▁बिराजत	-11105
▁बिराजी	-11106
▁बिरोधा	-11107
▁बिरोधू	-11108
▁बिषाना	-11109
▁बिसराइ	-11110
▁बिसारि	-11111
▁बिहँसत	-11112
▁बिहानी	-11113
▁बिहारी	-11114
▁बिहारु	-11115
▁बीरासन	-11116
▁बेदिका	-11117
▁बैठारि	-11118
▁बैठावा	-11119
▁बोधमयं	-11120
▁बोलाएँ	-11121
▁बोहितु	-11122
▁ब्यापइ	-11123
▁भँडारू	-11124
▁भजेऽहं	-11125
▁भयभीता	-11126
▁भयाकुल	-11127
▁भयातुर	-11128
▁भयावनि	-11129
▁भवकूपा	-11130
▁भवनिधि	-11131
▁भवसागर	-11132
▁भाजहिं	-11133
▁भिखारी	-11134
▁भुजंगा	-11135
▁भुलाना	-11136
▁भुलानी	-11137
▁भुलाने	-11138
▁भूपसुत	-11139
▁भूपाला	-11140
▁भृकुटी	-11141
▁भ्रष्ट	-11142
▁भ्राजत	-11143
▁मंत्रु	-11144
▁मतवारे	-11145
▁मधुकरा	-11146
▁मधुरता	-11147
▁महादेव	-11148
▁महीसुर	-11149
▁महेसहि	-11150
▁मानहीं	-11151
▁मारीचा	-11152
▁मारेहु	-11153
▁माहुरु	-11154
▁मिथ्या	-11155
▁मिलेहु	-11156
▁मुदिता	-11157
▁मुनिजन	-11158
▁मुनिपट	-11159
▁मुनिहु	-11160
▁मृगन्ह	-11161
▁मोहहिं	-11162
▁रंकन्ह	-11163
▁रखिहउँ	-11164
▁रसानां	-11165
▁रहिहउँ	-11166
▁राखेउँ	-11167
▁राच्छस	-11168
▁राजपदु	-11169
▁राजमदु	-11170
▁राजमरा	-11171
▁रानिहि	-11172
▁रामायण	-11173
▁रामायन	-11174
▁रिद्धि	-11175
▁रिपुदल	-11176
▁रिसानी	-11177
▁रीछपति	-11178
▁लछिमनु	-11179
▁लयलीना	-11180
▁लागहीं	-11181
▁लागेसि	-11182
▁लाजहिं	-11183
▁लीलहिं	-11184
▁लोकपाल	-11185
▁लोचनाभ	-11186
▁लोभिहि	-11187
▁व्यापक	-11188
▁शम्भुः	-11189
▁षन्मुख	-11190
▁सँकोचु	-11191
▁सँभारे	-11192
▁संतापू	-11193
▁संतोषू	-11194
▁संतोषे	-11195
▁संदोहा	-11196
▁संबादु	-11197
▁संबादू	-11198
▁संभ्रम	-11199
▁सक्रोध	-11200
▁सजीवनि	-11201
▁सतरूपा	-11202
▁सनमानू	-11203
▁सपरिजन	-11204
▁समाप्त	-11205
▁समाहीं	-11206
▁समुझिअ	-11207
▁समुझें	-11208
▁समुदाइ	-11209
▁सयानीं	-11210
▁सरभंगा	-11211
▁सराहिअ	-11212
▁सर्बगत	-11213
▁सहजहिं	-11214
▁सहरोसा	-11215
▁साँवरो	-11216
▁साजहिं	-11217
▁सारिखे	-11218
▁सिंचाई	-11219
▁सिखावा	-11220
▁सिधारी	-11221
▁सिबिका	-11222
▁सिरन्ह	-11223
▁सिराति	-11224
▁सिरानी	-11225
▁सिरिजा	-11226
▁सिसुपन	-11227
▁सीतलता	-11228
▁सीसन्ह	-11229
▁सुंदरं	-11230
▁सुकृपा	-11231
▁सुखासन	-11232
▁सुचाली	-11233
▁सुजाति	-11234
▁सुजानू	-11235
▁सुधारे	-11236
▁सुपासा	-11237
▁सुबानि	-11238
▁सुबारि	-11239
▁सुबासा	-11240
▁सुबेला	-11241
▁सुमानस	-11242
▁सुमिरु	-11243
▁सुमृति	-11244
▁सुराजा	-11245
▁सुरुचि	-11246
▁सुरेसा	-11247
▁सुहाएँ	-11248
▁सोहाना	-11249
▁स्वरूप	-11250
▁स्वाति	-11251
▁स्वादु	-11252
▁हँकारि	-11253
▁हँकारे	-11254
▁हरगिरि	-11255
▁हरषाऊँ	-11256
▁हरिचंद	-11257
▁हरिहउँ	-11258
▁हिंकरि	-11259
▁हुलासू	-11260
▁होइहहु	-11261
▁होतेउँ	-11262
कौसल्याँ	-11263
तुम्हरें	-11264
प्रमुदित	-11265
राजकुअँर	-11266
ावनिहारी	-11267
ावनिहारे	-11268
▁अंतरहित	-11269
▁अकुलाना	-11270
▁अग्यानू	-11271
▁अचिरिजु	-11272
▁अधिकाईं	-11273
▁अनूकूला	-11274
▁अब्यक्त	-11275
▁अभिमानू	-11276
▁अभिलाषा	-11277
▁अभिलाषी	-11278
▁अभिषेकु	-11279
▁अवतरहीं	-11280
▁अवलंबनु	-11281
▁अवलोकनि	-11282
▁असंतन्ह	-11283
▁असीसहिं	-11284
▁अस्नाना	-11285
▁अहिराजा	-11286
▁अहिवाता	-11287
▁कमलन्हि	-11288
▁कल्पतरु	-11289
▁कवनेहुँ	-11290
▁कहावहिं	-11291
▁कहिहहिं	-11292
▁कहेन्हि	-11293
▁कारुनीक	-11294
▁कालराति	-11295
▁कुटिलपन	-11296
▁कुबस्तु	-11297
▁कुभाग्य	-11298
▁कुमतिहि	-11299
▁कुलघाती	-11300
▁कुलिसहु	-11301
▁कुसंगति	-11302
▁कृपाधाम	-11303
▁कोटिहुँ	-11304
▁कोमलचित	-11305
▁कोसलनाथ	-11306
▁कोसलराज	-11307
▁कोसलराय	-11308
▁कौसिकहि	-11309
▁कौसिलहि	-11310
▁कौसिलाँ	-11311
▁क्रीड़ा	-11312
▁गंधर्बा	-11313
▁गर्जेसि	-11314
▁गिरिजहि	-11315
▁गुंजहिं	-11316
▁गुणनिधि	-11317
▁गुननिधि	-11318
▁गुनातीत	-11319
▁गोदावरि	-11320
▁ग्यानहि	-11321
▁ग्रसिहि	-11322
▁ग्रामहि	-11323
▁चंद्रमा	-11324
▁चक्रबाक	-11325
▁चतुरंगा	-11326
▁चौथेंपन	-11327
▁छाड़िसि	-11328
▁छीरसागर	-11329
▁जगदातमा	-11330
▁जथाबिधि	-11331
▁जनावहिं	-11332
▁जनिअहिं	-11333
▁जलाश्रय	-11334
▁जुबराजा	-11335
▁जुबराजु	-11336
▁जेवनारा	-11337
▁तरंगिनि	-11338
▁तिन्हहू	-11339
▁तीरथराऊ	-11340
▁तेजपुंज	-11341
▁त्यागहु	-11342
▁त्यागेउ	-11343
▁त्रिकाल	-11344
▁दंपतिहि	-11345
▁दंभिन्ह	-11346
▁दयानिधि	-11347
▁दुराधरष	-11348
▁दुरावउँ	-11349
▁दुर्बाद	-11350
▁देखरावा	-11351
▁देवतन्ह	-11352
▁देवधुनि	-11353
▁द्वंद्व	-11354
▁द्विजबर	-11355
▁धर्मसील	-11356
▁धूमकेतु	-11357
▁नानायुध	-11358
▁निंदहिं	-11359
▁निअराने	-11360
▁निअराया	-11361
▁निकसहिं	-11362
▁निमेषें	-11363
▁निरंकुस	-11364
▁निरखंति	-11365
▁निरबाहा	-11366
▁निराकार	-11367
▁निराचार	-11368
▁निरुपधि	-11369
▁निस्तार	-11370
▁निहोरें	-11371
▁नृपसमाज	-11372
▁पछिताना	-11373
▁पछितानि	-11374
▁पछिताने	-11375
▁परमारथी	-11376
▁परिचारक	-11377
▁परिच्छा	-11378
▁परिजनहि	-11379
▁परितोषे	-11380
▁परिनामू	-11381
▁परिपोषे	-11382
▁परिहरऊँ	-11383
▁परिहरहि	-11384
▁पल्लवित	-11385
▁पहुँचाए	-11386
▁पाकरिपु	-11387
▁पिताहूँ	-11388
▁प्रकासक	-11389
▁प्रकासू	-11390
▁प्रचारू	-11391
▁प्रतापी	-11392
▁प्रतिभट	-11393
▁प्रबरषन	-11394
▁प्रबाहँ	-11395
▁प्रबाहू	-11396
▁प्रबिसि	-11397
▁प्रबोधी	-11398
▁प्रसंसत	-11399
▁प्रसंसी	-11400
▁प्राबिट	-11401
▁प्रीतमु	-11402
▁प्रेरेउ	-11403
▁बखानहिं	-11404
▁बखानहीं	-11405
▁बसिष्टु	-11406
▁बसिहहिं	-11407
▁बहुरंगा	-11408
▁बाँधेसि	-11409
▁बाढ़हिं	-11410
▁बारंबार	-11411
▁बालबिनय	-11412
▁बासिन्ह	-11413
▁बासुदेव	-11414
▁बिख्यात	-11415
▁बिचरहिं	-11416
▁बिचारहु	-11417
▁बिधातहि	-11418
▁बिधाताँ	-11419
▁बिपुलाई	-11420
▁बिबाहीं	-11421
▁बिबेकमय	-11422
▁बिमुक्त	-11423
▁बिमूढ़ा	-11424
▁बिमोचनि	-11425
▁बिमोहनि	-11426
▁बिरहवंत	-11427
▁बिराजति	-11428
▁बिलपाता	-11429
▁बिलोकें	-11430
▁बिसूरति	-11431
▁बिहरहिं	-11432
▁बेदधुनि	-11433
▁बैठेहिं	-11434
▁बैराग्य	-11435
▁ब्यापेउ	-11436
▁ब्यालहि	-11437
▁ब्रह्मु	-11438
▁ब्रीड़ा	-11439
▁भरतादिक	-11440
▁भानुप्र	-11441
▁भालुपति	-11442
▁भावँरीं	-11443
▁भिनुसार	-11444
▁भूरिभाग	-11445
▁भृगुकुल	-11446
▁भृगुनाथ	-11447
▁भ्रमहिं	-11448
▁मंडलिहि	-11449
▁मतिभ्रम	-11450
▁मनावहिं	-11451
▁महिदेवा	-11452
▁महिपालु	-11453
▁महीपन्ह	-11454
▁मानप्रद	-11455
▁मुकुंदा	-11456
▁मुनिबरु	-11457
▁मुनिबेष	-11458
▁मृगछाला	-11459
▁मृगराजू	-11460
▁रंगभूमि	-11461
▁रखिहहिं	-11462
▁रघुनाथु	-11463
▁रघुबीरू	-11464
▁रनधीरहि	-11465
▁राजसमाज	-11466
▁राजिवनै	-11467
▁रामभगति	-11468
▁राममातु	-11469
▁रामसखाँ	-11470
▁रावनहिं	-11471
▁रोमावलि	-11472
▁लगावहिं	-11473
▁लरिकन्ह	-11474
▁विज्ञान	-11475
▁संभुचाप	-11476
▁संभुधनु	-11477
▁संहर्ता	-11478
▁सकुचहिं	-11479
▁सचिवसुत	-11480
▁सतानंदु	-11481
▁सत्यधाम	-11482
▁सद्धर्म	-11483
▁सन्यपात	-11484
▁सप्रेमा	-11485
▁समाधानु	-11486
▁समुझायउ	-11487
▁सर्बत्र	-11488
▁सहजेहिं	-11489
▁साखामृग	-11490
▁साचेहुँ	-11491
▁साधुन्ह	-11492
▁सिंगारा	-11493
▁सिंघनाद	-11494
▁सिंसुपा	-11495
▁सिराहिं	-11496
▁सिराहीं	-11497
▁सीतानाथ	-11498
▁सीतापति	-11499
▁सीलनिधि	-11500
▁सुंदरीं	-11501
▁सुकीरति	-11502
▁सुखकंदा	-11503
▁सुखधामा	-11504
▁सुनयनीं	-11505
▁सुनाइहि	-11506
▁सुनाएहु	-11507
▁सुनावौं	-11508
▁सुनासीर	-11509
▁सुप्रेम	-11510
▁सुबानीं	-11511
▁सुबिहंग	-11512
▁सुभटन्ह	-11513
▁सुभट्टा	-11514
▁सुमिरहु	-11515
▁सुरधामा	-11516
▁सुरधेनू	-11517
▁सुरनायक	-11518
▁सुरराजु	-11519
▁सुरसरित	-11520
▁सूलप्रद	-11521
▁सेतुबंध	-11522
▁सेवकन्ह	-11523
▁सोकप्रद	-11524
▁स्यामता	-11525
▁हतभाग्य	-11526
चतुरंगिनी	-11527
राजकुमारि	-11528
▁अंबुनिधि	-11529
▁अतुलितबल	-11530
▁अनुसरहीं	-11531
▁अनुसरेहू	-11532
▁अनुसासनु	-11533
▁अरिमर्दन	-11534
▁अवतरिहउँ	-11535
▁अवधपुरीं	-11536
▁अवलोकहिं	-11537
▁अहोभाग्य	-11538
▁आदिसक्ति	-11539
▁आश्रमहिं	-11540
▁इंद्रजीत	-11541
▁इंद्रधनु	-11542
▁उपदेसहिं	-11543
▁कनककसिपु	-11544
▁कलहप्रिय	-11545
▁किरातन्ह	-11546
▁किरातिनि	-11547
▁कीन्हिउँ	-11548
▁कीन्हिसि	-11549
▁कुटिलाईं	-11550
▁कुबिचारी	-11551
▁कौसल्यहि	-11552
▁कौसल्याँ	-11553
▁कौसिकादि	-11554
▁क्रुद्धे	-11555
▁गजगामिनि	-11556
▁गाधिसूनु	-11557
▁चिंतामनि	-11558
▁छीरसिंधु	-11559
▁जगदंबिका	-11560
▁जनत्राता	-11561
▁जनवासेहि	-11562
▁जाचकन्हि	-11563
▁जुबतिन्ह	-11564
▁तिन्हहीं	-11565
▁तिपुरारि	-11566
▁तिलांजलि	-11567
▁तीरथराजा	-11568
▁तीरथराजू	-11569
▁दिसिपाला	-11570
▁दीन्हिसि	-11571
▁धनुषजग्य	-11572
▁ध्यावहीं	-11573
▁नानाबिधि	-11574
▁नारिधरमु	-11575
▁निकंदिनि	-11576
▁निरुपाधि	-11577
▁निर्गुणं	-11578
▁निषादनाथ	-11579
▁निषादपति	-11580
▁निसिचरीं	-11581
▁निहारहिं	-11582
▁पतिदेवता	-11583
▁पदत्राना	-11584
▁पदारबिंद	-11585
▁पन्नगारि	-11586
▁परिपूरित	-11587
▁परिहरिहि	-11588
▁पवनकुमार	-11589
▁पहिचानें	-11590
▁पहिलेहिं	-11591
▁पहुँचावन	-11592
▁पुत्रबधू	-11593
▁पुरानन्ह	-11594
▁पुलकावली	-11595
▁पुलकाहीं	-11596
▁प्रत्यूह	-11597
▁प्रातकाल	-11598
▁फेरिअहिं	-11599
▁बरनाश्रम	-11600
▁बहुभाँती	-11601
▁बारिनिधि	-11602
▁बालकन्हि	-11603
▁बालबिनोद	-11604
▁बिदारहिं	-11605
▁बिद्यमान	-11606
▁बिरहाकुल	-11607
▁बिराजहिं	-11608
▁बिराजहीं	-11609
▁बिरुद्धे	-11610
▁बिलोकेउँ	-11611
▁बिस्वासु	-11612
▁बृत्तांत	-11613
▁बोल्लहिं	-11614
▁ब्यवहारु	-11615
▁ब्यापहिं	-11616
▁ब्रह्मंड	-11617
▁ब्रह्मपर	-11618
▁ब्रह्ममय	-11619
▁ब्रह्मसर	-11620
▁भवतब्यता	-11621
▁भाँतिहिं	-11622
▁भाषाबद्ध	-11623
▁भूधराकार	-11624
▁भूपकिसोर	-11625
▁भूषनधारी	-11626
▁भ्राजहिं	-11627
▁मंगलकारी	-11628
▁मंदाकिनि	-11629
▁मनोहरायत	-11630
▁मुनिबेषा	-11631
▁मूरतिमंत	-11632
▁राजकुअँर	-11633
▁लीन्हेसि	-11634
▁श्रीकंता	-11635
▁श्रीरमनं	-11636
▁सँवारेहु	-11637
▁संछेपहिं	-11638
▁संशोभितं	-11639
▁सत्यब्रत	-11640
▁सिंघासनु	-11641
▁सिसुलीला	-11642
▁सुनावहिं	-11643
▁सुमिरेसि	-11644
▁सुमिरेहु	-11645
▁सुरपतिहि	-11646
▁सुरसरिता	-11647
▁सुस्वामि	-11648
▁स्वतंत्र	-11649
▁स्वान्तः	-11650
▁स्वामिहि	-11651
▁हनुमंतहि	-11652
▁अमोघसक्ति	-11653
▁आश्रमन्हि	-11654
▁इच्छाचारी	-11655
▁कँगूरन्हि	-11656
▁कज्जलगिरि	-11657
▁कुमुदिनीं	-11658
▁कोसलपुरीं	-11659
▁ग्यानिन्ह	-11660
▁चिक्करहीं	-11661
▁छन्दसामपि	-11662
▁जाननिहारा	-11663
▁त्रिबेनीं	-11664
▁दिगपालन्ह	-11665
▁दिसिकुंजर	-11666
▁देखनिहारे	-11667
▁निषादनाथु	-11668
▁परिखिअहिं	-11669
▁पुन्यपुंज	-11670
▁पुरुषारथु	-11671
▁प्रतापरबि	-11672
▁प्रतिपालक	-11673
▁प्रतिपाला	-11674
▁प्रतिपाली	-11675
▁प्रदच्छिन	-11676
▁बंदनिवारे	-11677
▁बिधुबदनीं	-11678
▁बिलोकिहउँ	-11679
▁ब्रह्मलोक	-11680
▁भुवनेस्वर	-11681
▁महिदेवन्ह	-11682
▁मिथिलापति	-11683
▁रघुकुलमनी	-11684
▁रघुनायकहि	-11685
▁राजकुमारा	-11686
▁श्रवनामृत	-11687
▁श्रीनिवास	-11688
▁श्रीभगवान	-11689
▁सरसिजनयनं	-11690
▁सारँगपानी	-11691
▁सिवद्रोही	-11692
▁सुरद्रोही	-11693
▁सुसीतलताई	-11694
▁सोभासिंधु	-11695
प्रातक्रिया	-11696
मर्थसंघानां	-11697
▁कृपादृष्टि	-11698
▁कैकयनंदिनि	-11699
▁जातुधानपति	-11700
▁तुम्हारिहि	-11701
▁तुम्हारेहि	-11702
▁दच्छकुमारी	-11703
▁दुलहिनिन्ह	-11704
▁नगरबासिन्ह	-11705
▁प्रतिउत्तर	-11706
▁बालिकुमारा	-11707
▁बिप्रश्राप	-11708
▁ब्रह्मगिरा	-11709
▁मुनिद्रोही	-11710
▁रघुकुलकेतू	-11711
▁रघुकुलनाथा	-11712
▁रघुबंसिन्ह	-11713
▁श्रुतकीरति	-11714
▁सुमनबृष्टि	-11715
▁ब्रह्मसुखहि	-11716
▁लोचनाभिरामा	-11717
▁सच्चिदानंदा	-11718
▁ब्रह्मबिचारू	-11719
▁गिरिराजकुमारी	-11720
▁श्रीमद्रामचरित	-11721
छमब	-11722
डाम	-11723
णवे	-11724
भौश	-11725
रौर	-11726
वेक	-11727
षौघ	-11728
ऽसौ	-11729
ूथः	-11730
ँगाए	-11731
ँधहु	-11732
ंडिम	-11733
अगनु	-11734
अनिप	-11735
कमेव	-11736
खप्प	-11737
खाइअ	-11738
खाउज	-11739
गण्य	-11740
चंपक	-11741
छठें	-11742
छोटे	-11743
छोरत	-11744
जितं	-11745
ज्जौ	-11746
टूटत	-11747
ट्टि	-11748
डंबर	-11749
णशरा	-11750
णिम्	-11751
तनोई	-11752
द्वौ	-11753
धिपः	-11754
निअउ	-11755
निषद	-11756
पहिच	-11757
पाणि	-11758
पूरं	-11759
भिल्	-11760
भेंट	-11761
भेदा	-11762
मरती	-11763
मालं	-11764
मौलि	-11765
यूषा	-11766
रत्थ	-11767
रमेउ	-11768
रूथः	-11769
लहेउ	-11770
लिखत	-11771
ल्पि	-11772
शमीश	-11773
शरीर	-11774
शालं	-11775
संबत	-11776
ससरल	-11777
सिनः	-11778
ऽस्म	-11779
ुभौश	-11780
ैलाभ	-11781
ैहसि	-11782
ोंटी	-11783
्तवं	-11784
‍लकि	-11785
▁आठइ	-11786
▁आरौ	-11787
▁उभौ	-11788
▁खँच	-11789
▁खुट	-11790
▁टरै	-11791
▁टाप	-11792
▁भनई	-11793
▁भौम	-11794
▁वरध	-11795
▁हनइ	-11796
▁हनै	-11797
ंचनता	-11798
ंबुजं	-11799
आनँ	-11800
गौर	-11801
पठइ	-11802
पठए	-11803
िनौ	-11804
ंवंद	-11805
अपने	-11806
अपरा	-11807
आँरि	-11808
आनँद	-11809
उपजि	-11810
उपमा	-11811
टनवि	-11812
नौमी	-11813
पठवा	-11814
बराए	-11815
भाले	-11816
रिआँ	-11817
वाले	-11818
विनौ	-11819
सीटन	-11820
हिगो	-11821
ावशव	-11822
ंनौमी	-11823
ंवंदे	-11824
अंतर्	-11825
अजहूँ	-11826
अपभयँ	-11827
अवधेस	-11828
अहिवा	-11829
आनेउँ	-11830
आपुनु	-11831
ईस्वर	-11832
कन्जम	-11833
कलिकल	-11834
काननु	-11835
कोमला	-11836
क्कुट	-11837
गहबरि	-11838
गाहकु	-11839
घोरकि	-11840
चांसि	-11841
चूडाम	-11842
टनविध	-11843
ट्टिभ	-11844
णरूपं	-11845
ण्यार	-11846
तकिसे	-11847
तजातं	-11848
तत्पर	-11849
तनयाँ	-11850
तनेहि	-11851
तनोति	-11852
दमकेउ	-11853
दरगौर	-11854
दससीस	-11855
दीयेस	-11856
देहंद	-11857
द्भवं	-11858
द्भाल	-11859
द्रान	-11860
द्वंद	-11861
धूटीं	-11862
नादिम	-11863
पाणिं	-11864
पुंगव	-11865
पूज्य	-11866
पेतीं	-11867
प्पनु	-11868
बागुर	-11869
बारिज	-11870
भक्तं	-11871
भजामि	-11872
भूषणः	-11873
मखिलं	-11874
मामीश	-11875
मायहि	-11876
मित्थ	-11877
मुंडा	-11878
मृतम्	-11879
रतनदी	-11880
रतनुं	-11881
राखिअ	-11882
राखेउ	-11883
राधिप	-11884
रूपिण	-11885
र्तकी	-11886
र्पहं	-11887
र्बाच	-11888
लिखित	-11889
ल्लभं	-11890
वद्यम	-11891
वेकजल	-11892
व्याल	-11893
शण्डि	-11894
षरूपि	-11895
षावंत	-11896
संपुट	-11897
सत्रु	-11898
सीतलि	-11899
सूदनु	-11900
स्नाँ	-11901
हरानी	-11902
हेलें	-11903
ऽतिदु	-11904
ारायण	-11905
िंडिम	-11906
ुमोहि	-11907
ुर्वि	-11908
ुर्वी	-11909
ेऽस्म	-11910
्थाटन	-11911
्थाना	-11912
्नेहु	-11913
्पूर्	-11914
्मषौघ	-11915
्यमन्	-11916
्यमूक	-11917
॥361॥	-11918
‍देहि	-11919
▁अइसि	-11920
▁अइसे	-11921
▁अखयब	-11922
▁अधगो	-11923
▁अबूझ	-11924
▁आलसी	-11925
▁आलसु	-11926
▁उचरि	-11927
▁उनहि	-11928
▁उनीद	-11929
▁उबटि	-11930
▁उबरे	-11931
▁उभयँ	-11932
▁कँगू	-11933
▁क्वौ	-11934
▁खीरु	-11935
▁गंजय	-11936
▁घरिक	-11937
▁चंपक	-11938
▁चमगा	-11939
▁चरिऐ	-11940
▁छेदे	-11941
▁जमात	-11942
▁जुरइ	-11943
▁जुरन	-11944
▁जूझै	-11945
▁झपटि	-11946
▁झलकत	-11947
▁झलका	-11948
▁झुकी	-11949
▁ठाटू	-11950
▁डीठी	-11951
▁ढाबर	-11952
▁ढीठु	-11953
▁तलफत	-11954
▁तहिआ	-11955
▁तारय	-11956
▁दपटि	-11957
▁दमनू	-11958
▁दागे	-11959
▁धरों	-11960
▁धुआँ	-11961
▁पहला	-11962
▁पृथक	-11963
▁पेखन	-11964
▁फहरा	-11965
▁बररै	-11966
▁बेतस	-11967
▁भँवर	-11968
▁भभरि	-11969
▁मगाइ	-11970
▁मगाए	-11971
▁महोख	-11972
▁मामभ	-11973
▁मेडु	-11974
▁यूथः	-11975
▁रउरे	-11976
▁रूचइ	-11977
▁लिखत	-11978
▁वरम्	-11979
▁वाले	-11980
▁वैरि	-11981
▁शरीर	-11982
▁शिवः	-11983
▁सकाम	-11984
▁सगरे	-11985
▁हट्ट	-11986
▁हूहा	-11987
▁हेमश	-11988
अंतहुँ	-11989
इंद्रज	-11990
कटाहिं	-11991
करयुतं	-11992
कलिकाल	-11993
कवनेउँ	-11994
कारूढ़	-11995
गण्यम्	-11996
गोबिंद	-11997
घुर्मि	-11998
घोरकिर	-11999
श्रीम	-12000
▁अहीर	-12001
▁उचाट	-12002
▁जनाउ	-12003
▁नतोऽ	-12004
▁नाचइ	-12005
▁भोरू	-12006
▁मनाए	-12007
▁मनाग	-12008
▁मिथ्	-12009
▁ललाम	-12010
▁संशय	-12011
▁सनाह	-12012
चिदन्य	-12013
जलोचनं	-12014
ज्ञानौ	-12015
ठिकन्ह	-12016
णतत्पर	-12017
तत्त्व	-12018
तलोचनं	-12019
त्माहन	-12020
दधिमुख	-12021
दमित्थ	-12022
द्रुमा	-12023
नाघहिं	-12024
निर्भर	-12025
न्धुना	-12026
न्मौलि	-12027
पंचबटी	-12028
पदाब्ज	-12029
परिहरु	-12030
पहिरें	-12031
पारायण	-12032
पूजिहि	-12033
बधुन्ह	-12034
बातहिं	-12035
बारिधि	-12036
बालमीक	-12037
बीसहुँ	-12038
भक्तिं	-12039
भिल्लि	-12040
मप्रमे	-12041
मलमखिल	-12042
मलापहं	-12043
महामंद	-12044
मुहानी	-12045
म्बुजश	-12046
म्भोधर	-12047
रायतना	-12048
रिनिहि	-12049
लछिमनु	-12050
लिकिला	-12051
वाँसहु	-12052
वाधिपः	-12053
शमीशान	-12054
श्रवना	-12055
श्रीहत	-12056
सरदातप	-12057
सिन्धु	-12058
सुण्डि	-12059
सूपनखा	-12060
हँसेहु	-12061
ऽतिदीन	-12062
ाम्बुज	-12063
ावुभौश	-12064
ियमूला	-12065
ुर्वीश	-12066
ूखन्हि	-12067
्यमीशं	-12068
्यारंभ	-12069
्योऽसौ	-12070
्राघात	-12071
▁अँथयउ	-12072
▁अंताव	-12073
▁अगहनु	-12074
▁अदोषा	-12075
▁अनंगु	-12076
▁अपनपौ	-12077
▁अपबरग	-12078
▁अबसहि	-12079
▁अबाधा	-12080
▁अबाधी	-12081
▁अबासू	-12082
▁अरगजा	-12083
▁अलीका	-12084
▁अल्पम	-12085
▁असमसर	-12086
▁अहीसु	-12087
▁अहेरी	-12088
▁उचाटे	-12089
▁उबरसि	-12090
▁औतेहु	-12091
▁कदंबा	-12092
▁कदाचि	-12093
▁करीजै	-12094
▁करीला	-12095
▁कर्दम	-12096
▁कलमले	-12097
▁कलहंस	-12098
▁कल्पि	-12099
डारइ	-12100
नमनी	-12101
मागि	-12102
संकू	-12103
▁ज्ञ	-12104
▁बगध	-12105
▁सैन	-12106
▁‍िल	-12107
अबिगत	-12108
उत्तम	-12109
कमिदं	-12110
क्रमं	-12111
दछिना	-12112
नामयं	-12113
संकरु	-12114
▁ऐसिअ	-12115
▁औषधी	-12116
▁औषधु	-12117
▁खभार	-12118
▁घंटा	-12119
▁घंटि	-12120
▁चूरन	-12121
▁छेमा	-12122
▁जठरा	-12123
▁जारइ	-12124
▁ढारइ	-12125
▁पइठि	-12126
▁शंखे	-12127
▁शंभु	-12128
▁हलरा	-12129
भृगुबर	-12130
मनामयं	-12131
मागहिं	-12132
मिटिहि	-12133
संकल्प	-12134
सिंधुर	-12135
सिअरें	-12136
▁अचवँत	-12137
▁अदिनु	-12138
▁कसमसा	-12139
▁कसमसे	-12140
▁कारिख	-12141
▁कुभाऊ	-12142
▁कूबरे	-12143
▁कूरुम	-12144
▁कृष्न	-12145
▁कोहाब	-12146
▁कौड़ी	-12147
▁खँचाइ	-12148
▁खँसेउ	-12149
▁खंडनं	-12150
▁खाँड़	-12151
▁खालें	-12152
▁खोटाई	-12153
▁गजबदन	-12154
▁गतलाज	-12155
▁गाँठी	-12156
▁गाँडर	-12157
▁गुड़ी	-12158
▁गुणाग	-12159
▁गुमान	-12160
▁घमंडु	-12161
▁घरिनि	-12162
▁घसीटन	-12163
▁चपलता	-12164
▁चरिता	-12165
▁चवहीं	-12166
▁चाँपी	-12167
▁चाहति	-12168
▁चाहिऐ	-12169
▁चिरजी	-12170
▁चूड़ा	-12171
▁छूँछा	-12172
▁छूछें	-12173
▁जगमगत	-12174
▁जनायउ	-12175
▁जूझें	-12176
▁जूड़ी	-12177
▁जैहसि	-12178
▁जौबनु	-12179
▁झपटेउ	-12180
▁झाँखा	-12181
▁झाँझि	-12182
▁झुठाई	-12183
▁झोंटी	-12184
▁ठटुकि	-12185
▁ठाटहु	-12186
▁ठाहरु	-12187
▁डगहिं	-12188
▁डमरुआ	-12189
▁डरपसि	-12190
▁डरेउँ	-12191
▁ढनमनी	-12192
▁ढहावा	-12193
▁तथापि	-12194
▁तामरस	-12195
▁तीसरि	-12196
▁तीसरे	-12197
▁तूनीर	-12198
▁तोतरि	-12199
अरई	-12200
उहट	-12201
कमठ	-12202
फणी	-12203
रहै	-12204
कंठु	-12205
खेलत	-12206
गिलत	-12207
चउहट	-12208
झरना	-12209
धुरी	-12210
फिरे	-12211
फूलत	-12212
भोगी	-12213
यस्क	-12214
युता	-12215
रचना	-12216
रचीं	-12217
रजनी	-12218
राखु	-12219
सखरी	-12220
साधक	-12221
्विक	-12222
▁पृथ	-12223
आपनें	-12224
कहेहु	-12225
घनध्व	-12226
जीतहु	-12227
ठाढ़े	-12228
ड़बति	-12229
पूजहु	-12230
बिंधि	-12231
बोलनि	-12232
माकाश	-12233
युताः	-12234
विधुर	-12235
ेयस्क	-12236
॥3-5॥	-12237
▁पृथु	-12238
▁पेखु	-12239
▁वाणी	-12240
ंडिपाल	-12241
घघनध्व	-12242
चउहट्ट	-12243
पारबती	-12244
प्रध्व	-12245
रजनीचर	-12246
हारिणी	-12247
▁अचंभव	-12248
▁उगिलत	-12249
▁कलियु	-12250
▁चापमख	-12251
▁छेंका	-12252
▁जाचति	-12253
▁तोषेउ	-12254
▁थापिय	-12255
▁दरारा	-12256
▁दलमले	-12257
▁दावनी	-12258
▁दैअहि	-12259
▁धनुमख	-12260
▁ध्याव	-12261
▁ध्रुब	-12262
▁नलिनी	-12263
▁नायका	-12264
▁निबहइ	-12265
▁निबृत	-12266
▁नियोग	-12267
▁नेवता	-12268
▁न्याउ	-12269
▁पइसार	-12270
▁पखारत	-12271
▁पदाति	-12272
▁पबारै	-12273
▁पषाना	-12274
▁पाकरी	-12275
▁पादार	-12276
▁पादोद	-12277
▁पापिउ	-12278
▁पूर्ण	-12279
▁पेखें	-12280
▁बकसीस	-12281
▁बच्छु	-12282
▁बत्ति	-12283
▁बदलें	-12284
▁बनदेब	-12285
▁बर्षा	-12286
▁बाँझा	-12287
▁बाचाल	-12288
▁बादले	-12289
▁बाहनी	-12290
▁बिटपु	-12291
▁बिडरि	-12292
▁बिथकि	-12293
▁बिरती	-12294
▁बिसाद	-12295
▁बीनती	-12296
▁बेधिअ	-12297
▁बेहाल	-12298
▁भगीरथ	-12299
▁पसाऊ	-12300
▁पहुन	-12301
निधानं	-12302
न्विनौ	-12303
▁अलीहा	-12304
▁असंकू	-12305
▁आगमनू	-12306
▁पहुनई	-12307
▁पालिब	-12308
▁पुष्प	-12309
▁प्रजउ	-12310
▁फिराए	-12311
▁बिकाइ	-12312
▁भदेसा	-12313
▁भदेसू	-12314
▁भनंता	-12315
▁भरताग	-12316
▁भवँरु	-12317
▁भामनी	-12318
▁भाषउँ	-12319
▁भाषें	-12320
▁भिरउँ	-12321
▁भिरेउ	-12322
▁भुलाब	-12323
▁भूँखा	-12324
▁भौतिक	-12325
▁मँगाए	-12326
▁मइकें	-12327
▁मकरीं	-12328
▁मर्दई	-12329
▁मसानु	-12330
▁महोदर	-12331
▁माँसू	-12332
▁मायिक	-12333
▁मूरुख	-12334
▁मृगनै	-12335
▁रंजनि	-12336
▁रघुवं	-12337
▁रसातल	-12338
▁रहँसि	-12339
▁राचेउ	-12340
▁रिझाइ	-12341
▁रिझाई	-12342
▁रिषयँ	-12343
▁लड़ाइ	-12344
▁लपेटे	-12345
▁ललामा	-12346
▁लस्यो	-12347
▁लिखित	-12348
▁लुनिअ	-12349
▁लूटीं	-12350
▁लेखिअ	-12351
▁लोपेउ	-12352
▁वरूथः	-12353
▁शोभाढ	-12354
▁षटबदन	-12355
▁सँजोऊ	-12356
▁संभूत	-12357
▁संशयं	-12358
▁सकरुन	-12359
▁सकिलि	-12360
▁सकोपा	-12361
▁सकोपि	-12362
▁सगाईं	-12363
▁सचकित	-12364
▁सचेतन	-12365
▁सनाला	-12366
▁सनाहु	-12367
▁सपेमा	-12368
▁सबिबे	-12369
▁सबिषा	-12370
▁समतूल	-12371
▁समिटे	-12372
▁समेटा	-12373
▁समेटि	-12374
▁समेति	-12375
▁ससुरु	-12376
▁सहोदर	-12377
▁साइँद	-12378
▁सातवँ	-12379
▁सादरु	-12380
▁सायका	-12381
▁सिअनि	-12382
▁सुगाइ	-12383
▁सुषेन	-12384
▁सृजति	-12385
▁सृजीं	-12386
▁सोरठा	-12387
▁सोषिअ	-12388
▁सोषौं	-12389
▁स्तवं	-12390
▁हरतोष	-12391
▁॥166॥	-12392
▁॥292॥	-12393
ंचनताति	-12394
अग्यासम	-12395
अमलमखिल	-12396
अहिवातु	-12397
इंद्रीं	-12398
कतस्तथा	-12399
छोभा	-12400
भसिं	-12401
रवनू	-12402
लहात	-12403
ोभाढ	-12404
ौघमय	-12405
▁अदभ	-12406
▁कथइ	-12407
▁कथन	-12408
▁याभ	-12409
कीरति	-12410
षनांग	-12411
स्तरं	-12412
॥22॥॥	-12413
▁अद्व	-12414
▁उछँग	-12415
▁कथहि	-12416
▁घरुन	-12417
▁घवरि	-12418
▁जहाज	-12419
▁जालू	-12420
▁जिअइ	-12421
▁जौबन	-12422
▁नहात	-12423
▁याको	-12424
▁रटति	-12425
▁रटनि	-12426
▁रटहु	-12427
▁साउज	-12428
▁॥55॥	-12429
कीजीवन	-12430
कुसगुन	-12431
जातिहि	-12432
तेभसिं	-12433
मांजलि	-12434
षनांगद	-12435
ेदान्त	-12436
ोभाढ्य	-12437
▁अकलंक	-12438
▁अछोभा	-12439
▁अजाचक	-12440
▁अथाईं	-12441
▁अदभ्र	-12442
▁अरधंग	-12443
▁उछंगा	-12444
▁कुअंक	-12445
▁केसरी	-12446
▁गरबित	-12447
▁गवँहि	-12448
▁चपेटा	-12449
▁जिअसि	-12450
▁डगमगा	-12451
▁ढरहीं	-12452
▁तुसार	-12453
▁नारकी	-12454
▁निवसे	-12455
▁याकें	-12456
▁सिहात	-12457
▁हंकार	-12458
ंकारमूल	-12459
कमद्भुत	-12460
करुनामय	-12461
कलिकलुष	-12462
कवनेहुँ	-12463
कामादिद	-12464
कारुनीक	-12465
किसोरहि	-12466
कुक्कुट	-12467
कुलचंदु	-12468
कौसिकहि	-12469
ख्यमीशं	-12470
गर्भन्ह	-12471
गाहन्ति	-12472
गोदावरी	-12473
ग्रामपु	-12474
घोरकिरण	-12475
चिक्करत	-12476
च्छम्भु	-12477
जननिन्ह	-12478
टिट्टिभ	-12479
टिलसत्त	-12480
टूटतहीं	-12481
णतत्परौ	-12482
ण्डमालं	-12483
ताम्बरं	-12484
तृस्नाँ	-12485
थवाँसहु	-12486
दमित्थं	-12487
दाब्जचि	-12488
दुंदुभि	-12489
दुंदुभी	-12490
दुर्लभं	-12491
ध्वंसने	-12492
निअउरें	-12493
पट्टहिं	-12494
प्यमानं	-12495
प्रगटीं	-12496
प्रतिहत	-12497
प्रध्वं	-12498
प्रमोदु	-12499
झाँ	-12500
णाम	-12501
षजं	-12502
-5।।	-12503
क्रो	-12504
गवनू	-12505
चर्ज	-12506
दलकि	-12507
दुःख	-12508
बिषम	-12509
र्दह	-12510
लागइ	-12511
़ढ़े	-12512
ाकरं	-12513
ेषजं	-12514
4-5।।	-12515
ंजराँ	-12516
ंदर्ज	-12517
झाँझि	-12518
णाकरं	-12519
णामधी	-12520
दुःखत	-12521
पूँछी	-12522
बिकसे	-12523
ब्रता	-12524
ब्रती	-12525
ब्रतु	-12526
भेषजं	-12527
मातमा	-12528
स्करं	-12529
ारमनं	-12530
ेंगाई	-12531
ैर्दह	-12532
▁कवनी	-12533
▁नक्र	-12534
▁भजाम	-12535
▁रोवइ	-12536
खलानां	-12537
दुःखतः	-12538
बैठारि	-12539
मंत्री	-12540
यभेषजं	-12541
राजीवा	-12542
▁4-5।।	-12543
▁अतर्क	-12544
▁करुआई	-12545
▁गरुआइ	-12546
▁जहाजु	-12547
▁जोगवइ	-12548
▁द्रवइ	-12549
▁नराणा	-12550
▁निरीस	-12551
▁बोरहु	-12552
▁भाथीं	-12553
▁भूर्ज	-12554
▁लीलहि	-12555
▁वक्रो	-12556
▁सोभित	-12557
▁हरुआई	-12558
णामधीशं	-12559
दीनबंधु	-12560
परमातमा	-12561
बिषइन्ह	-12562
ब्रह्मा	-12563
भागिनीं	-12564
भास्करं	-12565
मंजुलमा	-12566
मुर्वीश	-12567
मृतधारा	-12568
यंश्रीम	-12569
यतलोचनं	-12570
यमनादिम	-12571
रखिअहिं	-12572
राराध्य	-12573
रूपिणम्	-12574
र्बाच्य	-12575
वर्णाना	-12576
वस्थिति	-12577
विधुर्ग	-12578
विभूषणः	-12579
विवेकजल	-12580
विशुद्ध	-12581
श्यन्ति	-12582
संधानेउ	-12583
सन्यपात	-12584
सुग्रीव	-12585
सुन्दरं	-12586
सुन्दरव	-12587
स्रवहिं	-12588
स्वभक्त	-12589
हमुर्वि	-12590
हाहाकार	-12591
ानन्ददं	-12592
ुनिअन्ह	-12593
ोभाढ्यौ	-12594
्तेभसिं	-12595
्लजुद्ध	-12596
।।112।।	-12597
।।115।।	-12598
▁अंगुलि	-12599
श्रुत	-12600
▁मेटब	-12601
द्रिका	-12602
▁अनरथु	-12603
▁पादपं	-12604
▁बसीठी	-12605
▁बूढ़ु	-12606
▁बेगहु	-12607
▁मेटाई	-12608
▁राकेश	-12609
▁अइहहिं	-12610
▁अकुंठा	-12611
▁अखयबटु	-12612
▁अगहुड़	-12613
▁अद्वैत	-12614
▁अधिकाइ	-12615
▁अनजानत	-12616
▁अनारंभ	-12617
▁अनिकेत	-12618
▁अनुभाऊ	-12619
▁अपनाइअ	-12620
▁अपनावा	-12621
▁अपलोकु	-12622
▁अपावनी	-12623
▁अबलन्ह	-12624
▁अभिजित	-12625
▁अरंभेउ	-12626
▁अरगानी	-12627
▁अरुझाई	-12628
▁अर्धजल	-12629
▁अवनीसू	-12630
▁अवराधन	-12631
▁अवरेखी	-12632
▁असाँचा	-12633
▁आनँदमई	-12634
▁उपकारू	-12635
▁उपजेहु	-12636
▁उपनिषद	-12637
▁उपहासू	-12638
▁उमानाथ	-12639
▁उरमिला	-12640
▁एतनेहि	-12641
▁कँगूरा	-12642
▁कंदराँ	-12643
▁कटाच्छ	-12644
▁कढ़ावन	-12645
▁कथनीया	-12646
▁कदाचित	-12647
▁कन्दाव	-12648
▁कपिलहि	-12649
▁कमनीया	-12650
▁करनलगि	-12651
▁करवाउब	-12652
▁करवायो	-12653
▁करवावा	-12654
▁कलियुग	-12655
▁कष्टसा	-12656
▁कसमसात	-12657
▁कारमुक	-12658
▁कारुणी	-12659
▁किआरीं	-12660
▁कुआँरि	-12661
▁कुगाँव	-12662
▁कुदाना	-12663
▁कुदारी	-12664
▁कुबिहग	-12665
▁कुबेषु	-12666
▁कुम्हि	-12667
▁कुरुचि	-12668
▁कुसंगत	-12669
▁कुसाजु	-12670
▁कुसासन	-12671
▁कूबरीं	-12672
▁केकिहि	-12673
▁कोकिला	-12674
▁खाँड़े	-12675
▁खेलाउब	-12676
▁गजाननु	-12677
▁गतभेदा	-12678
▁गनकन्ह	-12679
▁गिरीसु	-12680
▁गुमानु	-12681
▁गृहादी	-12682
▁ग्रससि	-12683
▁घालेहि	-12684
▁घेरहिं	-12685
▁चंडाला	-12686
▁चुपचाप	-12687
▁चौगाना	-12688
▁छनभंगू	-12689
▁छाँड़इ	-12690
▁छाँड़ी	-12691
▁छुड़ाई	-12692
▁छेमकरी	-12693
▁छोड़ाई	-12694
▁छोड़ाए	-12695
▁जगजननि	-12696
▁जगजोनी	-12697
▁जगमगात	-12698
▁जगमूला	-12699
गोचर	-12700
जावक	-12701
्वेष	-12702
अबिनय	-12703
ईश्वर	-12704
कारिण	-12705
गोचरं	-12706
ण्यवि	-12707
तीवसु	-12708
दुबंस	-12709
बासना	-12710
श्वरक	-12711
श्वरौ	-12712
ावकनय	-12713
्यमपि	-12714
।।111	-12715
॥159(	-12716
▁अनिल	-12717
▁कोटर	-12718
▁दूलह	-12719
▁धुजा	-12720
▁धुने	-12721
▁फुला	-12722
▁भानस	-12723
▁हारई	-12724
इन्हहि	-12725
नाच्छर	-12726
प्यमपि	-12727
बंसमनि	-12728
भृकुटी	-12729
मंगलमू	-12730
मतीवसु	-12731
मीश्वर	-12732
रघुबंस	-12733
सावकनय	-12734
स्तार्	-12735
ान्वेष	-12736
ोधिसमु	-12737
्बासना	-12738
।।11।।	-12739
▁आराति	-12740
▁कंपेउ	-12741
▁करवाई	-12742
▁कर्मु	-12743
▁जलधार	-12744
▁तरेरे	-12745
▁धुनेऊ	-12746
▁फुलाई	-12747
▁फुलाए	-12748
▁बरजहु	-12749
▁बरजोर	-12750
▁भट्टा	-12751
▁रसभंग	-12752
▁सुधार	-12753
कारिणीं	-12754
थमीश्वर	-12755
पीश्वरौ	-12756
भमतीवसु	-12757
मंगलप्र	-12758
रातिहिं	-12759
वीश्वरक	-12760
।।111।।	-12761
।।113।।	-12762
▁अंबिका	-12763
▁एकरूपा	-12764
▁खगभूपा	-12765
▁जठरागी	-12766
▁जदुबंस	-12767
▁जमुहात	-12768
▁जरिहिं	-12769
▁जलपाना	-12770
▁जलपानु	-12771
▁जलबिहग	-12772
▁जाबाली	-12773
▁जिअहुँ	-12774
▁जिआवसि	-12775
▁जुड़ाऊ	-12776
▁जुबतीं	-12777
▁जोगानल	-12778
▁जोसरूप	-12779
▁ज्ञानि	-12780
▁झगुलिआ	-12781
▁झपटहिं	-12782
▁झाँपेउ	-12783
▁ठकुरसो	-12784
▁ठहरानी	-12785
▁डरपावै	-12786
▁डोरिआए	-12787
▁तत्वमय	-12788
▁तनोरुह	-12789
▁तरनिहि	-12790
▁तरनिहु	-12791
▁ताकिसि	-12792
▁तिजारी	-12793
▁तुरीयं	-12794
▁तृपिति	-12795
▁तृप्ति	-12796
▁तृस्ना	-12797
▁त्वदीय	-12798
▁थापेउँ	-12799
आनन	-12800
कंप	-12801
कृश	-12802
कृस	-12803
ूघर	-12804
कृषी	-12805
खगति	-12806
चूड़	-12807
ठीनु	-12808
दातं	-12809
दुआर	-12810
दोवा	-12811
दोसु	-12812
नाधम	-12813
बदनु	-12814
मद्व	-12815
माधम	-12816
सुकृ	-12817
▁तकइ	-12818
ँदोवा	-12819
कंपित	-12820
करावा	-12821
कृष्ट	-12822
केतिक	-12823
त्याग	-12824
पिताँ	-12825
भुआरे	-12826
मद्वै	-12827
वनकृश	-12828
ैतन्य	-12829
▁कुआर	-12830
▁घूघर	-12831
▁जलठा	-12832
▁नाठी	-12833
▁निडर	-12834
▁पीठा	-12835
▁पीठी	-12836
▁फुंक	-12837
▁रंभा	-12838
▁रदपट	-12839
▁रूठा	-12840
▁सिआर	-12841
▁सुघर	-12842
▁हंसी	-12843
कृष्टं	-12844
तिक्रम	-12845
मुखछबि	-12846
सुकृतु	-12847
▁अलंपट	-12848
▁करताल	-12849
▁स्वकं	-12850
मद्वैतम	-12851
▁अधमाधम	-12852
▁अलखगति	-12853
▁गभुआरे	-12854
▁गोतीतं	-12855
▁चँदोवा	-12856
▁चैतन्य	-12857
▁जलठाउँ	-12858
▁दरबारा	-12859
▁दिगंबर	-12860
▁दिढ़ाई	-12861
▁दूधमुख	-12862
▁देखराइ	-12863
▁दोहाईं	-12864
▁धीरजहू	-12865
▁धुनहिं	-12866
▁धृतजटा	-12867
▁नंचहिं	-12868
▁नंचहीं	-12869
▁नंदिनि	-12870
▁नराणां	-12871
▁नर्तकी	-12872
▁नाच्यो	-12873
▁नाभिकु	-12874
▁नाहाहू	-12875
▁निंदरी	-12876
▁निगदित	-12877
▁निधानु	-12878
▁निनारी	-12879
▁निबाहै	-12880
▁निबेरी	-12881
▁नियोगा	-12882
▁नियोगू	-12883
▁निरबान	-12884
▁निरीहं	-12885
▁निलज्ज	-12886
▁निवारै	-12887
▁निष्के	-12888
▁निसंकू	-12889
▁निहारई	-12890
▁नेवाजा	-12891
▁नेवाजी	-12892
▁नेवाजू	-12893
▁नेवासी	-12894
▁नेवासु	-12895
▁पकवाना	-12896
▁पच्छिउ	-12897
▁पछारहु	-12898
▁पठाइहि	-12899
बन्ति	-12900
▁जीतइ	-12901
▁जीतै	-12902
▁पाथु	-12903
▁हिंड	-12904
▁हिंस	-12905
ंदीमुख	-12906
तमबादी	-12907
दच्छिन	-12908
न्द्रं	-12909
न्द्रः	-12910
फिरहिं	-12911
▁अलिगन	-12912
▁अलिनि	-12913
▁उसासु	-12914
▁उसासू	-12915
▁गभीरं	-12916
▁टूटें	-12917
▁टूटेउ	-12918
▁तरेरी	-12919
▁दुःखो	-12920
▁परुसि	-12921
▁पाटमय	-12922
▁मायाव	-12923
▁संभाव	-12924
▁सकेली	-12925
▁हनेसि	-12926
▁हिंसक	-12927
न्द्रपद	-12928
बालितनय	-12929
रावतिबल	-12930
▁अकेलें	-12931
▁अग्यता	-12932
▁अर्पित	-12933
▁इंद्री	-12934
▁करषहिं	-12935
▁जलरासी	-12936
▁जारिउँ	-12937
▁जीत्यो	-12938
▁तरन्ति	-12939
▁द्वादस	-12940
▁धरासुर	-12941
▁पठन्ति	-12942
▁पठायउँ	-12943
▁पतिआहु	-12944
▁पथिगतौ	-12945
▁पदादपि	-12946
▁पदाब्ज	-12947
▁पदारबि	-12948
▁परदोषा	-12949
▁परधामा	-12950
▁परुसहु	-12951
▁पाँचहि	-12952
▁पाछिलि	-12953
▁पाटंबर	-12954
▁पाठीनु	-12955
▁पात्रु	-12956
▁पादोदक	-12957
▁पारबति	-12958
▁पावँरु	-12959
▁पाषंडी	-12960
▁पिकादि	-12961
▁पीटहिं	-12962
▁पीयूषा	-12963
▁पुरलोग	-12964
▁पुरुषु	-12965
▁पु‍लकि	-12966
▁प्रगल्	-12967
▁प्रबाह	-12968
▁प्रमदा	-12969
▁प्रीतम	-12970
▁फुंकरत	-12971
▁फुलाउब	-12972
▁बँधाइअ	-12973
▁बँधाया	-12974
▁बँधावा	-12975
▁बँध्यो	-12976
▁बड़ेहि	-12977
▁बढ़ाइअ	-12978
▁बनगवनू	-12979
▁बनजाता	-12980
▁बनदेवा	-12981
▁बनदेवी	-12982
▁बननिकट	-12983
▁बरजोरा	-12984
▁बरतोरू	-12985
▁बरदायक	-12986
▁बरनाधम	-12987
▁बरनेउँ	-12988
▁बरिबंड	-12989
▁बसेरें	-12990
▁बाघिनि	-12991
▁बाचाला	-12992
▁बाणशरा	-12993
▁बारेहि	-12994
▁बालमीक	-12995
▁बाहिनी	-12996
▁बा़ढ़े	-12997
▁बिआहबि	-12998
▁बिक्रम	-12999
दृस	-13000
नमू	-13001
॥।1	-13002
ंडवी	-13003
कनकउ	-13004
चपरि	-13005
छेसा	-13006
जागत	-13007
ण्डक	-13008
ण्डा	-13009
पंथु	-13010
मूठि	-13011
लागत	-13012
॥।13	-13013
▁अदृ	-13014
अस्थि	-13015
तादृस	-13016
नमूरि	-13017
परिखे	-13018
परिजन	-13019
बंदनु	-13020
बाँटी	-13021
बिनसइ	-13022
ुलावै	-13023
▁अंजि	-13024
▁क्ले	-13025
▁गायऊ	-13026
▁तलाव	-13027
▁धावइ	-13028
▁पोषन	-13029
▁पोषि	-13030
▁फूटि	-13031
▁फूलि	-13032
▁सगुण	-13033
▁सरेन	-13034
▁सुदृ	-13035
कपिन्ह	-13036
ण्डकृद	-13037
परिनाम	-13038
मांडवी	-13039
रामगुण	-13040
सकलगुण	-13041
सुण्डा	-13042
सोचनीय	-13043
॥।135॥	-13044
▁अपनाइ	-13045
▁अवगुण	-13046
▁आचमनु	-13047
▁आचारा	-13048
▁किहें	-13049
▁क्लेश	-13050
▁जमावै	-13051
▁नसावै	-13052
▁निसोच	-13053
▁पछारे	-13054
▁पुटीं	-13055
▁मथहिं	-13056
▁मथानी	-13057
▁सकिहि	-13058
▁सृंगी	-13059
नारदहूँ	-13060
परिखेसु	-13061
भरद्वाज	-13062
मनवद्यम	-13063
▁अदृस्य	-13064
▁इंद्रज	-13065
▁एतादृस	-13066
▁कपटमृग	-13067
▁खिसिआइ	-13068
▁खिसिआन	-13069
▁चढ़ाएँ	-13070
▁झुलावै	-13071
▁दंभिहि	-13072
▁देखावइ	-13073
▁द्रोहि	-13074
▁निकासइ	-13075
▁प्रभोऽ	-13076
▁बढ़ावइ	-13077
▁बढ़ावै	-13078
▁बिगसित	-13079
▁बिगोवा	-13080
▁बिचरनि	-13081
▁बिछोहू	-13082
▁बिछोहे	-13083
▁बिडारी	-13084
▁बिथुरे	-13085
▁बिदारत	-13086
▁बिधुबद	-13087
▁बिनसाइ	-13088
▁बिन्दु	-13089
▁बिबराए	-13090
▁बिभंजय	-13091
▁बिमत्त	-13092
▁बिरचति	-13093
▁बिरोधि	-13094
▁बिलगाइ	-13095
▁बिलगाउ	-13096
▁बिषतूल	-13097
▁बिसरेउ	-13098
▁बीसहुँ	-13099
आयुध	-13100
इसेउ	-13101
दूलह	-13102
नीलं	-13103
वारई	-13104
अइसेउ	-13105
कुसमउ	-13106
गरूपा	-13107
पायुध	-13108
बिसमउ	-13109
भनीलं	-13110
▁आदरी	-13111
▁आधार	-13112
▁ऊँचे	-13113
▁एतने	-13114
▁धूमउ	-13115
▁पदवी	-13116
▁लहेऊ	-13117
▁हीचे	-13118
ड़हारू	-13119
बधूटीं	-13120
्रमानस	-13121
▁आदरिअ	-13122
▁एतनेइ	-13123
▁ककहिं	-13124
▁कलंकी	-13125
▁खानिक	-13126
▁गरीसा	-13127
▁गोघात	-13128
▁पातकी	-13129
▁पातकु	-13130
▁बौराइ	-13131
▁भ्रमा	-13132
▁महाना	-13133
▁रायमु	-13134
▁रावरो	-13135
▁लपटाइ	-13136
▁सहेतू	-13137
▁सुराँ	-13138
ठाभनीलं	-13139
वनिहारे	-13140
सिद्धिद	-13141
▁अनाथनि	-13142
▁आनँदहू	-13143
▁आश्रमी	-13144
▁उपबासा	-13145
▁कटकटान	-13146
▁कलातीत	-13147
▁कालदूत	-13148
▁कुन्दे	-13149
▁खेलवार	-13150
▁ग्रसेउ	-13151
▁झषकेतू	-13152
▁ताकहिं	-13153
▁दमकहिं	-13154
▁दारिका	-13155
▁नारायन	-13156
▁नेवारई	-13157
▁पटकहिं	-13158
▁बिमोहा	-13159
▁बुढ़ाई	-13160
▁बृत्ति	-13161
▁बेगारी	-13162
▁बेचारु	-13163
▁बेरिआँ	-13164
▁बेसाहि	-13165
▁बेहालू	-13166
▁बौराएँ	-13167
▁बौरानी	-13168
▁बौराहा	-13169
▁भंजिहि	-13170
▁भगिनीं	-13171
▁भयावनी	-13172
▁भयावने	-13173
▁भयावहा	-13174
▁भवसंभव	-13175
▁भावँरि	-13176
▁भाषानि	-13177
▁भीमरूप	-13178
▁भुअंगू	-13179
▁भूलहिं	-13180
▁भूलिहु	-13181
▁भेटहिं	-13182
▁भौंहें	-13183
▁मंचन्ह	-13184
▁मंडलीक	-13185
▁मंदाकि	-13186
▁मंदेहि	-13187
▁मखसाला	-13188
▁मधुकरु	-13189
▁मनभावत	-13190
▁मनभावा	-13191
▁मनोभवँ	-13192
▁मरिहउँ	-13193
▁महानदु	-13194
▁महानाद	-13195
▁महिधरु	-13196
▁महिषीं	-13197
▁मातहिं	-13198
▁मानेहि	-13199
उठइ	-13200
उठा	-13201
ट्ट	-13202
बूझ	-13203
भेद	-13204
ाँई	-13205
क्षय	-13206
जगदा	-13207
बतीं	-13208
बत्स	-13209
बूझब	-13210
बूड़	-13211
षजुत	-13212
्सरा	-13213
▁छेद	-13214
कहँरत	-13215
धायुध	-13216
सरिजस	-13217
्सराः	-13218
▁अकिल	-13219
▁गंजा	-13220
▁झाँई	-13221
▁तकहु	-13222
▁पूरक	-13223
▁पोषइ	-13224
▁पोषत	-13225
▁बिघट	-13226
▁भंजा	-13227
▁भदेस	-13228
▁हनेउ	-13229
जुबतीं	-13230
तुकहीं	-13231
त्रिजग	-13232
र्षजुत	-13233
िरक्षय	-13234
▁कियहु	-13235
▁जल्पक	-13236
▁जल्पत	-13237
▁जायहु	-13238
▁दिनेश	-13239
▁दिनेस	-13240
▁पोषीं	-13241
▁बिघटन	-13242
▁बिभेद	-13243
▁बृषली	-13244
▁भरायो	-13245
▁भरावा	-13246
▁मुकता	-13247
▁मूदें	-13248
▁साखाम	-13249
▁सृजेउ	-13250
▁स्वेद	-13251
▁हौंहु	-13252
जगदाधार	-13253
बिधायुध	-13254
▁अकाजेउ	-13255
▁अग्याँ	-13256
▁कलपभेद	-13257
▁कहायहु	-13258
▁डिंडिम	-13259
▁दिनेसु	-13260
▁पुत्रव	-13261
▁पेटारी	-13262
▁बखानउँ	-13263
▁बखानें	-13264
▁मायावी	-13265
▁मालीगन	-13266
▁मुंडमय	-13267
▁मुखछबि	-13268
▁मूदेउँ	-13269
▁मूरिमय	-13270
▁मेलहीं	-13271
▁मोरपंख	-13272
▁याभ्या	-13273
▁रउरेहि	-13274
▁रघुवंश	-13275
▁रघुवरं	-13276
▁रघुवरौ	-13277
▁रजनिचर	-13278
▁रहँसेउ	-13279
▁राजघाट	-13280
▁राजधरम	-13281
▁रामबनु	-13282
▁रावरें	-13283
▁रिसाते	-13284
▁रीझेउँ	-13285
▁रुखनयन	-13286
▁रेंगाई	-13287
▁लजानीं	-13288
▁लपटाने	-13289
▁लवलेसा	-13290
▁लवलेसू	-13291
▁लहलहात	-13292
▁लीजिये	-13293
▁ल्यायो	-13294
▁वचांसि	-13295
▁वल्लभं	-13296
▁वाणीवि	-13297
▁वासिनः	-13298
▁विषादः	-13299
डेरि	-13300
बरुन	-13301
बर्ध	-13302
भेरी	-13303
संसा	-13304
सठहु	-13305
सरुष	-13306
ूपनख	-13307
गुरुं	-13308
ठभेरी	-13309
धानीं	-13310
पावौं	-13311
बिहरत	-13312
भुजबल	-13313
भेंटि	-13314
मर्मी	-13315
यत्री	-13316
ितर्क	-13317
▁अजिन	-13318
▁उदरब	-13319
▁उबरा	-13320
▁गगनु	-13321
▁ढेरी	-13322
▁नाघइ	-13323
▁पाछे	-13324
▁सरुष	-13325
प्रीता	-13326
समाजहि	-13327
स्यंदन	-13328
ूपनखहि	-13329
्यमन्व	-13330
▁अजीता	-13331
▁अनमिल	-13332
▁आइहौं	-13333
▁तजेउँ	-13334
▁तरकेउ	-13335
▁थाकेउ	-13336
▁दमनीय	-13337
▁दिवाए	-13338
▁नाघउँ	-13339
▁नाघेउ	-13340
▁नीदउँ	-13341
▁पटकेउ	-13342
▁परतिय	-13343
▁पूरुष	-13344
▁फरकेउ	-13345
▁लजाने	-13346
▁हाड़ा	-13347
तुधानीं	-13348
द्गुरुं	-13349
संसाराम	-13350
▁अवडेरि	-13351
▁उठावौं	-13352
▁खगकेतू	-13353
▁तटन्हि	-13354
▁तुराईं	-13355
▁नाघेहु	-13356
▁प्रीता	-13357
▁बखानहु	-13358
▁बिबर्ध	-13359
▁मानसिक	-13360
▁मीजहीं	-13361
▁लाइहौं	-13362
▁वितर्क	-13363
▁विषादू	-13364
▁शान्ति	-13365
▁शिवकरं	-13366
▁सँकेलि	-13367
▁सँघारा	-13368
▁सँघारि	-13369
▁सँजोगू	-13370
▁सँजोवन	-13371
▁सँवराए	-13372
▁संकोचु	-13373
▁संचहीं	-13374
▁संजातं	-13375
▁संतोषि	-13376
▁संपादन	-13377
▁सकुचात	-13378
▁सच्चरि	-13379
▁सच्चिद	-13380
▁सतसमाज	-13381
▁समर्पे	-13382
▁समुझाउ	-13383
▁सरदातप	-13384
▁सर्वगत	-13385
▁सर्वभू	-13386
▁ससंकेउ	-13387
▁साखामग	-13388
▁सानकूल	-13389
▁सामुझि	-13390
▁सारेहु	-13391
▁सावकास	-13392
▁साहिबु	-13393
▁सिंहास	-13394
▁सिखायो	-13395
▁सिधावा	-13396
▁सिल्पि	-13397
▁सीकरनि	-13398
▁सुअवसर	-13399
अरइ	-13400
वैरा	-13401
▁ओधे	-13402
▁खुआ	-13403
जमब्य	-13404
मारेउ	-13405
▁खोवै	-13406
▁छमाँ	-13407
▁जनेत	-13408
▁बेधे	-13409
▁मनभृ	-13410
संभारि	-13411
▁अँगरी	-13412
▁अँगार	-13413
▁अंबरी	-13414
▁अकेली	-13415
▁कपाटा	-13416
▁कपाटी	-13417
▁कपासू	-13418
▁खुआरू	-13419
▁गनेसू	-13420
▁तरिही	-13421
▁धारेउ	-13422
▁पहिरइ	-13423
▁बंदीख	-13424
▁बरषाँ	-13425
▁मंदरं	-13426
▁संतसं	-13427
▁सरूपा	-13428
मित्रहि	-13429
▁अंबरीष	-13430
▁करायहु	-13431
▁छमासील	-13432
▁थोरेहि	-13433
▁निवारी	-13434
▁पंखन्ह	-13435
▁परलोकू	-13436
▁प्रेरइ	-13437
▁बरषासन	-13438
▁बिछोही	-13439
▁मनभृंग	-13440
▁रम्यता	-13441
▁लताभवन	-13442
▁लोभादि	-13443
▁लोभामर	-13444
▁संतापु	-13445
▁सिरावै	-13446
▁सुकर्क	-13447
▁सुचंदन	-13448
▁सुचारु	-13449
▁सुटुकि	-13450
▁सुतीछी	-13451
▁सुतीरथ	-13452
▁सुदानी	-13453
▁सुदृढ़	-13454
▁सुधरमु	-13455
▁सुनावँ	-13456
▁सुन्यो	-13457
▁सुप्रब	-13458
▁सुप्रस	-13459
▁सुबट्ट	-13460
▁सुबेलि	-13461
▁सुबेषा	-13462
▁सुबेषु	-13463
▁सुरूपु	-13464
▁सुषेना	-13465
▁सुसाखा	-13466
▁सुसीलु	-13467
▁सुसेवा	-13468
▁सूद्रु	-13469
▁सेवितं	-13470
▁सैलजहि	-13471
▁सोवहुँ	-13472
▁हँसेहु	-13473
▁हँस्यो	-13474
▁हंसिनि	-13475
▁हनूमंत	-13476
▁हमरेहि	-13477
▁हयगृहँ	-13478
▁हयसाला	-13479
▁हरषाती	-13480
▁हरिअरइ	-13481
▁हरिपदु	-13482
▁हिहिना	-13483
▁हुआहिं	-13484
▁हुलासा	-13485
▁होइहैं	-13486
▁‍प्रिय	-13487
▁‍िलवाइ	-13488
ंकारमूलं	-13489
कटकटाहिं	-13490
कमद्भुतं	-13491
काशमाकाश	-13492
कीजीवनंध	-13493
कीन्हेउँ	-13494
क्रोधवंत	-13495
गामिनिहि	-13496
गीन्द्रं	-13497
ग्यानवंत	-13498
घघनध्वान	-13499
फरइ	-13500
▁षड	-13501
द्वज	-13502
नुतौ	-13503
बैरी	-13504
मिलन	-13505
मृगम	-13506
साधन	-13507
सिरउ	-13508
सोचु	-13509
ोत्प	-13510
▁पोत	-13511
▁बौर	-13512
▁मैआ	-13513
▁मैन	-13514
अवलंब	-13515
ड़िसि	-13516
ेंदुर	-13517
ोत्पल	-13518
▁उजरउ	-13519
▁ओड़ि	-13520
▁बजाज	-13521
▁बाचु	-13522
▁बिघन	-13523
▁भाथी	-13524
▁शार्	-13525
▁सचिउ	-13526
असमंजस	-13527
समदरसी	-13528
सयनहिं	-13529
ारुड़ि	-13530
▁अचंचल	-13531
▁अमरपद	-13532
▁अराती	-13533
▁आधारा	-13534
▁कढ़ाई	-13535
▁गाड़ि	-13536
▁दाड़ि	-13537
▁दायनी	-13538
▁नहाना	-13539
▁नहानी	-13540
▁नहारू	-13541
▁नैबेद	-13542
▁परमपद	-13543
▁परिधन	-13544
▁बूड़ि	-13545
▁षडानन	-13546
▁साँचु	-13547
▁हरिपद	-13548
छाड़िसि	-13549
मृगमाला	-13550
हनिहारा	-13551
▁अहिभवन	-13552
▁दाड़िम	-13553
▁दिगंचल	-13554
▁नभगामी	-13555
▁नहानीं	-13556
▁निर्धन	-13557
▁परचारे	-13558
▁बनभूमि	-13559
▁बादहिं	-13560
▁बिमोहई	-13561
▁मित्रक	-13562
▁मेरुसम	-13563
▁सँदेहा	-13564
▁सप्रका	-13565
▁सिखिहि	-13566
▁सुरभवन	-13567
▁सुराती	-13568
▁सेंदुर	-13569
▁‍िद्वज	-13570
चित्रकूट	-13571
चिदन्यतो	-13572
जमब्यक्त	-13573
टिलसत्तू	-13574
तमप्रमेय	-13575
दाब्जचिह	-13576
देहंदनुज	-13577
द्भालबाल	-13578
द्रानन्द	-13579
धरनिसुता	-13580
निकरयुतं	-13581
न्दरतनुं	-13582
न्नमामीश	-13583
परद्रोही	-13584
प्रगटहिं	-13585
प्रतिपाल	-13586
प्रफुल्ल	-13587
प्राननाथ	-13588
बिद्यमान	-13589
भिल्लिनि	-13590
मायामानु	-13591
मुखेन्दु	-13592
मृगलोचनि	-13593
वनकृशानु	-13594
विज्ञानौ	-13595
वैराग्या	-13596
व्यालकरा	-13597
शम्भुफणी	-13598
श्वमखिलं	-13599
मनुष	-13600
मुरे	-13601
▁लुठ	-13602
▁लुभ	-13603
दायकु	-13604
मंजीर	-13605
वेद्य	-13606
▁अचरज	-13607
▁काकभ	-13608
▁घाटू	-13609
▁छेदन	-13610
▁ठीका	-13611
▁नदीस	-13612
▁फीका	-13613
▁भंजी	-13614
▁मरती	-13615
▁मुरे	-13616
▁लुठत	-13617
▁ससीय	-13618
चारिका	-13619
तुलसीस	-13620
भामिनी	-13621
वेद्यं	-13622
सिरारि	-13623
▁अघाती	-13624
▁केतुः	-13625
▁खेलाइ	-13626
▁चुकें	-13627
▁चोरहि	-13628
▁छमहूँ	-13629
▁छमेहु	-13630
▁छिद्र	-13631
▁जावनु	-13632
▁नायकं	-13633
▁फेरिअ	-13634
▁भंजहु	-13635
▁लुबुध	-13636
▁साजहु	-13637
▁हरीसा	-13638
▁हाँकी	-13639
▁हाँसा	-13640
▁हाँसी	-13641
मनुष्यं	-13642
सुंडिहि	-13643
▁कंदमूल	-13644
▁गवाँइअ	-13645
▁गवाँरी	-13646
▁गवाँरु	-13647
▁गवाँवा	-13648
▁जलजंतु	-13649
▁जलजाना	-13650
▁जलजानू	-13651
▁जितेऊँ	-13652
▁देवबधू	-13653
▁पहिरिअ	-13654
▁पाषाना	-13655
▁पूजेहु	-13656
▁बरिआता	-13657
▁बालबचन	-13658
▁बिनासि	-13659
▁भयावनु	-13660
▁भसुंडि	-13661
▁मोहमूल	-13662
▁लुभाने	-13663
▁सुअंजन	-13664
▁सुतबधू	-13665
▁सुरबधू	-13666
▁सुरारि	-13667
▁स्वपचा	-13668
बिप्रबधू	-13669
ष्टकमिदं	-13670
सुरमायाँ	-13671
हथवाँसहु	-13672
ऽमृतधारा	-13673
ान्तकारी	-13674
ेयस्करीं	-13675
्यमन्वहं	-13676
▁अंकुरेउ	-13677
▁अंडन्हि	-13678
▁अंधकारु	-13679
▁अइसिहुँ	-13680
▁अग्यानी	-13681
▁अग्यानु	-13682
▁अतर्क्य	-13683
▁अतिकाया	-13684
▁अधरबुधि	-13685
▁अनुभवति	-13686
▁अनुसरहू	-13687
▁अन्हवाइ	-13688
▁अन्हवाई	-13689
▁अपकीरति	-13690
▁अपमानता	-13691
▁अपहरहीं	-13692
▁अबहिंकि	-13693
▁अबिबेकु	-13694
▁अभिनामु	-13695
▁अलंकृति	-13696
▁अवतरेहु	-13697
▁अवराधहु	-13698
▁अवसेषित	-13699
अछत	-13700
भोग	-13701
लसद	-13702
अरुन	-13703
उतर्	-13704
प्तय	-13705
हमहू	-13706
ोगति	-13707
जेवँत	-13708
धनुही	-13709
प्तयै	-13710
लसद्व	-13711
हनुमत	-13712
हमरें	-13713
हमहुँ	-13714
▁खग्ग	-13715
▁छाछी	-13716
▁जिआए	-13717
▁जीजै	-13718
▁तीछी	-13719
▁पोचु	-13720
▁फूटे	-13721
▁बर्ग	-13722
▁माछी	-13723
▁मेरू	-13724
▁संकठ	-13725
कामरूप	-13726
लसद्वि	-13727
स्यांक	-13728
स्यामि	-13729
▁कपाली	-13730
▁कुभोग	-13731
▁गनिका	-13732
▁जिआएँ	-13733
▁दवारि	-13734
▁दोहाथ	-13735
▁नअरुन	-13736
▁नेहरु	-13737
▁परधनु	-13738
▁फनिबर	-13739
▁बपुरा	-13740
▁भूँजब	-13741
▁भूतगन	-13742
▁भूतमय	-13743
▁लगाइअ	-13744
▁लगामु	-13745
खिलान्त	-13746
नानाकार	-13747
स्यांके	-13748
▁अँथइहि	-13749
▁अपनाया	-13750
▁अवगाहि	-13751
▁अवगाहु	-13752
▁कवनिहु	-13753
▁चातकही	-13754
▁जिआवनि	-13755
▁जुरहिं	-13756
▁डोलावा	-13757
▁तपस्या	-13758
▁निदानू	-13759
▁निदेसा	-13760
▁निद्रा	-13761
▁निबेरि	-13762
▁निहकाम	-13763
▁नेहरुआ	-13764
▁बिलगान	-13765
▁भुलावा	-13766
▁मनोगति	-13767
▁राजीवन	-13768
▁लेखहिं	-13769
▁सँभारन	-13770
▁सुजाती	-13771
▁सुहृदय	-13772
द्यानिधि	-13773
विलसद्वि	-13774
▁अस्विनी	-13775
▁अहिवातु	-13776
▁आत्माहन	-13777
▁आसिरबचन	-13778
▁आसिरबाद	-13779
▁इंद्रिय	-13780
▁इष्टदेउ	-13781
▁ईस्वरहि	-13782
▁उजिआरीं	-13783
▁उदयगिरि	-13784
▁उदरबृद्	-13785
▁उपदेसिअ	-13786
▁उपदेसेउ	-13787
▁कटाच्छु	-13788
▁कटुबादी	-13789
▁कढ़ावउँ	-13790
▁कपिजूथा	-13791
▁कपिलीला	-13792
▁कलिकाला	-13793
▁कलिधर्म	-13794
▁कल्यानू	-13795
▁कवनिहुँ	-13796
▁काँकरीं	-13797
▁काटतहीं	-13798
▁काटेहिं	-13799
तीतं	-13800
दूता	-13801
वल्ल	-13802
▁अटन	-13803
▁कवल	-13804
▁गूँ	-13805
▁मघा	-13806
कृपाँ	-13807
तोषीं	-13808
दब्या	-13809
द्रूँ	-13810
ब्याप	-13811
ब्याह	-13812
ेत्रु	-13813
॥330॥	-13814
॥332॥	-13815
॥333॥	-13816
॥336॥	-13817
॥340॥	-13818
॥341॥	-13819
॥343॥	-13820
॥344॥	-13821
॥346॥	-13822
॥347॥	-13823
॥349॥	-13824
॥351॥	-13825
॥353॥	-13826
॥355॥	-13827
॥356॥	-13828
॥359॥	-13829
▁अटनु	-13830
▁अटपट	-13831
▁आभीर	-13832
▁उजाग	-13833
▁उजार	-13834
▁कलीं	-13835
▁छीजे	-13836
▁छीरु	-13837
▁दधीच	-13838
▁रीते	-13839
ब्याधि	-13840
वल्लभा	-13841
▁अटन्ह	-13842
▁अटपटे	-13843
▁उजरें	-13844
▁उजारी	-13845
▁कियउँ	-13846
▁खायउँ	-13847
▁गूँगे	-13848
▁दसगात	-13849
▁धायउँ	-13850
▁नायउँ	-13851
▁पिंजर	-13852
▁बज्रु	-13853
▁बीरघा	-13854
▁बीररस	-13855
▁भायउँ	-13856
▁रेखें	-13857
▁विपुल	-13858
ब्यापकु	-13859
ब्याहिअ	-13860
शम्भुना	-13861
▁अहनिसि	-13862
▁उजागरी	-13863
▁उरभूषन	-13864
▁कद्रूँ	-13865
▁कहतेउँ	-13866
▁चितयउँ	-13867
▁छबिसमु	-13868
▁छेत्रु	-13869
▁जमदूता	-13870
▁जातेउँ	-13871
▁नरभूषन	-13872
▁नित्यं	-13873
▁भूपतहि	-13874
▁सिरमोर	-13875
▁स्वादू	-13876
मायातीतं	-13877
वल्लभाम्	-13878
▁कामरिपु	-13879
▁कारुणीक	-13880
▁किसलयमय	-13881
▁किसोरकु	-13882
▁कुटुंबी	-13883
▁कुबेषता	-13884
▁कुभाँती	-13885
▁कुमुदगन	-13886
▁कुलगुरु	-13887
▁कुलदेवा	-13888
▁कुसुमहु	-13889
▁कुसेवकु	-13890
▁कृपनाईं	-13891
▁कृपामृत	-13892
▁केलिमृग	-13893
▁खगनायकु	-13894
▁खिसिआनि	-13895
▁गगनगिरा	-13896
▁गगनोपरि	-13897
▁गर्जहीं	-13898
▁गर्भहिं	-13899
ेशं	-13900
उग्र	-13901
उतरे	-13902
उमहि	-13903
काशं	-13904
घाटी	-13905
तपबल	-13906
नाशं	-13907
हमहि	-13908
ेन्द	-13909
▁उलट	-13910
▁नघन	-13911
तपानि	-13912
बाहेर	-13913
महिषी	-13914
मूरुख	-13915
लखहिं	-13916
सुन्द	-13917
सोतें	-13918
्लवमे	-13919
▁उलटा	-13920
▁उलटे	-13921
▁कंठे	-13922
▁कपास	-13923
▁कुघा	-13924
▁गाइए	-13925
▁लमहि	-13926
▁सापत	-13927
▁सोरू	-13928
▁हुनर	-13929
ंगदादि	-13930
खेलहिं	-13931
नामग्र	-13932
संधानि	-13933
ेन्दुम	-13934
▁अंधहि	-13935
▁उलटउँ	-13936
▁कुघरी	-13937
▁कुन्द	-13938
▁गवनेउ	-13939
▁गावहि	-13940
▁गूढ़उ	-13941
▁गूढ़ा	-13942
▁जुआरा	-13943
▁परेशं	-13944
▁मकरगत	-13945
▁महातप	-13946
▁रंकहि	-13947
▁सम्पू	-13948
▁सिआरा	-13949
▁सिरान	-13950
▁सूतगन	-13951
▁सौंपी	-13952
▁सौंहे	-13953
तापनाशं	-13954
प्रकाशं	-13955
वरसुन्द	-13956
▁अंबुधर	-13957
▁अनुग्र	-13958
▁अनुदिन	-13959
▁अनुभयउ	-13960
▁अभाग्य	-13961
▁उदघाटी	-13962
▁कुघातु	-13963
▁कुन्दइ	-13964
▁चिंताँ	-13965
▁दाहिनि	-13966
▁परमीसा	-13967
▁बागहीं	-13968
▁ब्यग्र	-13969
▁रासिहि	-13970
▁लकरहिं	-13971
▁लालसाँ	-13972
▁सराहसि	-13973
▁सुनयना	-13974
▁सुरेशं	-13975
▁सोपानः	-13976
▁सोभामई	-13977
टांगदादि	-13978
▁अबलामयं	-13979
▁कुसकेतु	-13980
▁गाड़हिं	-13981
▁गाधितनय	-13982
▁गारुड़ि	-13983
▁गाहकताई	-13984
▁गिरजहिं	-13985
▁गिरिबरु	-13986
▁गुनगाना	-13987
▁गुनवंता	-13988
▁गुरगृहँ	-13989
▁गोतीतमन	-13990
▁चन्द्रः	-13991
▁चमंकहिं	-13992
▁चामुंडा	-13993
▁चिंतहिं	-13994
▁चुकाहीं	-13995
▁चौहटपुर	-13996
▁छड़ाइसि	-13997
▁छाँड़हु	-13998
▁छाँड़ेउ	-13999
क्ष	-14000
टेन	-14001
काटे	-14002
क्षत	-14003
भेरे	-14004
मभाग	-14005
्तरइ	-14006
▁नटत	-14007
▁पंन	-14008
जूटेन	-14009
भगतनु	-14010
लायतन	-14011
वनवास	-14012
सरसिज	-14013
हरषित	-14014
॥339॥	-14015
▁उघरे	-14016
▁गइउँ	-14017
▁घालै	-14018
▁जिआव	-14019
▁जुटत	-14020
▁झूठा	-14021
▁नावँ	-14022
▁पंनग	-14023
▁पीटत	-14024
▁बँधब	-14025
▁मोदक	-14026
▁सूचत	-14027
▁हंसग	-14028
भगतनुं	-14029
भागिनि	-14030
मभागम्	-14031
▁काढ़त	-14032
▁जारें	-14033
▁जोषित	-14034
▁झूठेउ	-14035
▁डगमगत	-14036
▁नसायो	-14037
▁पैठीं	-14038
▁बावरी	-14039
▁बीतेउ	-14040
▁भसुंड	-14041
▁रीतीं	-14042
▁वनवास	-14043
▁सहावइ	-14044
▁हंसहि	-14045
ंगलायतन	-14046
ंदाकिनि	-14047
ौभगतनुं	-14048
▁अखंडित	-14049
▁काढ़ीं	-14050
▁घालेसि	-14051
▁तोरिबे	-14052
▁निसागम	-14053
▁पहुँचै	-14054
▁बंदनीय	-14055
▁बलहीना	-14056
▁बिस्तर	-14057
▁भटभेरे	-14058
▁मदहीना	-14059
▁मातन्ह	-14060
▁मुंडित	-14061
▁रनिवास	-14062
▁रामचंद	-14063
▁संकुले	-14064
▁सतिभाय	-14065
मंदाकिनि	-14066
वामभागम्	-14067
▁काढ़हिं	-14068
▁काढ़ेसि	-14069
▁कामादिक	-14070
▁छोड़ावा	-14071
▁जगनिवास	-14072
▁जनकपुरु	-14073
▁जनयत्री	-14074
▁जलजारुन	-14075
▁जल्पहिं	-14076
▁जोगिन्ह	-14077
▁झलकाहीं	-14078
▁झूठेहुँ	-14079
▁टिट्टिभ	-14080
▁डगमगहीं	-14081
▁डारिहउँ	-14082
▁ढहावहिं	-14083
▁ढहावहीं	-14084
▁तर्जहीं	-14085
▁तापत्रय	-14086
▁तृषावंत	-14087
▁तेरहूति	-14088
▁तोयनिधि	-14089
▁तोरावति	-14090
▁त्रयताप	-14091
▁त्रातहि	-14092
▁त्रासित	-14093
▁थलुदेखा	-14094
▁थोरेहीं	-14095
▁थोरेहुँ	-14096
▁दण्डकृद	-14097
▁दसरथसपथ	-14098
▁दामिनीं	-14099
ऽयं	-14100
कंठा	-14101
झिहि	-14102
पितर	-14103
मरकत	-14104
सोरह	-14105
हंसा	-14106
्मतं	-14107
▁अचग	-14108
▁चमर	-14109
▁बमम	-14110
तापहं	-14111
रामयं	-14112
रुचिर	-14113
सकुचे	-14114
सोऽयं	-14115
॥345॥	-14116
▁कदली	-14117
▁कुरी	-14118
▁कुरो	-14119
▁गवनत	-14120
▁डासन	-14121
▁डासी	-14122
▁नराः	-14123
▁नाकन	-14124
▁पटकत	-14125
▁पाकत	-14126
▁पीवर	-14127
▁फेनू	-14128
▁रोपे	-14129
▁विषम	-14130
▁संघर	-14131
▁सांख	-14132
▁होमम	-14133
यकचारु	-14134
रनसीला	-14135
रीझिहि	-14136
सम्मतं	-14137
्तापहं	-14138
▁अचगरि	-14139
▁अचारू	-14140
▁अचेता	-14141
▁गोसाँ	-14142
▁गौरीस	-14143
▁छबीले	-14144
▁तर्कि	-14145
▁दुकूल	-14146
▁निरास	-14147
▁परावर	-14148
▁फिरती	-14149
▁भंजनि	-14150
▁लरिबे	-14151
▁संघटु	-14152
▁सावँर	-14153
▁सुलगइ	-14154
▁होममख	-14155
चरितकरत	-14156
ड़बतिया	-14157
बिप्रबर	-14158
मान्यता	-14159
सुनिसिय	-14160
▁उतकंठा	-14161
▁कबित्त	-14162
▁कलहंसा	-14163
▁कुरोगा	-14164
▁खगनाथा	-14165
▁चढ़ाउब	-14166
▁जुबानू	-14167
▁तारागन	-14168
▁दमसीला	-14169
▁दुलारा	-14170
▁दुलारे	-14171
▁भिन्नम	-14172
▁मागिहु	-14173
▁लरिकहि	-14174
▁संघरषन	-14175
▁सांख्य	-14176
सायकचारु	-14177
▁दुखदाता	-14178
▁दुखरूपा	-14179
▁दुराएहु	-14180
▁दुर्गमं	-14181
▁दुलारीं	-14182
▁देखावसि	-14183
▁धनुषभंग	-14184
▁धरनीधरं	-14185
▁नंदीमुख	-14186
▁नरपालहि	-14187
▁नाकनटीं	-14188
▁नागरिपु	-14189
▁निअराना	-14190
▁निकासौं	-14191
▁निठुरता	-14192
▁निबाहें	-14193
▁निबाहेउ	-14194
▁निबेदित	-14195
▁निमज्जत	-14196
▁निमज्जन	-14197
▁निरमोहा	-14198
▁निरामयं	-14199
पस्य	-14200
्सुख	-14201
▁गिल	-14202
▁नयऊ	-14203
▁बटो	-14204
▁सौध	-14205
आरिहि	-14206
तकस्य	-14207
ताबरन	-14208
दनस्य	-14209
निषंग	-14210
बरनउँ	-14211
ेरिहि	-14212
्सुखं	-14213
▁अनँग	-14214
▁काँख	-14215
▁काँघ	-14216
▁गिलई	-14217
▁जलखग	-14218
▁तैरत	-14219
▁माँग	-14220
▁रोके	-14221
एकनारि	-14222
्ताबरन	-14223
्त्तार	-14224
▁अरिहि	-14225
▁आनेहि	-14226
▁एकाकी	-14227
▁काँकर	-14228
▁काँघी	-14229
▁काँचा	-14230
▁तरिहि	-14231
▁नावरि	-14232
▁पूजें	-14233
▁बटोरि	-14234
▁बटोरी	-14235
▁बिआधि	-14236
▁बिआहि	-14237
▁बिआहे	-14238
▁रोकें	-14239
▁लावउँ	-14240
▁सूरता	-14241
न्तकस्य	-14242
न्दनस्य	-14243
पस्यंति	-14244
्त्तारौ	-14245
।।114।।	-14246
▁इच्छाँ	-14247
▁उतरिहि	-14248
▁एकाहिं	-14249
▁कहावउँ	-14250
▁चेरिहि	-14251
▁जनावउँ	-14252
▁जुरिहि	-14253
▁देइहहु	-14254
▁निबेही	-14255
▁पठावउँ	-14256
▁पाइहहु	-14257
▁पिसाचा	-14258
▁पिसाची	-14259
▁बटोहीं	-14260
▁मनावउँ	-14261
▁रवकारी	-14262
▁राउतहि	-14263
▁रोकहिं	-14264
▁लगिहहु	-14265
▁सहतेउँ	-14266
▁हुंकार	-14267
नन्दनस्य	-14268
ावत्सुखं	-14269
्रियादिक	-14270
▁अनुमाने	-14271
▁अवतरिहि	-14272
▁इच्छामय	-14273
▁काँपहिं	-14274
▁कोमलताई	-14275
▁चढ़ाइहि	-14276
▁जुआरिहि	-14277
▁निरामिष	-14278
▁निरुअरई	-14279
▁निरुआरा	-14280
▁निरुआरे	-14281
▁निरूपउँ	-14282
▁निर्दंभ	-14283
▁निर्बहे	-14284
▁निर्भरा	-14285
▁निर्मली	-14286
▁निर्मूल	-14287
▁निसिचरि	-14288
▁निसिचरी	-14289
▁निसोतें	-14290
▁निहारें	-14291
▁निहोरउँ	-14292
▁नीलकंठं	-14293
▁नृपघाती	-14294
▁नृपनारी	-14295
▁नृपबालक	-14296
▁नृपभूषन	-14297
▁नृपलीला	-14298
▁पचारहिं	-14299
धेउँ	-14300
नगरु	-14301
बरनन	-14302
बोला	-14303
्षाव	-14304
▁घटज	-14305
▁घटब	-14306
कन्या	-14307
जात्म	-14308
पच्छि	-14309
बिबरन	-14310
रन्या	-14311
▁घटें	-14312
▁जितन	-14313
▁नाभी	-14314
▁पढ़त	-14315
▁पढ़न	-14316
▁पढ़ि	-14317
▁पढ़े	-14318
▁परबत	-14319
▁रोगू	-14320
▁लालन	-14321
कन्याँ	-14322
जात्मक	-14323
न्द्वा	-14324
ीर्षाव	-14325
▁अंसिक	-14326
▁अवलीं	-14327
▁आचरनी	-14328
▁आरामु	-14329
▁उपरना	-14330
▁तलाईं	-14331
▁तियगन	-14332
▁तियहि	-14333
▁दयालं	-14334
▁धरेउँ	-14335
▁पढ़ाए	-14336
▁पढ़ाव	-14337
▁पीतवस	-14338
▁बसेउँ	-14339
▁रोगसम	-14340
▁रोगीं	-14341
जातुधान	-14342
तीर्षाव	-14343
षरूपिणौ	-14344
▁अगुनहि	-14345
▁अनुसरी	-14346
▁अहेरें	-14347
▁उदारहि	-14348
▁कुटीरा	-14349
▁कुबंधु	-14350
▁ग्रसित	-14351
▁जनमेउँ	-14352
▁जितहिं	-14353
▁डेराहू	-14354
▁तोरेउँ	-14355
▁थापहिं	-14356
▁निबाही	-14357
▁पढ़ावा	-14358
▁फारहिं	-14359
▁मेघहिं	-14360
▁वारहिं	-14361
▁सानुजं	-14362
▁सींचीं	-14363
▁सुआसनु	-14364
▁सुरत्र	-14365
▁सृकाला	-14366
▁सोधेउँ	-14367
▁हारहिं	-14368
पच्छिन्ह	-14369
रन्याच्छ	-14370
▁उतारहिं	-14371
▁उपारहिं	-14372
▁किरातहि	-14373
▁चीन्हें	-14374
▁दूषनारि	-14375
▁द्वारें	-14376
▁धुनिजात	-14377
▁नरनायकु	-14378
▁पच्छजुत	-14379
▁पच्छपात	-14380
▁पछारहिं	-14381
▁पछितानी	-14382
▁पठइन्हि	-14383
▁पतिबचनु	-14384
▁परतिहुँ	-14385
▁परत्रिय	-14386
▁परमातमा	-14387
▁परमायतन	-14388
▁परहेलें	-14389
▁पराक्रम	-14390
▁परितोषि	-14391
▁परिहरेऊ	-14392
▁परिहासा	-14393
▁पलकन्हि	-14394
▁पलोटिहि	-14395
▁पस्यामि	-14396
▁पहिचानत	-14397
▁पहिराईं	-14398
▁पातकिनि	-14399
आतम	-14400
बूँ	-14401
जलधि	-14402
बूँद	-14403
बोरि	-14404
लुहइ	-14405
▁हतइ	-14406
ंदभीं	-14407
खिलेस	-14408
धीरजु	-14409
नायकौ	-14410
▁परनस	-14411
▁फोरि	-14412
▁बंधो	-14413
▁मयंद	-14414
▁मूषक	-14415
बरिहिं	-14416
रामसखा	-14417
हाकारा	-14418
▁अंतरु	-14419
▁अधगति	-14420
▁अवतंस	-14421
▁अवतरी	-14422
▁कठोरि	-14423
▁खेलाई	-14424
▁गहबरि	-14425
▁जिआवत	-14426
▁पलुहइ	-14427
▁पुरउब	-14428
▁फरहार	-14429
▁फरहीं	-14430
▁भलेहि	-14431
▁महातम	-14432
▁मीनहि	-14433
▁मृगजल	-14434
▁लंकहि	-14435
▁सचिवन	-14436
▁सुराऊ	-14437
बरिसहिं	-14438
सत्यसंध	-14439
▁अखिलेस	-14440
▁अपकारा	-14441
▁अपबरगु	-14442
▁कल्पतर	-14443
▁कोपिहि	-14444
▁खेलहीं	-14445
▁खेलारू	-14446
▁दिनराऊ	-14447
▁देखाउब	-14448
▁परनसाल	-14449
▁पातकमई	-14450
▁बंधाना	-14451
▁बंध्या	-14452
▁बितानु	-14453
▁बिमोहे	-14454
▁बोलाउब	-14455
▁मदनारी	-14456
▁मयसुता	-14457
▁मुरुछि	-14458
▁रसबोरि	-14459
▁लंकपति	-14460
▁लाजहीं	-14461
▁सुरराऊ	-14462
▁हतभागी	-14463
जिअनमूरि	-14464
▁उबरिहिं	-14465
▁कनकलोचन	-14466
▁कल्पतरू	-14467
▁कल्पहिं	-14468
▁कानन्हि	-14469
▁खेलावहु	-14470
▁दिननायक	-14471
▁दुंदभीं	-14472
▁नृपरिषि	-14473
▁पच्छहीन	-14474
▁पापिष्ट	-14475
▁पापौघमय	-14476
▁पालिबीं	-14477
▁पालिहिं	-14478
▁पावहिगो	-14479
▁पिंजराँ	-14480
▁पिकबचनि	-14481
▁पितुगृह	-14482
▁पिनाकहि	-14483
▁पिरीतें	-14484
▁पीड़हिं	-14485
▁पुटन्हि	-14486
▁पुन्यथल	-14487
▁पुरवहुँ	-14488
▁पूँछिउँ	-14489
▁पूँछिहि	-14490
▁पूरकनाम	-14491
▁पृथुराज	-14492
▁प्यारीं	-14493
▁प्रगल्भ	-14494
▁प्रजंता	-14495
▁प्रजारी	-14496
▁प्रतापा	-14497
▁प्रबेसा	-14498
▁प्रबोधू	-14499
विक	-14500
ोपद	-14501
▁ऊख	-14502
कनाई	-14503
गवनी	-14504
गोपद	-14505
जंति	-14506
दस्व	-14507
फेरे	-14508
बड़े	-14509
योदस	-14510
रंति	-14511
राट्	-14512
लागि	-14513
वंति	-14514
विंद	-14515
विना	-14516
विमल	-14517
ोपित	-14518
▁ऊसर	-14519
▁दमक	-14520
▁सदल	-14521
▁सदो	-14522
ंतिते	-14523
जपहिं	-14524
न्माय	-14525
पयोदस	-14526
मुकता	-14527
विंदं	-14528
विक्त	-14529
विमलं	-14530
िचारी	-14531
ेदस्व	-14532
▁ऊखमय	-14533
▁गलित	-14534
▁नैनी	-14535
▁नैबे	-14536
▁नैहर	-14537
▁पेड़	-14538
▁फूलइ	-14539
▁सदोस	-14540
ंदकंदु	-14541
पुत्रि	-14542
सेव्यं	-14543
ारोपित	-14544
्रजंति	-14545
▁उचारी	-14546
▁खैंचत	-14547
▁खोजौं	-14548
▁गीधहि	-14549
▁घालसि	-14550
▁छत्रु	-14551
▁दैविक	-14552
▁नैमिष	-14553
▁पठएसि	-14554
▁पठएहु	-14555
▁पेड़ु	-14556
▁बदंति	-14557
▁बिकटा	-14558
▁बैठिअ	-14559
▁भुजाँ	-14560
▁लोनाई	-14561
▁सुनेउ	-14562
▁सुनेऊ	-14563
मुकताहल	-14564
रंतिदेव	-14565
व्रजंति	-14566
▁कंपहिं	-14567
▁कृपनाई	-14568
▁गीधपति	-14569
▁गुंजार	-14570
▁चिकनाई	-14571
▁छबिधाम	-14572
▁जितेउँ	-14573
▁तरपहिं	-14574
▁तरिहउँ	-14575
▁तामरसु	-14576
▁तिमिरु	-14577
▁नरकहुँ	-14578
▁बाँधेउ	-14579
▁बिधवपन	-14580
▁भाँड़े	-14581
▁मइत्री	-14582
▁मगबासी	-14583
▁यन्माय	-14584
▁रामधाम	-14585
▁वेदस्व	-14586
▁ससुरें	-14587
▁सुरधाम	-14588
▁सुराजू	-14589
▁स्वधाम	-14590
बीरब्रती	-14591
समारोपित	-14592
्यालराट्	-14593
▁कठोरपनु	-14594
▁कुलवंति	-14595
▁तीरबासी	-14596
▁निपटहिं	-14597
▁नैबेद्य	-14598
▁प्रबोधे	-14599
चइअ	-14600
रूख	-14601
घवान	-14602
तलाई	-14603
तीतल	-14604
पंचु	-14605
बीथि	-14606
रीबन	-14607
▁अरँ	-14608
▁झइँ	-14609
▁पथु	-14610
▁सलो	-14611
नसावन	-14612
निरतं	-14613
रूढ़ा	-14614
विप्र	-14615
ेस्वर	-14616
▁अमरउ	-14617
▁आँचर	-14618
▁आँचा	-14619
▁आँसु	-14620
▁कागद	-14621
▁कागू	-14622
▁मेलै	-14623
धनिरतं	-14624
निवासु	-14625
रतनदीप	-14626
▁अँचइअ	-14627
▁अपरना	-14628
▁अरँडु	-14629
▁असहाई	-14630
▁आचारी	-14631
▁कुचाल	-14632
▁गहगहि	-14633
▁चोराई	-14634
▁जटाजू	-14635
▁थारीं	-14636
▁पिआइअ	-14637
▁मघवान	-14638
▁मज्जि	-14639
▁रचिसि	-14640
▁सलोने	-14641
▁सहिहि	-14642
▁सारीं	-14643
▁सिहाई	-14644
▁सुभदं	-14645
▁सेतुः	-14646
▁हँसाई	-14647
▁हठसील	-14648
तनुधारी	-14649
रनिवासु	-14650
रारूढ़ा	-14651
वधनिरतं	-14652
▁कटिन्ह	-14653
▁गाढ़ें	-14654
▁चोरहीं	-14655
▁जगतीतल	-14656
▁जटाजूट	-14657
▁दच्छहि	-14658
▁द्रवउँ	-14659
▁धनधारी	-14660
▁निकाईं	-14661
▁परपंचु	-14662
▁बदरीबन	-14663
▁बिषमता	-14664
▁मुड़ाइ	-14665
▁सनकारे	-14666
▁समुहाई	-14667
▁सितलाई	-14668
▁कुचालीं	-14669
▁गोविप्र	-14670
▁दनुजारी	-14671
▁परनिंदक	-14672
▁प्रभुणा	-14673
▁प्रलापी	-14674
▁प्रसंगू	-14675
▁प्रसंसक	-14676
▁प्रसंसन	-14677
▁प्रहरषे	-14678
▁प्रहलाद	-14679
▁फनिकन्ह	-14680
▁बंदनवार	-14681
▁बंदिगृह	-14682
▁बक्रगति	-14683
▁बटछाहीं	-14684
▁बड़वानल	-14685
▁बनदेबीं	-14686
▁बन्धुना	-14687
▁बबूरहिं	-14688
▁बल्लभहि	-14689
▁बसिष्ठँ	-14690
▁बाँधेउँ	-14691
▁बाँध्यो	-14692
▁बाटिकाँ	-14693
▁बारहवाँ	-14694
▁बालकरूप	-14695
▁बालकेलि	-14696
▁बालबिधु	-14697
▁बिगरिहि	-14698
▁बिगारेउ	-14699
धिरो	-14700
बीरु	-14701
महास	-14702
सुनइ	-14703
▁खाब	-14704
करनबे	-14705
कोबिद	-14706
चौथें	-14707
धावहु	-14708
प्रदं	-14709
भूपहि	-14710
सुनहि	-14711
्नोदर	-14712
॥328॥	-14713
▁खाटी	-14714
▁खाया	-14715
▁तुंग	-14716
▁तुषा	-14717
▁थलचर	-14718
▁नमित	-14719
▁पथ्य	-14720
▁पदबी	-14721
▁पयोद	-14722
▁सौंघ	-14723
▁हीनू	-14724
करनबेध	-14725
धिरोपल	-14726
बीचहिं	-14727
महासैल	-14728
रात्मा	-14729
स्नोदर	-14730
▁आनिबी	-14731
▁करवाए	-14732
▁चोराइ	-14733
▁तुरित	-14734
▁नरभूप	-14735
▁निगमु	-14736
▁प्रनय	-14737
▁बाजार	-14738
▁रमासम	-14739
▁रहिउँ	-14740
▁लगहिं	-14741
▁लगाईं	-14742
▁लगावत	-14743
▁लावहु	-14744
▁सरोजा	-14745
▁सर्बर	-14746
▁सिरात	-14747
▁हीनता	-14748
चौथेंपन	-14749
▁अकोबिद	-14750
▁अजामिल	-14751
▁करतारा	-14752
▁जनावहु	-14753
▁तीनिउँ	-14754
▁तुषारा	-14755
▁निर्नय	-14756
▁पछिताइ	-14757
▁पछिताब	-14758
▁बेदबिद	-14759
▁भरतारा	-14760
▁मानिबी	-14761
▁रामभूप	-14762
▁लघुनाम	-14763
▁सरासुन	-14764
▁सहावहु	-14765
▁सौंघाई	-14766
▁अनुचितु	-14767
▁कुमतिही	-14768
▁कोपगृहँ	-14769
▁गिरिराऊ	-14770
▁छमिहहिं	-14771
▁जैसेहिं	-14772
▁तीनिहुँ	-14773
▁तुषाराद	-14774
▁द्विबिद	-14775
▁पचारहीं	-14776
▁पछिताऊँ	-14777
▁पछिताति	-14778
▁पछिताती	-14779
▁पछिताहू	-14780
▁बिचच्छन	-14781
▁बिचरंति	-14782
▁बिडंबना	-14783
▁बिथकहिं	-14784
▁बिधवन्ह	-14785
▁बिधुबदन	-14786
▁बिपत्ति	-14787
▁बिभंजनि	-14788
▁बिमात्र	-14789
▁बिराजते	-14790
▁बिलखानी	-14791
▁बिलगाना	-14792
▁बिसराईं	-14793
▁बिसराते	-14794
▁बिसरायउ	-14795
▁बीरघाति	-14796
▁बीरभद्र	-14797
▁बूड़हिं	-14798
▁बेतपानि	-14799
ऊष	-14800
ऊषर	-14801
कौल	-14802
चवै	-14803
धेः	-14804
पनव	-14805
सपन	-14806
ःकाम	-14807
कौरि	-14808
खंडा	-14809
जनकु	-14810
टकहु	-14811
नंदि	-14812
मूदे	-14813
मोरे	-14814
रोजा	-14815
ावजम	-14816
▁आँत	-14817
▁टाट	-14818
▁दंत	-14819
▁मीठ	-14820
नंदनि	-14821
भिराम	-14822
मागउँ	-14823
सपनें	-14824
िरिहि	-14825
▁अगेह	-14826
▁अलखु	-14827
▁आहार	-14828
▁ओहार	-14829
▁चीखा	-14830
▁चीरि	-14831
▁छूटउ	-14832
▁छूटत	-14833
▁छूटै	-14834
▁छोरे	-14835
▁तुहि	-14836
▁नीरू	-14837
▁पचवै	-14838
▁बेरो	-14839
▁मराए	-14840
▁मीजत	-14841
▁मूड़	-14842
▁लोमस	-14843
▁सुपन	-14844
निहारी	-14845
भिरामं	-14846
ावजमहे	-14847
▁अँधिय	-14848
▁अतिरो	-14849
▁उपहार	-14850
▁छलहीन	-14851
▁छाँही	-14852
▁छूटीं	-14853
▁जलहीन	-14854
▁जोहार	-14855
▁थोरिउ	-14856
▁देवाइ	-14857
▁देवाप	-14858
▁धनहीन	-14859
▁पनारि	-14860
▁पाखंड	-14861
▁बिखंड	-14862
▁मराएँ	-14863
▁मानिऐ	-14864
▁राजनय	-14865
▁सोहमस	-14866
▁हटकहु	-14867
कीन्हीं	-14868
पूँछिहि	-14869
▁अभिनंद	-14870
▁कीसन्ह	-14871
▁कोप्यो	-14872
▁कौसिकु	-14873
▁गजराजा	-14874
▁जरठपनु	-14875
▁दंतकथा	-14876
▁निःकाम	-14877
▁पतिआनि	-14878
▁पिरोजा	-14879
▁बरदानु	-14880
▁बिखंडन	-14881
▁भयहारी	-14882
▁भिरिहि	-14883
▁मनिहीन	-14884
▁मानिहि	-14885
▁लंकेसा	-14886
▁लहकौरि	-14887
▁सुपनखा	-14888
▁सोहमस्	-14889
नंदिगाँव	-14890
ावजमहेशव	-14891
▁अतिरोषी	-14892
▁गिरिनंद	-14893
▁ग्राम्य	-14894
▁दिनकरहि	-14895
▁दुखहारी	-14896
▁देवापगा	-14897
▁धर्महीन	-14898
▁नसावहिं	-14899
ऐन	-14900
अढ़	-14901
गमु	-14902
ठाइ	-14903
ढ़ा	-14904
तरे	-14905
दरे	-14906
धाइ	-14907
धात	-14908
बैर	-14909
ोपल	-14910
ोमल	-14911
्पु	-14912
अगमु	-14913
अढ़ु	-14914
खानि	-14915
चरजा	-14916
चिनि	-14917
दरेण	-14918
नेमु	-14919
न्दी	-14920
बाला	-14921
बिचर	-14922
मुनी	-14923
हेर्	-14924
▁गरइ	-14925
▁चेन	-14926
▁फरे	-14927
▁बलं	-14928
▁मरे	-14929
कल्पु	-14930
ग्रहं	-14931
▁कोपे	-14932
▁चकार	-14933
▁चाली	-14934
▁जहिआ	-14935
▁जामु	-14936
▁जोहे	-14937
▁ठठाइ	-14938
▁तरकी	-14939
▁दलहि	-14940
▁देहे	-14941
▁पुरब	-14942
▁बरनइ	-14943
▁बेरे	-14944
▁मनपर	-14945
▁सिखे	-14946
अढ़ुकि	-14947
थाहेर्	-14948
▁अनंदू	-14949
▁अमाना	-14950
▁उपारे	-14951
▁कुधात	-14952
▁डाढ़ा	-14953
▁डारौं	-14954
▁तोतरे	-14955
▁नीदबस	-14956
▁पावति	-14957
▁लागिअ	-14958
▁सँजोग	-14959
न्यनिधि	-14960
बिचरहिं	-14961
▁कन्याद	-14962
▁चतुरसम	-14963
▁जोतिषी	-14964
▁डरपहिं	-14965
▁दारुनि	-14966
▁देहेसु	-14967
▁निबाहु	-14968
▁बापुरे	-14969
▁बिदारे	-14970
▁रतनारे	-14971
▁सुकोमल	-14972
मर्कटहीन	-14973
मुनींद्र	-14974
▁अरुनोपल	-14975
▁अवधबासी	-14976
▁करुनाऐन	-14977
▁छबिखानि	-14978
▁नरादरेण	-14979
▁निजानंद	-14980
▁नीरनिधि	-14981
▁नृपबाला	-14982
▁परिचरजा	-14983
▁पूँछहीन	-14984
▁बेदसिरा	-14985
▁बेनुमूल	-14986
▁बैकुंठा	-14987
▁बैठारीं	-14988
▁बै‍देहि	-14989
▁बौरायहु	-14990
▁ब्यवहरि	-14991
▁भंजेहुँ	-14992
▁भक्त्या	-14993
▁भगवंतहि	-14994
▁भयातुरे	-14995
▁भरतमातु	-14996
▁भरतागवन	-14997
▁भवानिहि	-14998
▁भाग्यभा	-14999
छस	-15000
गीं	-15001
फोर	-15002
खिना	-15003
निता	-15004
फोरै	-15005
राकर	-15006
रिखि	-15007
रुंड	-15008
लगीं	-15009
हँबल	-15010
ोरसि	-15011
▁आकु	-15012
▁उडु	-15013
▁पनच	-15014
▁फोर	-15015
▁बकि	-15016
▁लखब	-15017
▁सहम	-15018
दखिना	-15019
॥212॥	-15020
▁गवनब	-15021
▁तिनु	-15022
▁तिरा	-15023
▁परमं	-15024
▁परिख	-15025
▁बेचक	-15026
▁बेनि	-15027
▁बेरा	-15028
▁मुरा	-15029
▁मौनु	-15030
▁राछस	-15031
▁रोकन	-15032
▁लागई	-15033
▁लेसै	-15034
▁लोला	-15035
▁हरिं	-15036
पावहिं	-15037
मनिरतं	-15038
ारेन्ह	-15039
▁अवधहि	-15040
▁आकृति	-15041
▁आरामः	-15042
▁उडुगन	-15043
▁जिनहि	-15044
▁तर्जत	-15045
▁दैवहि	-15046
▁फेरीं	-15047
▁बकिहि	-15048
▁बिलपि	-15049
▁भंजनं	-15050
▁भाषौं	-15051
▁लुगाई	-15052
▁सकाना	-15053
▁सकोचा	-15054
▁हिंसा	-15055
स्योरसि	-15056
▁अँदेसा	-15057
▁करिहौं	-15058
▁गिरायो	-15059
▁गोबिंद	-15060
▁तिभुअन	-15061
▁निग्रह	-15062
▁पारिखि	-15063
▁बाहँबल	-15064
▁बिनवति	-15065
▁भेंटति	-15066
▁समुझनि	-15067
▁सोचहीं	-15068
▁हाँकेउ	-15069
नामनिरतं	-15070
▁अबिबेकी	-15071
▁अभिअंतर	-15072
▁किंकिनी	-15073
▁परछिद्र	-15074
▁परदखिना	-15075
▁परिखेहु	-15076
▁बेगिहीं	-15077
▁भानुबंस	-15078
▁भाषानिब	-15079
▁भिन्नसे	-15080
▁भिल्लनि	-15081
▁भुजगराज	-15082
▁भुजचारी	-15083
▁भूपगृहँ	-15084
▁भृंगिहि	-15085
▁भृगुसुत	-15086
▁भोरेहुँ	-15087
▁मंगलगान	-15088
▁मंगलमूल	-15089
▁मत्सराः	-15090
▁मनकामना	-15091
▁मनभावति	-15092
▁मनभावतो	-15093
▁मनुजादा	-15094
▁मयतनयाँ	-15095
▁मरजादाँ	-15096
▁मरनिहार	-15097
▁मरिहहिं	-15098
▁महाकपटी	-15099
ंतत	-15100
देन	-15101
बेल	-15102
मृष	-15103
ोषर	-15104
।।9	-15105
▁ढे	-15106
ँद्र	-15107
कादर	-15108
कामि	-15109
दमृष	-15110
दिहु	-15111
पूछी	-15112
बलता	-15113
संतत	-15114
ावंत	-15115
्याम	-15116
▁अपी	-15117
▁अवट	-15118
▁खरत	-15119
▁गना	-15120
▁छीन	-15121
▁जंत	-15122
▁ज्व	-15123
▁टंक	-15124
▁ढेक	-15125
▁तजु	-15126
▁तजै	-15127
▁पठै	-15128
▁बरी	-15129
▁लोन	-15130
▁सरई	-15131
▁सरग	-15132
आदिहु	-15133
धावंत	-15134
फिरती	-15135
सुनिअ	-15136
ियन्ह	-15137
।।9।।	-15138
▁अनृत	-15139
▁अवटै	-15140
▁कपिप	-15141
▁खरतर	-15142
▁गुनइ	-15143
▁थाका	-15144
▁नरदे	-15145
▁पाठक	-15146
▁बाचि	-15147
▁बेगी	-15148
▁बेला	-15149
▁भरतक	-15150
▁भरतू	-15151
▁मंदि	-15152
▁मोचत	-15153
▁लोने	-15154
▁सरपि	-15155
▁सरहि	-15156
▁साजन	-15157
▁हरहि	-15158
ँद्रजी	-15159
जगदंबा	-15160
दमृषैव	-15161
वृन्दै	-15162
ोषरहित	-15163
▁उरगाद	-15164
▁कैकईं	-15165
▁गिरौं	-15166
▁छत्रक	-15167
▁तुरगा	-15168
▁दाहें	-15169
▁धन्या	-15170
▁प्रमथ	-15171
▁मिथ्‍	-15172
▁श्याम	-15173
कामिन्ह	-15174
वृन्दैक	-15175
सत्त्वा	-15176
ोषरहितं	-15177
▁उरगादः	-15178
▁कपिपोत	-15179
▁किंकरि	-15180
▁गुरकुल	-15181
▁छिनुकु	-15182
▁जंत्री	-15183
▁जानामि	-15184
▁जानिबे	-15185
▁जामाता	-15186
▁ज्वाला	-15187
▁टंकोरा	-15188
▁डेराउँ	-15189
▁नरदेहा	-15190
▁बिलखेउ	-15191
▁बिहरति	-15192
▁भरतकूप	-15193
▁संगिनि	-15194
ँद्रजीता	-15195
▁कोलन्हि	-15196
▁गनपतिहि	-15197
▁छुधावंत	-15198
▁बहुमाना	-15199
आवा	-15200
कोक	-15201
मुद	-15202
वौं	-15203
टिंग	-15204
पूजि	-15205
ूलें	-15206
ौंड़	-15207
्भुज	-15208
▁गोर	-15209
▁दइअ	-15210
▁धनि	-15211
▁बलक	-15212
▁बसह	-15213
▁बाऊ	-15214
▁भयं	-15215
▁मरब	-15216
▁समझ	-15217
▁सेर	-15218
▁सेल	-15219
▁हतब	-15220
तिसुत	-15221
प्रजा	-15222
मनादि	-15223
मुदीं	-15224
रीनाथ	-15225
श्रित	-15226
ोटिंग	-15227
▁आपने	-15228
▁ऐहिं	-15229
▁कहसी	-15230
▁खावा	-15231
▁जगहि	-15232
▁जनमा	-15233
▁जलपा	-15234
▁देखउ	-15235
▁धनिक	-15236
▁पायक	-15237
▁भगान	-15238
▁भेका	-15239
▁भेरी	-15240
▁सेनु	-15241
▁सेला	-15242
श्रितो	-15243
षाच्छर	-15244
सुनहिं	-15245
हारिणौ	-15246
▁गुनगन	-15247
▁चरित्	-15248
▁जंजाल	-15249
▁जलपाय	-15250
▁पठवौं	-15251
▁बधिहि	-15252
▁बिलसत	-15253
▁बौंड़	-15254
▁भ्रमु	-15255
▁सतरूप	-15256
▁समझउँ	-15257
▁सिराइ	-15258
▁अवलोके	-15259
▁गोरोचन	-15260
▁झोटिंग	-15261
▁दीनन्ह	-15262
▁दूषहिं	-15263
▁निंदति	-15264
▁निकारि	-15265
▁बलकावा	-15266
▁मलायतन	-15267
▁लघुन्ह	-15268
▁समूलें	-15269
▁हरिधाम	-15270
माश्रितो	-15271
मूलमनादि	-15272
▁कौमुदीं	-15273
▁दितिसुत	-15274
▁प्रेमरस	-15275
▁प्रेमहि	-15276
▁बिसारेउ	-15277
▁महादानि	-15278
▁महानिधि	-15279
▁महारिषि	-15280
▁महिषखाइ	-15281
▁महिषेसा	-15282
▁महिषेसु	-15283
▁माँगहिं	-15284
▁मान्यता	-15285
▁मायाधीस	-15286
▁मायानाथ	-15287
▁मायामृग	-15288
▁मारतहूँ	-15289
▁मारीचहि	-15290
▁मितप्रद	-15291
▁मितभोगी	-15292
▁मिथ्‍या	-15293
▁मिलतेउँ	-15294
▁मिलतेहु	-15295
▁मिलवहिं	-15296
▁मुक्तये	-15297
▁मुठभेरी	-15298
▁मुनिबधू	-15299
आधा	-15300
इया	-15301
ढ़इ	-15302
दसक	-15303
बढ़	-15304
रकत	-15305
रनउ	-15306
लेन	-15307
वता	-15308
सबल	-15309
ुषा	-15310
ैया	-15311
अजसु	-15312
कालि	-15313
किएँ	-15314
कुति	-15315
ढ़ाव	-15316
दंडक	-15317
पलँग	-15318
फरकत	-15319
बढ़त	-15320
बर्ज	-15321
भैया	-15322
र्मद	-15323
सिखर	-15324
ुलेउ	-15325
▁अवच	-15326
▁ददा	-15327
▁पदं	-15328
▁बसई	-15329
▁भरन	-15330
▁भूष	-15331
▁भैं	-15332
▁मदा	-15333
▁याव	-15334
गिनां	-15335
जामिष	-15336
ढ़हिं	-15337
दसकंध	-15338
सुइया	-15339
सेहुँ	-15340
▁अवचट	-15341
▁कुबल	-15342
▁कोसा	-15343
▁चलउँ	-15344
▁छोली	-15345
▁जिया	-15346
▁डारई	-15347
▁पाया	-15348
▁पुहु	-15349
▁बाघउ	-15350
▁बिलो	-15351
▁बोरा	-15352
▁बौरे	-15353
▁लागइ	-15354
▁संजु	-15355
▁सुधर	-15356
▁सुरन	-15357
▁सुरब	-15358
ऐसेहुँ	-15359
तबढ़ाव	-15360
पढ़हिं	-15361
वँदरसी	-15362
हारिनि	-15363
▁उकुति	-15364
▁कठवता	-15365
▁कुबलय	-15366
▁खुलेउ	-15367
▁जानैं	-15368
▁जियाए	-15369
▁तवानन	-15370
▁ददाति	-15371
▁दुरेऊ	-15372
▁नर्मद	-15373
▁निरनउ	-15374
▁बिढ़इ	-15375
▁ब्यली	-15376
▁यावद्	-15377
▁लागउँ	-15378
▁सारदी	-15379
▁सुनैं	-15380
▁हाँके	-15381
दसकंधरा	-15382
योगिनां	-15383
▁नानापु	-15384
▁पंथाना	-15385
▁पियुषा	-15386
▁पुहुमि	-15387
▁बढ़ावन	-15388
▁बिलगाए	-15389
▁बिलोएँ	-15390
▁ब्यलीक	-15391
▁मदादिक	-15392
▁संपाति	-15393
▁सहसभुज	-15394
चूड़ामनि	-15395
▁अनुबादा	-15396
▁गरुड़हि	-15397
▁बतबढ़ाव	-15398
▁ब्याप्य	-15399
ँधा	-15400
अहइ	-15401
चलि	-15402
टहि	-15403
दलि	-15404
सची	-15405
॥2-	-15406
▁लौ	-15407
कदलि	-15408
चलिअ	-15409
थांग	-15410
थाती	-15411
दासु	-15412
माथा	-15413
र्तक	-15414
लिंग	-15415
सनयन	-15416
▁छलि	-15417
▁जिइ	-15418
▁पलि	-15419
▁बनर	-15420
▁रंच	-15421
▁सिक	-15422
▁हरई	-15423
कोपेउ	-15424
दीन्ह	-15425
नापति	-15426
प्रबि	-15427
बिपति	-15428
बिरिद	-15429
॥2-3॥	-15430
॥335॥	-15431
▁अनया	-15432
▁अनुक	-15433
▁किरि	-15434
▁चोंच	-15435
▁छुड़	-15436
▁तेलि	-15437
▁बंधू	-15438
▁बहोर	-15439
▁बिभा	-15440
▁बिमद	-15441
▁बिरि	-15442
▁मामव	-15443
▁लौका	-15444
▁अनुकथ	-15445
▁किरिच	-15446
▁जागति	-15447
▁नर्तक	-15448
▁बँधाए	-15449
▁बंदनु	-15450
▁बरजउँ	-15451
▁भेटहि	-15452
▁मोहाप	-15453
▁रथांग	-15454
▁राँधा	-15455
▁सिकता	-15456
▁हनहिं	-15457
प्रबिसे	-15458
सेनापति	-15459
▁अनयासा	-15460
▁अनुकथन	-15461
▁काजहिं	-15462
▁तापसहि	-15463
▁धनुषमख	-15464
▁बनरन्ह	-15465
▁बलसींव	-15466
▁बिभाती	-15467
▁बिरिदु	-15468
▁सहसनयन	-15469
▁सिखिनि	-15470
▁सिधारा	-15471
▁हरिनाम	-15472
कुंभजादि	-15473
▁अहिबेलि	-15474
▁छुड़ावा	-15475
▁जिइहहिं	-15476
▁डगमगानि	-15477
▁निरीहमी	-15478
▁पलिअहिं	-15479
▁पुराकृत	-15480
▁मामवलोक	-15481
▁मुनिराउ	-15482
▁मुरुचित	-15483
▁मृगनायक	-15484
▁मृगनैनी	-15485
▁मृगराजु	-15486
▁मृगरूपा	-15487
▁मृदुलाई	-15488
▁मेचकताई	-15489
▁मोरेहूँ	-15490
▁यत्पूर्	-15491
▁याभ्यां	-15492
▁येऽतिदु	-15493
▁रघुचंदु	-15494
▁रघुनंदू	-15495
▁रघुबंसी	-15496
▁रचेन्हि	-15497
▁रच्छहीं	-15498
▁रतिप्रद	-15499
टोप	-15500
पलक	-15501
यहउ	-15502
ूका	-15503
▁नः	-15504
कारक	-15505
ग्रा	-15506
चितई	-15507
तीता	-15508
तेइँ	-15509
पाईं	-15510
र्ति	-15511
वानू	-15512
सियँ	-15513
ारका	-15514
▁आहि	-15515
▁किस	-15516
▁दून	-15517
▁नपु	-15518
▁पचा	-15519
▁फरा	-15520
▁बकउ	-15521
▁बहे	-15522
टाटोप	-15523
भूषित	-15524
्त्रं	-15525
्रारि	-15526
▁अजहि	-15527
▁कुंठ	-15528
▁गरु़	-15529
▁टूका	-15530
▁ताका	-15531
▁दारय	-15532
▁धृति	-15533
▁फराक	-15534
▁बिलं	-15535
▁ब्रा	-15536
▁भगतन	-15537
▁माती	-15538
▁मायँ	-15539
▁मैला	-15540
▁श्रा	-15541
▁सुकर	-15542
▁सुसं	-15543
ग्राही	-15544
घटाटोप	-15545
▁कथहिं	-15546
▁जायउँ	-15547
▁नपुंस	-15548
▁निरमय	-15549
▁पचासक	-15550
▁बिहात	-15551
▁ब्रात	-15552
▁लागेउ	-15553
▁सरीसा	-15554
▁सहससी	-15555
▁सिंदु	-15556
▁हरषान	-15557
▁किसाना	-15558
▁कुंठित	-15559
▁कुसलात	-15560
▁कौतुकि	-15561
▁गरु़ड़	-15562
▁गोतीता	-15563
▁चौपाईं	-15564
▁धनवानू	-15565
▁नपुंसक	-15566
▁निरमयऊ	-15567
▁नृपगृह	-15568
▁बत्तिस	-15569
▁बननिधि	-15570
▁बिदारन	-15571
▁बिलंबा	-15572
▁मागेहु	-15573
▁श्रापु	-15574
▁सिवचाप	-15575
▁सुकरमा	-15576
▁सुरसदन	-15577
▁सूझहिं	-15578
ावशवर्ति	-15579
▁कौतुकिअ	-15580
▁मायारूप	-15581
▁रनिवासा	-15582
▁रमारमनं	-15583
▁राकापति	-15584
▁राजदुआर	-15585
▁राजिवने	-15586
▁रामचंदु	-15587
▁रामपुरी	-15588
▁रामभद्र	-15589
▁रामसखहि	-15590
▁रामायणे	-15591
▁रामायुध	-15592
▁रिषिराऊ	-15593
▁रिसाहिं	-15594
▁लोभामरष	-15595
▁लोलुपता	-15596
▁वर्णाना	-15597
▁वातजातं	-15598
▁विक्रमं	-15599
ड़स	-15600
णीर	-15601
बदु	-15602
वँइ	-15603
हेम	-15604
्ला	-15605
णीरभ	-15606
दपति	-15607
मानत	-15608
लकनि	-15609
ल्या	-15610
सालु	-15611
होहि	-15612
ह्ला	-15613
ागवन	-15614
ीतिर	-15615
ुषार	-15616
ोड़स	-15617
▁76॥	-15618
▁अती	-15619
▁किम	-15620
▁कों	-15621
▁छोर	-15622
▁जेन	-15623
▁ताए	-15624
▁यद्	-15625
▁लइह	-15626
▁सखर	-15627
अबिचल	-15628
भाइहि	-15629
रहिहि	-15630
▁किया	-15631
▁घामु	-15632
▁छोरइ	-15633
▁नकुल	-15634
▁पोछि	-15635
▁मोला	-15636
▁सकलं	-15637
▁सृजइ	-15638
▁सोवन	-15639
▁हरषई	-15640
करनधार	-15641
णीरभार	-15642
▁अतीवा	-15643
▁करेसु	-15644
▁गगनपथ	-15645
▁गुननि	-15646
▁जेवँइ	-15647
▁ढारीं	-15648
▁तीतिर	-15649
▁तुषार	-15650
▁दुरइँ	-15651
▁पठंति	-15652
▁पूँछा	-15653
▁पोछिं	-15654
▁बूझिए	-15655
▁मागसि	-15656
▁रौरें	-15657
▁लोभाए	-15658
▁षोड़स	-15659
▁संबदु	-15660
णीरभारं	-15661
प्रह्ला	-15662
▁अहल्या	-15663
▁उपराजा	-15664
▁किलकनि	-15665
▁कोंछें	-15666
▁गजराजु	-15667
▁दुर्जन	-15668
▁नसाइहि	-15669
▁पथिगतं	-15670
▁पूँछें	-15671
▁मनिहार	-15672
▁रजनीसा	-15673
▁रोहिनि	-15674
▁लेखहीं	-15675
▁सुनाइअ	-15676
▁सुरकुल	-15677
णनिगमागम	-15678
▁अहिनाहू	-15679
▁कहहिंकर	-15680
▁तरनिकुल	-15681
▁बिलगाने	-15682
▁मरुभूमि	-15683
▁विग्रहं	-15684
▁विविक्त	-15685
▁विशुद्ध	-15686
▁वेदान्त	-15687
▁व्याकुल	-15688
▁व्यापकं	-15689
▁श्रीरंग	-15690
▁श्रेनीं	-15691
▁सँभारें	-15692
▁सँवारीं	-15693
▁सँवारें	-15694
▁संकल्पु	-15695
▁संजुक्त	-15696
▁संतसंमत	-15697
▁संपत्ति	-15698
▁सकुचाउँ	-15699
कला	-15700
जाब	-15701
मलक	-15702
माथ	-15703
लटा	-15704
शेष	-15705
ेला	-15706
▁गव	-15707
▁छय	-15708
उलटा	-15709
छुहे	-15710
देसि	-15711
नाथं	-15712
निहि	-15713
नुजा	-15714
परसु	-15715
माथे	-15716
मारि	-15717
मृगु	-15718
लाभु	-15719
लोका	-15720
सरोज	-15721
्यास	-15722
▁छतज	-15723
▁बरं	-15724
▁बरै	-15725
▁बेन	-15726
▁भला	-15727
▁लोत	-15728
▁सरह	-15729
▁सास	-15730
▁साह	-15731
ंचेहु	-15732
जागें	-15733
पात्र	-15734
सरोजल	-15735
▁आमलक	-15736
▁उनचा	-15737
▁करमा	-15738
▁कोला	-15739
▁जबही	-15740
▁नसाए	-15741
▁पाउँ	-15742
▁फलित	-15743
▁साहस	-15744
निरस्य	-15745
बंचेहु	-15746
भेंटेउ	-15747
लोकहुँ	-15748
शेषकार	-15749
ितनुजा	-15750
▁अलखित	-15751
▁उनचास	-15752
▁गवनीं	-15753
▁गुनिअ	-15754
▁टेरें	-15755
▁तमारि	-15756
▁देखिऐ	-15757
▁नहावा	-15758
▁पारथि	-15759
▁पालही	-15760
▁पित्त	-15761
▁प्यास	-15762
▁प्रमा	-15763
▁बिरचत	-15764
▁बिरवँ	-15765
▁बिहबल	-15766
▁बिहित	-15767
▁ब्यसन	-15768
▁माँसु	-15769
▁सपेला	-15770
▁सरहना	-15771
▁सुजोग	-15772
▁सुमेर	-15773
करसरोजल	-15774
पतिनिहि	-15775
बितनुजा	-15776
शेषकारण	-15777
▁असिकला	-15778
▁डाकिनि	-15779
▁तोहारा	-15780
▁नयसीला	-15781
▁परलोका	-15782
▁पारथिव	-15783
▁बरनिसि	-15784
▁बिसारा	-15785
▁भलाइहि	-15786
▁सबरिहि	-15787
कामादिहर	-15788
▁अरुझानी	-15789
▁प्रमादू	-15790
▁मर्देसि	-15791
▁सकुचिहि	-15792
▁सकुनाधम	-15793
▁सगुनरूप	-15794
▁सतावहिं	-15795
▁सत्यसार	-15796
▁सनमानीं	-15797
▁सप्रीति	-15798
▁सबिषादा	-15799
चतु	-15800
जेठ	-15801
र्ध	-15802
ितौ	-15803
ीचि	-15804
ृतु	-15805
▁छत	-15806
▁दत	-15807
अर्ध	-15808
आनंद	-15809
जेठे	-15810
बिबर	-15811
राने	-15812
रावा	-15813
रितु	-15814
सौंप	-15815
▁कुख	-15816
▁खनि	-15817
▁पाछ	-15818
▁पुन	-15819
▁बवा	-15820
▁बेर	-15821
▁मुई	-15822
▁मौर	-15823
बिरही	-15824
ालितौ	-15825
ुनारी	-15826
▁अरथु	-15827
▁आचार	-15828
▁खाईं	-15829
▁डारइ	-15830
▁तेरे	-15831
▁दत्त	-15832
▁धरति	-15833
▁नरका	-15834
▁नहान	-15835
▁पठवत	-15836
▁परिअ	-15837
▁पाँय	-15838
▁पुरउ	-15839
[...]
